#ifndef MODEL_H
#define MODEL_H

const uint8_t g_model[] = {
  0x1c, 0x00, 0x00, 0x00, 0x54, 0x46, 0x4c, 0x33, 0x14, 0x00, 0x20, 0x00,
  0x1c, 0x00, 0x18, 0x00, 0x14, 0x00, 0x10, 0x00, 0x0c, 0x00, 0x00, 0x00,
  0x08, 0x00, 0x04, 0x00, 0x14, 0x00, 0x00, 0x00, 0x1c, 0x00, 0x00, 0x00,
  0x98, 0x00, 0x00, 0x00, 0xf0, 0x00, 0x00, 0x00, 0xe8, 0x35, 0x00, 0x00,
  0xf8, 0x35, 0x00, 0x00, 0xa8, 0x3b, 0x00, 0x00, 0x03, 0x00, 0x00, 0x00,
  0x01, 0x00, 0x00, 0x00, 0x10, 0x00, 0x00, 0x00, 0x00, 0x00, 0x0a, 0x00,
  0x10, 0x00, 0x0c, 0x00, 0x08, 0x00, 0x04, 0x00, 0x0a, 0x00, 0x00, 0x00,
  0x0c, 0x00, 0x00, 0x00, 0x1c, 0x00, 0x00, 0x00, 0x3c, 0x00, 0x00, 0x00,
  0x0f, 0x00, 0x00, 0x00, 0x73, 0x65, 0x72, 0x76, 0x69, 0x6e, 0x67, 0x5f,
  0x64, 0x65, 0x66, 0x61, 0x75, 0x6c, 0x74, 0x00, 0x01, 0x00, 0x00, 0x00,
  0x04, 0x00, 0x00, 0x00, 0x90, 0xff, 0xff, 0xff, 0x0a, 0x00, 0x00, 0x00,
  0x04, 0x00, 0x00, 0x00, 0x08, 0x00, 0x00, 0x00, 0x6f, 0x75, 0x74, 0x70,
  0x75, 0x74, 0x5f, 0x30, 0x00, 0x00, 0x00, 0x00, 0x01, 0x00, 0x00, 0x00,
  0x04, 0x00, 0x00, 0x00, 0xfe, 0xc9, 0xff, 0xff, 0x04, 0x00, 0x00, 0x00,
  0x0d, 0x00, 0x00, 0x00, 0x69, 0x6e, 0x70, 0x75, 0x74, 0x5f, 0x6c, 0x61,
  0x79, 0x65, 0x72, 0x5f, 0x31, 0x00, 0x00, 0x00, 0x02, 0x00, 0x00, 0x00,
  0x34, 0x00, 0x00, 0x00, 0x04, 0x00, 0x00, 0x00, 0xdc, 0xff, 0xff, 0xff,
  0x0d, 0x00, 0x00, 0x00, 0x04, 0x00, 0x00, 0x00, 0x13, 0x00, 0x00, 0x00,
  0x43, 0x4f, 0x4e, 0x56, 0x45, 0x52, 0x53, 0x49, 0x4f, 0x4e, 0x5f, 0x4d,
  0x45, 0x54, 0x41, 0x44, 0x41, 0x54, 0x41, 0x00, 0x08, 0x00, 0x0c, 0x00,
  0x08, 0x00, 0x04, 0x00, 0x08, 0x00, 0x00, 0x00, 0x0c, 0x00, 0x00, 0x00,
  0x04, 0x00, 0x00, 0x00, 0x13, 0x00, 0x00, 0x00, 0x6d, 0x69, 0x6e, 0x5f,
  0x72, 0x75, 0x6e, 0x74, 0x69, 0x6d, 0x65, 0x5f, 0x76, 0x65, 0x72, 0x73,
  0x69, 0x6f, 0x6e, 0x00, 0x0e, 0x00, 0x00, 0x00, 0xf4, 0x34, 0x00, 0x00,
  0xec, 0x34, 0x00, 0x00, 0xdc, 0x29, 0x00, 0x00, 0xcc, 0x09, 0x00, 0x00,
  0x64, 0x09, 0x00, 0x00, 0xd4, 0x08, 0x00, 0x00, 0xc4, 0x07, 0x00, 0x00,
  0xb4, 0x00, 0x00, 0x00, 0xac, 0x00, 0x00, 0x00, 0xa4, 0x00, 0x00, 0x00,
  0x9c, 0x00, 0x00, 0x00, 0x94, 0x00, 0x00, 0x00, 0x74, 0x00, 0x00, 0x00,
  0x04, 0x00, 0x00, 0x00, 0xb2, 0xca, 0xff, 0xff, 0x04, 0x00, 0x00, 0x00,
  0x60, 0x00, 0x00, 0x00, 0x10, 0x00, 0x00, 0x00, 0x00, 0x00, 0x00, 0x00,
  0x08, 0x00, 0x0e, 0x00, 0x08, 0x00, 0x04, 0x00, 0x08, 0x00, 0x00, 0x00,
  0x10, 0x00, 0x00, 0x00, 0x24, 0x00, 0x00, 0x00, 0x00, 0x00, 0x06, 0x00,
  0x08, 0x00, 0x04, 0x00, 0x06, 0x00, 0x00, 0x00, 0x04, 0x00, 0x00, 0x00,
  0x00, 0x00, 0x00, 0x00, 0x0c, 0x00, 0x18, 0x00, 0x14, 0x00, 0x10, 0x00,
  0x0c, 0x00, 0x04, 0x00, 0x0c, 0x00, 0x00, 0x00, 0x6e, 0x54, 0xb6, 0xa8,
  0x01, 0xdd, 0xc1, 0xe0, 0x02, 0x00, 0x00, 0x00, 0x02, 0x00, 0x00, 0x00,
  0x04, 0x00, 0x00, 0x00, 0x06, 0x00, 0x00, 0x00, 0x32, 0x2e, 0x31, 0x38,
  0x2e, 0x30, 0x00, 0x00, 0x1e, 0xcb, 0xff, 0xff, 0x04, 0x00, 0x00, 0x00,
  0x10, 0x00, 0x00, 0x00, 0x31, 0x2e, 0x35, 0x2e, 0x30, 0x00, 0x00, 0x00,
  0x00, 0x00, 0x00, 0x00, 0x00, 0x00, 0x00, 0x00, 0x38, 0xc6, 0xff, 0xff,
  0x3c, 0xc6, 0xff, 0xff, 0x40, 0xc6, 0xff, 0xff, 0x44, 0xc6, 0xff, 0xff,
  0x4a, 0xcb, 0xff, 0xff, 0x04, 0x00, 0x00, 0x00, 0x00, 0x07, 0x00, 0x00,
  0x76, 0x84, 0xf9, 0x3e, 0xfd, 0x1f, 0x69, 0xbe, 0xf3, 0xe6, 0x36, 0xbf,
  0xc7, 0x45, 0x65, 0xbf, 0x21, 0x04, 0x93, 0xbd, 0x8a, 0x20, 0x0e, 0xbc,
  0x55, 0xd5, 0xad, 0x3e, 0xe5, 0x05, 0x02, 0xbf, 0x82, 0x31, 0x14, 0x3d,
  0xf1, 0x2e, 0x5e, 0xbf, 0x96, 0x91, 0x77, 0x3e, 0x8b, 0xc0, 0x29, 0x3f,
  0xcf, 0x06, 0x80, 0x3e, 0xa4, 0xe5, 0x31, 0xbe, 0xc0, 0xcd, 0xe1, 0x3d,
  0x0a, 0xec, 0xf7, 0xbe, 0x1f, 0x82, 0x2e, 0xbf, 0xf8, 0x5f, 0x25, 0x3e,
  0x6c, 0x23, 0xed, 0xbe, 0x2c, 0x53, 0xf7, 0xbd, 0xcc, 0x42, 0x22, 0xbf,
  0xca, 0xac, 0xdc, 0xbe, 0xa6, 0x2f, 0x08, 0x3e, 0x2d, 0xa1, 0x62, 0xbf,
  0xea, 0xfb, 0xdf, 0xbd, 0x25, 0x75, 0x99, 0x3e, 0xb9, 0xb2, 0x94, 0xbc,
  0xf4, 0xe8, 0x3e, 0xbe, 0x42, 0x19, 0xab, 0xbe, 0xe1, 0x6b, 0x88, 0x3e,
  0xe5, 0x51, 0x5d, 0xbf, 0x30, 0x83, 0xba, 0xbe, 0x12, 0x9b, 0xd9, 0x3e,
  0xce, 0xa2, 0x58, 0xbe, 0xc1, 0x03, 0x68, 0xbe, 0x04, 0xb7, 0x1f, 0xbe,
  0xaa, 0x85, 0xcb, 0xbc, 0x0e, 0xea, 0xa5, 0x3e, 0x91, 0x87, 0x8e, 0x3e,
  0xf7, 0x98, 0x7a, 0x3f, 0x33, 0xf0, 0xa5, 0xbe, 0x39, 0xac, 0x2e, 0x3f,
  0xbb, 0x12, 0xa4, 0x3d, 0xb1, 0xed, 0x55, 0xbd, 0xa3, 0xe1, 0x45, 0xbf,
  0x42, 0xa2, 0x88, 0x3e, 0xc3, 0x24, 0xdd, 0x3e, 0x33, 0x00, 0xa6, 0x3e,
  0xd0, 0x5e, 0xa3, 0xbe, 0xe0, 0x8a, 0xc9, 0xbe, 0x32, 0xcb, 0x10, 0x3e,
  0xe6, 0xc7, 0x29, 0xbd, 0x02, 0xc4, 0x08, 0x3f, 0x06, 0xec, 0xcd, 0xbe,
  0x35, 0x22, 0xbf, 0xbe, 0xcc, 0xb9, 0x78, 0xbf, 0xca, 0x0e, 0x02, 0x3e,
  0xaa, 0x85, 0xc6, 0x3e, 0x45, 0xbb, 0xc0, 0x3e, 0x4e, 0x04, 0xab, 0x3d,
  0x1c, 0xa8, 0x6c, 0x3f, 0x32, 0x7b, 0xab, 0xbe, 0x4e, 0x0a, 0x3d, 0x3f,
  0x1f, 0x06, 0x40, 0x3e, 0x25, 0x97, 0x19, 0xbf, 0x7a, 0xe0, 0x99, 0xbe,
  0xa7, 0xd2, 0x58, 0x3e, 0xc3, 0x4e, 0x0a, 0xbf, 0xea, 0x6a, 0x51, 0xbe,
  0x77, 0x0b, 0x15, 0x3f, 0x9d, 0xcc, 0x88, 0xbe, 0xde, 0xee, 0x91, 0xbb,
  0xae, 0x1d, 0x32, 0x3d, 0x98, 0xc6, 0xae, 0xbe, 0x40, 0xd1, 0xc9, 0xbe,
  0x8b, 0x16, 0x90, 0x3e, 0xe4, 0x8a, 0x22, 0xbf, 0x23, 0x99, 0xc2, 0xbe,
  0x49, 0x93, 0x16, 0xbf, 0x4b, 0xca, 0x85, 0xbd, 0x91, 0x75, 0x1d, 0x3d,
  0x71, 0x1f, 0x26, 0x3f, 0xe3, 0xdf, 0x6b, 0x3e, 0xf2, 0x93, 0x1d, 0x3f,
  0x8b, 0xa1, 0xd8, 0x3e, 0xd3, 0x59, 0xd3, 0x3e, 0x27, 0x0e, 0xad, 0xbe,
  0x30, 0xec, 0xa6, 0x3e, 0xc8, 0x23, 0x81, 0x3e, 0xc4, 0x29, 0x88, 0xbd,
  0x5f, 0xf5, 0x8c, 0xbe, 0x76, 0x21, 0x9b, 0xbe, 0xa7, 0x97, 0x59, 0x3d,
  0x1d, 0x3a, 0x84, 0xbf, 0x05, 0xeb, 0xdc, 0x3d, 0x12, 0x11, 0x83, 0x3d,
  0xf7, 0xa2, 0x1c, 0x3f, 0x8e, 0xad, 0x33, 0xbf, 0xb9, 0x5f, 0x94, 0x3d,
  0x3b, 0x0d, 0xc0, 0xbc, 0x54, 0xe5, 0x13, 0x3f, 0xd6, 0x95, 0x9e, 0x3d,
  0xe7, 0x7d, 0xd4, 0x3e, 0xdd, 0x7b, 0x23, 0xbc, 0x28, 0xa1, 0x87, 0xbf,
  0x6e, 0xe4, 0x0b, 0xbe, 0x6f, 0xbc, 0x59, 0x3f, 0xe5, 0xc6, 0xd4, 0xbd,
  0x21, 0x7a, 0x5f, 0x3e, 0x36, 0xd4, 0x4a, 0xbe, 0x4c, 0xa5, 0x54, 0xbe,
  0xb9, 0x51, 0x83, 0x3e, 0x96, 0x4e, 0xe0, 0x3d, 0x1b, 0x3f, 0xfc, 0xbd,
  0x29, 0x70, 0xcc, 0x3d, 0x4b, 0x51, 0x43, 0x3f, 0xc1, 0x69, 0xfe, 0x3d,
  0x17, 0x0d, 0x02, 0xbf, 0x47, 0x65, 0xe4, 0xbe, 0x01, 0x14, 0x25, 0x3e,
  0xe6, 0x5d, 0x9b, 0x3e, 0x0b, 0x4c, 0xdf, 0xbe, 0xb6, 0x66, 0x17, 0x3d,
  0x76, 0x48, 0x26, 0x3e, 0x66, 0x45, 0xe2, 0x3e, 0xe3, 0x93, 0xa4, 0x3e,
  0x16, 0x1c, 0x13, 0x3f, 0x5e, 0x37, 0xb2, 0x3d, 0x30, 0x08, 0x0a, 0x3d,
  0x20, 0x49, 0xb7, 0x3e, 0x88, 0x1e, 0x61, 0x3f, 0x92, 0xeb, 0x3a, 0xbd,
  0x36, 0x2f, 0x49, 0xbe, 0x13, 0x01, 0xe9, 0x3e, 0x87, 0x4d, 0x5e, 0xbe,
  0xc3, 0xe9, 0xfb, 0xbe, 0xb8, 0x2d, 0xf4, 0x3e, 0xba, 0x17, 0xd3, 0xbd,
  0xc9, 0xf3, 0x49, 0x3e, 0x06, 0x21, 0x36, 0xbe, 0x17, 0x1e, 0x8a, 0x3e,
  0xf4, 0x3e, 0xc6, 0x3e, 0x55, 0xf5, 0x9a, 0x3e, 0x60, 0x93, 0xde, 0xbe,
  0x8c, 0x3c, 0xaa, 0xbc, 0x41, 0x42, 0x2d, 0xbf, 0x04, 0x6e, 0xee, 0x3b,
  0x91, 0x1b, 0x1d, 0xbe, 0x7b, 0x29, 0x16, 0x3d, 0x49, 0xd8, 0x1e, 0xbf,
  0xbf, 0x63, 0x2e, 0x3f, 0xee, 0x3d, 0x9d, 0xbd, 0x53, 0x39, 0x13, 0x3d,
  0x21, 0xd7, 0x98, 0xbe, 0xb1, 0x01, 0xa7, 0xbe, 0xca, 0x9f, 0x30, 0xbf,
  0xac, 0x22, 0x29, 0xbe, 0xb2, 0xce, 0xd8, 0xbe, 0x85, 0x45, 0x46, 0xbe,
  0x84, 0xee, 0xf9, 0xbd, 0x4d, 0xd4, 0x25, 0xbf, 0x7a, 0x1b, 0x5d, 0xbe,
  0x51, 0x63, 0x08, 0x3f, 0x7c, 0x78, 0x1a, 0xbf, 0x20, 0x44, 0x9d, 0x3e,
  0x3b, 0x37, 0xa6, 0xbd, 0xeb, 0xce, 0x97, 0xbd, 0xb7, 0xf1, 0xce, 0x3e,
  0xd5, 0x6f, 0x36, 0xbe, 0x4c, 0xf6, 0xec, 0xbe, 0x8a, 0x5c, 0xe7, 0x3e,
  0x59, 0x77, 0x7a, 0x3b, 0x7f, 0x35, 0x1d, 0xbe, 0x59, 0x21, 0x03, 0x3f,
  0x31, 0x68, 0x70, 0x3e, 0x8b, 0xff, 0xd8, 0xbe, 0x37, 0xb2, 0x51, 0x3e,
  0x60, 0x5c, 0x3d, 0xbf, 0x71, 0x6d, 0x63, 0x3e, 0xe3, 0x3b, 0x51, 0xbe,
  0xb2, 0xad, 0x9e, 0xbe, 0x46, 0x76, 0x2a, 0x3f, 0x90, 0x01, 0x15, 0xbf,
  0xc0, 0x8d, 0x13, 0xbf, 0xb8, 0x56, 0x69, 0xbe, 0x14, 0x4c, 0xd3, 0x3d,
  0xd0, 0xfe, 0xbe, 0x3d, 0x5c, 0xe3, 0x51, 0xbf, 0x6b, 0x28, 0x8f, 0x3e,
  0x18, 0x11, 0xe5, 0x3e, 0xa6, 0x77, 0x28, 0xbf, 0xdc, 0x06, 0x67, 0xbf,
  0x53, 0x8e, 0x2f, 0x3c, 0x6e, 0xd0, 0x9f, 0x3e, 0xeb, 0x72, 0xb7, 0xbe,
  0xe4, 0xf2, 0x6d, 0xbe, 0xf5, 0xdd, 0xb2, 0xbc, 0xf5, 0xb9, 0x01, 0x3f,
  0x48, 0x2a, 0x8c, 0xbe, 0x1f, 0x0c, 0x80, 0xbe, 0xa7, 0x61, 0x2a, 0xbf,
  0x4e, 0xee, 0x0f, 0x3e, 0x38, 0xaf, 0xbc, 0x3e, 0x1d, 0x47, 0xe6, 0x3e,
  0x5a, 0x9c, 0xcf, 0xbc, 0x6b, 0x36, 0xf8, 0x3e, 0x21, 0xff, 0x67, 0xbf,
  0x3f, 0xb7, 0x81, 0xbe, 0xff, 0xa8, 0x07, 0x3e, 0x57, 0x7c, 0x17, 0xbe,
  0x0e, 0x7e, 0xe6, 0xbe, 0xbc, 0xb4, 0xb7, 0x3e, 0xf7, 0x6b, 0x3d, 0xbf,
  0x65, 0xef, 0x44, 0x3e, 0xdb, 0x50, 0x54, 0x3d, 0x03, 0xdb, 0x7a, 0xbe,
  0x63, 0x85, 0x0d, 0x3e, 0x4f, 0x62, 0x4b, 0xbe, 0x41, 0x06, 0x58, 0xbf,
  0x54, 0xf5, 0x89, 0xbe, 0x8d, 0x5f, 0x02, 0x3f, 0xe6, 0x24, 0x4f, 0xbf,
  0x07, 0x0c, 0x00, 0x3c, 0x0a, 0x45, 0xa3, 0x3e, 0x2a, 0x22, 0xaf, 0xbe,
  0x5f, 0x59, 0x1b, 0xbf, 0x26, 0xca, 0x16, 0x3f, 0xfa, 0xd4, 0x87, 0x3e,
  0x62, 0x7d, 0x53, 0x3f, 0x96, 0xd5, 0x81, 0x3e, 0x92, 0xa4, 0x2d, 0xbe,
  0xc0, 0x8b, 0xc1, 0x3e, 0xf7, 0xd1, 0xd1, 0x3e, 0xdf, 0x41, 0x80, 0x3e,
  0x68, 0x47, 0x6f, 0xbe, 0x4b, 0x20, 0x49, 0x3f, 0x30, 0x3c, 0x8a, 0x3e,
  0xc5, 0x43, 0xea, 0x3e, 0xa8, 0x1e, 0xa6, 0x3e, 0x1f, 0x20, 0x11, 0xbf,
  0xab, 0xb2, 0x18, 0x3f, 0x8d, 0x67, 0x92, 0x3e, 0xa8, 0x34, 0xca, 0x3e,
  0x72, 0xe8, 0x8b, 0xbe, 0x9d, 0x71, 0x03, 0x3f, 0xe6, 0xfc, 0xba, 0xbe,
  0x5d, 0x2e, 0x04, 0xbf, 0xd7, 0xa2, 0x14, 0x3f, 0x9c, 0xfc, 0x20, 0x3e,
  0xdb, 0xb2, 0x1c, 0xbf, 0xc0, 0x38, 0x10, 0x3e, 0x86, 0xca, 0x13, 0x3e,
  0x15, 0x72, 0x15, 0x3e, 0x68, 0xb1, 0xfd, 0x3c, 0x8a, 0x84, 0xa0, 0x3e,
  0x2e, 0x93, 0x63, 0x3e, 0xaf, 0x08, 0x55, 0xbf, 0x65, 0x21, 0x4b, 0x3e,
  0xbb, 0x43, 0x21, 0x3e, 0x6e, 0x76, 0xf4, 0x3e, 0x9c, 0x72, 0xd5, 0x3d,
  0xeb, 0xd8, 0x90, 0xbf, 0x85, 0xb1, 0x9f, 0xbb, 0x7a, 0xf2, 0x93, 0x3e,
  0xeb, 0x1d, 0x89, 0x3b, 0x58, 0x91, 0xf3, 0x3e, 0x1c, 0x6e, 0x39, 0xbd,
  0x3d, 0x46, 0x1f, 0xbf, 0x84, 0xfb, 0x10, 0xbf, 0x3b, 0xe6, 0x55, 0x3c,
  0x36, 0xfe, 0xb2, 0xbe, 0xcf, 0x99, 0xed, 0xbd, 0xd8, 0xcc, 0x52, 0x3c,
  0x19, 0x96, 0xa2, 0xbe, 0x97, 0x2c, 0x06, 0x3f, 0x5e, 0x3f, 0xee, 0x3d,
  0xdc, 0xa7, 0x1a, 0xbf, 0xd4, 0xf3, 0x9f, 0xbe, 0x09, 0xb7, 0x2b, 0x3c,
  0x82, 0xe7, 0xec, 0xbe, 0x23, 0x15, 0xa1, 0x3e, 0x28, 0x9c, 0x4a, 0x3e,
  0xa8, 0x1a, 0x86, 0x3e, 0x80, 0x21, 0xb3, 0x3e, 0xe5, 0xb1, 0x3c, 0x3f,
  0x4a, 0x41, 0x62, 0x3e, 0xde, 0x35, 0x7d, 0xbe, 0x07, 0xa8, 0x63, 0xbe,
  0x2e, 0xea, 0xe1, 0x3e, 0xe4, 0x0d, 0xa8, 0x3d, 0x3a, 0x34, 0xe7, 0xbe,
  0x16, 0x6a, 0xad, 0xbe, 0xb5, 0x79, 0x94, 0xbe, 0x81, 0xf9, 0x0f, 0x3f,
  0xda, 0xb3, 0x8f, 0xb9, 0x12, 0xde, 0x3a, 0x3f, 0x5e, 0x66, 0xbe, 0x3e,
  0x82, 0x38, 0xb9, 0xbd, 0x80, 0xf0, 0x15, 0xbf, 0xff, 0xeb, 0x2f, 0x3e,
  0xfb, 0xd9, 0x14, 0xbf, 0x38, 0x9a, 0xaf, 0xbd, 0x39, 0x97, 0x06, 0xbe,
  0xa4, 0x98, 0xdb, 0x3e, 0x4c, 0x8c, 0xad, 0x3e, 0xa9, 0x04, 0xd0, 0x3e,
  0x8c, 0xf3, 0x19, 0x3e, 0x6a, 0x49, 0x7a, 0xbf, 0x10, 0xcd, 0xc5, 0xbe,
  0x7d, 0xc9, 0x02, 0xbd, 0xe8, 0x1b, 0x30, 0xbf, 0x6f, 0x07, 0xe0, 0x3a,
  0x86, 0x27, 0xf3, 0xbe, 0xbf, 0xf0, 0xa0, 0xbe, 0x24, 0xde, 0xbf, 0x3e,
  0xc6, 0x8d, 0x7c, 0xbd, 0x2d, 0xd0, 0x0c, 0xbc, 0xa2, 0x35, 0x46, 0xbf,
  0x82, 0x98, 0x23, 0xbe, 0xf4, 0xd4, 0xd7, 0x3e, 0xac, 0xfa, 0x99, 0x3e,
  0xa7, 0xbf, 0xdc, 0x3e, 0x65, 0xe7, 0x8b, 0xbe, 0xee, 0xd9, 0xfd, 0x3e,
  0x71, 0x6f, 0x16, 0x3e, 0x5f, 0x3d, 0x01, 0xbd, 0xeb, 0x0d, 0xba, 0xbe,
  0x0c, 0xc5, 0x8f, 0x3d, 0x76, 0xae, 0x70, 0xbf, 0x26, 0x81, 0x89, 0x3d,
  0x39, 0xec, 0x1e, 0x3e, 0xa3, 0xda, 0xb1, 0x3e, 0xdc, 0x32, 0xad, 0x3d,
  0x03, 0xbf, 0x28, 0x3f, 0x34, 0xf6, 0x08, 0x3f, 0xc3, 0x3e, 0x12, 0x3f,
  0xd1, 0x56, 0x48, 0x3e, 0x44, 0x03, 0xbe, 0xbe, 0xb0, 0x0d, 0xb2, 0xbe,
  0xbc, 0xff, 0xfe, 0xbd, 0xd6, 0x82, 0x01, 0xbf, 0xe0, 0x71, 0xb0, 0xbe,
  0x98, 0x90, 0x19, 0xbf, 0x7e, 0xcf, 0x83, 0x3d, 0x3d, 0x38, 0x2c, 0xbe,
  0xc0, 0xc2, 0x03, 0x3c, 0x8c, 0x9f, 0xb9, 0xbd, 0x29, 0xed, 0xfe, 0x3e,
  0xe5, 0x0f, 0xba, 0x3e, 0x9d, 0x23, 0xa0, 0xbd, 0x02, 0x44, 0xdb, 0x3e,
  0x7c, 0xc7, 0xc4, 0xbe, 0x19, 0xad, 0x8c, 0xbf, 0x02, 0x95, 0x60, 0xbe,
  0x11, 0x33, 0x33, 0xbf, 0xb4, 0x6c, 0xc5, 0x3d, 0x68, 0x21, 0xcc, 0x3e,
  0xd6, 0x53, 0x08, 0xbf, 0x08, 0x63, 0xd5, 0x3c, 0xed, 0x3f, 0x8a, 0x3e,
  0x9e, 0xfb, 0x1f, 0xbf, 0xcc, 0x45, 0x0a, 0x3f, 0x62, 0xc1, 0xf3, 0x3d,
  0xf7, 0xb8, 0x94, 0xbd, 0x08, 0x24, 0xe3, 0xbd, 0xcb, 0x70, 0x48, 0xbf,
  0x7b, 0x73, 0x0c, 0xbf, 0x99, 0x37, 0x15, 0x3e, 0x81, 0x8d, 0x00, 0xbf,
  0xdc, 0xfd, 0xc7, 0x3c, 0x0c, 0x8f, 0xf2, 0x3e, 0xcb, 0x0d, 0x7d, 0x3e,
  0xb0, 0xc1, 0xd4, 0x3a, 0x0c, 0xd6, 0x42, 0xbd, 0x36, 0xcf, 0xd6, 0x3e,
  0x14, 0x2a, 0x23, 0xbf, 0x64, 0x69, 0x0a, 0x3e, 0x91, 0x27, 0xa7, 0x3e,
  0x67, 0xaa, 0x1a, 0x3e, 0x57, 0x05, 0x9d, 0x3e, 0xc0, 0x6b, 0x3d, 0xbf,
  0x0c, 0x9c, 0xa6, 0xbe, 0x5c, 0x3d, 0xd1, 0xba, 0xfc, 0xa3, 0x2e, 0x3f,
  0xbd, 0xdc, 0xaa, 0xbd, 0x75, 0xb4, 0xd0, 0xbe, 0x74, 0xcf, 0x35, 0x3e,
  0x77, 0x27, 0xf5, 0x3e, 0x5d, 0xc6, 0xc1, 0xbe, 0x57, 0xb3, 0xe3, 0x3e,
  0x6a, 0x06, 0xf7, 0xbd, 0x32, 0xbb, 0x4e, 0xbd, 0x8d, 0xba, 0x28, 0x3f,
  0x47, 0x91, 0x0d, 0xbf, 0x0d, 0x6f, 0x08, 0x3f, 0x91, 0x14, 0x1b, 0x3c,
  0x88, 0x54, 0xfe, 0x3e, 0x65, 0xef, 0xc9, 0x3d, 0x8d, 0x56, 0x80, 0x3e,
  0x17, 0xc1, 0x55, 0x3e, 0x6f, 0xb5, 0x0a, 0x3f, 0xae, 0x33, 0x61, 0xbe,
  0xd8, 0x0e, 0x36, 0x3f, 0xa3, 0x6f, 0x48, 0x3e, 0xe2, 0x32, 0x97, 0xbe,
  0xd5, 0x46, 0x60, 0xbe, 0xde, 0x35, 0xe3, 0x3e, 0x18, 0x55, 0x25, 0x3f,
  0x26, 0x3e, 0x97, 0xbe, 0x61, 0xf7, 0x48, 0xbe, 0xca, 0x95, 0x33, 0xbf,
  0x55, 0xd2, 0x07, 0xbe, 0x8f, 0x2b, 0x2c, 0xbf, 0xcf, 0xd6, 0x25, 0xbf,
  0xd9, 0x9e, 0x26, 0xbf, 0x0b, 0x1d, 0x2a, 0x3f, 0xa0, 0x8e, 0xd9, 0x3d,
  0x57, 0xf1, 0x50, 0xbf, 0x91, 0x66, 0x59, 0x3e, 0x82, 0x1a, 0xc8, 0xbe,
  0x25, 0x06, 0xdc, 0x3e, 0x3c, 0x6e, 0xbe, 0xbe, 0x6e, 0xbf, 0x1a, 0x3e,
  0x21, 0xed, 0x59, 0xbe, 0x2a, 0xf6, 0x30, 0xbf, 0xf6, 0x51, 0xfc, 0x3e,
  0x18, 0xd1, 0x5a, 0xbb, 0x1f, 0xd4, 0xdd, 0xbe, 0x74, 0xbc, 0xbc, 0x3e,
  0xba, 0xb2, 0x05, 0x3f, 0xd0, 0x4b, 0xa1, 0x3e, 0xe9, 0x34, 0xd6, 0xbe,
  0x33, 0x7d, 0x29, 0x3f, 0x92, 0x6a, 0x30, 0xbf, 0xdf, 0x09, 0xea, 0xbe,
  0x46, 0x72, 0x12, 0x3f, 0xad, 0xea, 0xc6, 0x3e, 0x4c, 0x57, 0x8e, 0x3e,
  0xe5, 0xd4, 0x40, 0xbf, 0x21, 0x81, 0xd9, 0x3e, 0x53, 0x45, 0x32, 0xbf,
  0x62, 0xe2, 0x9d, 0x3e, 0xa0, 0xf4, 0x4f, 0xbe, 0xc3, 0x0b, 0x84, 0xbf,
  0xf2, 0x56, 0x95, 0x3d, 0xcb, 0xe1, 0x20, 0x3f, 0xee, 0x27, 0x94, 0x3d,
  0x6f, 0xe4, 0x2f, 0xbf, 0x56, 0xd2, 0xff, 0xff, 0x04, 0x00, 0x00, 0x00,
  0x00, 0x01, 0x00, 0x00, 0x9f, 0x5b, 0x93, 0x3e, 0x96, 0x11, 0x09, 0x3f,
  0x5b, 0xe8, 0xf1, 0x3d, 0x43, 0xe1, 0xee, 0x3e, 0x9e, 0x97, 0x23, 0x3f,
  0xb1, 0xfe, 0x2e, 0x3e, 0xf9, 0xec, 0x07, 0x3e, 0x5f, 0x61, 0x27, 0x3e,
  0xff, 0x47, 0x70, 0x3e, 0xaf, 0xa9, 0xc4, 0x3e, 0x4f, 0x9e, 0xab, 0x3e,
  0xa0, 0xa9, 0xf4, 0x3c, 0xe9, 0x01, 0x15, 0x3f, 0x03, 0x5f, 0x13, 0x3e,
  0xdd, 0x50, 0xa6, 0x3e, 0xc6, 0x04, 0xee, 0x3e, 0xbe, 0x07, 0xb7, 0xbd,
  0x52, 0xb8, 0xb2, 0x3e, 0x66, 0x84, 0xb5, 0x3d, 0xf6, 0x2b, 0xca, 0x3e,
  0xa1, 0x5f, 0x28, 0x3f, 0xae, 0xe1, 0x60, 0x3e, 0x33, 0x65, 0xbf, 0x3e,
  0x03, 0x45, 0x13, 0x3f, 0xba, 0xe7, 0x23, 0x3f, 0xca, 0x83, 0x5a, 0x3e,
  0x86, 0xbb, 0xfd, 0x3e, 0xe0, 0xeb, 0x5c, 0x3e, 0x02, 0x6d, 0xd0, 0x3e,
  0x89, 0x51, 0xf5, 0x3e, 0xa2, 0xb3, 0x02, 0x3f, 0x1f, 0x7a, 0x5e, 0x3e,
  0x7b, 0x4f, 0xc9, 0x3e, 0x19, 0x77, 0x8b, 0x3e, 0x38, 0x2e, 0x4e, 0x3e,
  0xa5, 0xa1, 0xf8, 0x3e, 0xf3, 0xe3, 0x44, 0x3f, 0xa0, 0x60, 0xff, 0x3e,
  0x53, 0x93, 0xca, 0x3e, 0x5e, 0xc2, 0x2b, 0x3e, 0x27, 0xd0, 0xad, 0x3e,
  0xe7, 0xe7, 0x5b, 0xbe, 0xe3, 0xce, 0xfa, 0x3d, 0xb1, 0x86, 0x2b, 0x3e,
  0xbd, 0x70, 0x25, 0x3d, 0xd2, 0x1a, 0xc4, 0x3e, 0x1b, 0xd5, 0xf2, 0x3d,
  0x15, 0xf8, 0xed, 0x3d, 0x9f, 0xe4, 0xc6, 0x3e, 0x45, 0x95, 0x13, 0x3f,
  0x56, 0x36, 0xec, 0x3e, 0x9e, 0x6a, 0x16, 0x3f, 0xe8, 0xae, 0xfa, 0x3e,
  0x22, 0xe7, 0x12, 0x3f, 0xb9, 0x33, 0x66, 0x3b, 0xd9, 0xb6, 0xd6, 0x3e,
  0x95, 0xa0, 0x1b, 0x3e, 0x3c, 0x3a, 0x63, 0x3e, 0xdd, 0xa3, 0x02, 0x3f,
  0xd9, 0x9f, 0xfa, 0x3d, 0x33, 0xab, 0xac, 0x3e, 0xa3, 0x9e, 0x64, 0x3e,
  0xba, 0x52, 0x1a, 0x3e, 0xcd, 0xee, 0xc1, 0x3e, 0x62, 0xd3, 0xff, 0xff,
  0x04, 0x00, 0x00, 0x00, 0x80, 0x00, 0x00, 0x00, 0x3c, 0xfc, 0x0c, 0x3c,
  0x03, 0xa3, 0x2d, 0xbd, 0xcb, 0x5c, 0x0f, 0xbc, 0x06, 0x95, 0x8b, 0xbc,
  0xce, 0xd0, 0xa7, 0xbd, 0x71, 0x0f, 0xb3, 0x3e, 0xc5, 0xe1, 0xca, 0x3e,
  0x7f, 0x98, 0xc8, 0xbc, 0x20, 0xae, 0x58, 0x3e, 0xe8, 0x59, 0x4d, 0x3e,
  0x38, 0x67, 0xe6, 0xbd, 0x4c, 0xbd, 0x10, 0x3e, 0xff, 0x99, 0x4c, 0x3e,
  0xd6, 0x0d, 0x9b, 0xbd, 0x74, 0x8d, 0x3f, 0x3e, 0x90, 0xaf, 0xb7, 0x3e,
  0x56, 0x76, 0x62, 0x3e, 0xe8, 0xe5, 0x50, 0x3e, 0x8f, 0x60, 0x3f, 0xbe,
  0xf7, 0xb2, 0xb5, 0x3d, 0x9c, 0x47, 0x3d, 0x3c, 0x66, 0x93, 0x66, 0x3e,
  0xdd, 0x7a, 0x9e, 0x3e, 0xf5, 0x06, 0xb4, 0x3e, 0x6e, 0xe9, 0xd5, 0xbc,
  0x62, 0xaa, 0x8d, 0x3e, 0x91, 0x9d, 0x0b, 0xbe, 0x29, 0xd5, 0x81, 0x3d,
  0x47, 0xf1, 0xdc, 0x3c, 0x38, 0xf3, 0x8d, 0x3e, 0xe2, 0xa4, 0x6a, 0x3d,
  0x39, 0x3a, 0x1b, 0x3e, 0xee, 0xd3, 0xff, 0xff, 0x04, 0x00, 0x00, 0x00,
  0x58, 0x00, 0x00, 0x00, 0x1d, 0x90, 0xef, 0xbd, 0xa9, 0x57, 0xe6, 0x3d,
  0xd1, 0x71, 0x7b, 0xbd, 0xf9, 0xcc, 0xc0, 0xbd, 0x52, 0xc2, 0xbf, 0x3b,
  0xf8, 0x1e, 0x67, 0xbe, 0xd2, 0x89, 0xba, 0x3b, 0x06, 0x42, 0x40, 0x3e,
  0x16, 0xc5, 0x27, 0xbe, 0x67, 0x06, 0x3e, 0x3e, 0x99, 0xc2, 0xc0, 0x3c,
  0x6b, 0xf9, 0x8f, 0xbd, 0x6c, 0x8f, 0xa1, 0xbd, 0x32, 0x72, 0xea, 0x3d,
  0x52, 0x3f, 0x0a, 0xbe, 0x0f, 0xe5, 0xb7, 0x3d, 0x67, 0xc1, 0x7a, 0xbe,
  0xa7, 0x48, 0xd3, 0x3d, 0x41, 0x34, 0x64, 0x3d, 0xaa, 0xee, 0xa9, 0xbd,
  0x96, 0x84, 0x8b, 0x3e, 0x69, 0xeb, 0xcb, 0x3c, 0x52, 0xd4, 0xff, 0xff,
  0x04, 0x00, 0x00, 0x00, 0x00, 0x20, 0x00, 0x00, 0xc9, 0xa4, 0x07, 0xbe,
  0x45, 0xe1, 0xbe, 0xbe, 0x4c, 0x0d, 0x9a, 0xbc, 0xec, 0x82, 0xe6, 0xbe,
  0x56, 0x20, 0x8d, 0xbd, 0x6f, 0x9f, 0x9a, 0x3d, 0x19, 0x61, 0x9a, 0x3b,
  0x8e, 0xe4, 0x4c, 0x3e, 0x37, 0x1c, 0x0b, 0x3e, 0x09, 0x27, 0x02, 0xbf,
  0xb9, 0xfc, 0x4e, 0x3e, 0x3b, 0x17, 0x4f, 0xbf, 0x05, 0x13, 0x51, 0x3e,
  0xcc, 0x41, 0x49, 0x3e, 0x47, 0xb2, 0x79, 0x3e, 0xa8, 0xd1, 0x1a, 0x3f,
  0x28, 0x37, 0x9d, 0x3e, 0xc4, 0xd0, 0xbf, 0x3d, 0x4e, 0x9a, 0x0f, 0x3f,
  0x4b, 0x1a, 0x98, 0x3e, 0xe2, 0xaa, 0xac, 0x3e, 0x09, 0xd8, 0x27, 0x3e,
  0xe7, 0xeb, 0x5d, 0xbd, 0x82, 0xa1, 0x64, 0xbd, 0xae, 0x9d, 0xa1, 0xbe,
  0xcf, 0x1f, 0xfa, 0xbc, 0x4f, 0x0c, 0xe5, 0xbe, 0xdd, 0x1a, 0x6b, 0x3d,
  0xc4, 0x76, 0x55, 0x3e, 0x59, 0x9b, 0x3a, 0x3e, 0x5e, 0x32, 0x70, 0xbe,
  0x11, 0xec, 0x0a, 0xbe, 0xfd, 0x7e, 0xf5, 0xbe, 0x8b, 0x8c, 0xfe, 0x3e,
  0x6a, 0x06, 0x35, 0x3e, 0xce, 0xe0, 0xa0, 0x3e, 0x00, 0x28, 0xb1, 0x3e,
  0x2a, 0x4b, 0xca, 0x3d, 0x60, 0x21, 0xc0, 0xbe, 0x13, 0xc8, 0xdb, 0x3e,
  0x7e, 0x41, 0x4a, 0x3e, 0x3b, 0xea, 0xa8, 0x3e, 0x02, 0x1a, 0xb6, 0x3e,
  0x20, 0xf5, 0x74, 0x3e, 0xd4, 0xe7, 0x33, 0xbd, 0x4f, 0xea, 0x56, 0x3d,
  0x55, 0xca, 0x33, 0x3e, 0x14, 0xc2, 0x5f, 0xbd, 0x9f, 0xbe, 0x06, 0xbe,
  0x3b, 0xc1, 0x1b, 0xbe, 0x02, 0x18, 0x09, 0x3e, 0x6f, 0x22, 0xda, 0xbe,
  0xd0, 0xa8, 0xb8, 0xbe, 0x0e, 0x8f, 0xd8, 0xbd, 0x0c, 0xe9, 0xf7, 0x3e,
  0x81, 0x3f, 0x3f, 0xbc, 0x78, 0xd2, 0x51, 0xbd, 0x8e, 0xc6, 0xff, 0x3e,
  0xd0, 0x7b, 0x25, 0x3f, 0x0e, 0x75, 0x36, 0x3d, 0xc3, 0x50, 0x9b, 0x3b,
  0x39, 0xd0, 0x56, 0x3e, 0xf8, 0x89, 0xc0, 0x3d, 0x7a, 0xb4, 0x54, 0x3e,
  0xbc, 0x1a, 0x8f, 0xbe, 0xc0, 0xbf, 0xfd, 0x3e, 0x45, 0xa0, 0xf9, 0x3e,
  0xd1, 0xc9, 0x0a, 0x3f, 0xc7, 0x22, 0xdd, 0x3e, 0x20, 0xc6, 0x7d, 0xbe,
  0x5a, 0x3d, 0x11, 0x3f, 0x60, 0x1a, 0xb1, 0x3e, 0x11, 0xb2, 0x18, 0xbe,
  0x6d, 0xa0, 0x18, 0xbf, 0x07, 0x5f, 0x08, 0x3e, 0xea, 0xff, 0xff, 0xbe,
  0x33, 0x99, 0xe2, 0x3e, 0x60, 0x01, 0x18, 0x3f, 0x69, 0x64, 0x62, 0x3e,
  0x6e, 0x93, 0x26, 0x3d, 0xda, 0xbd, 0xc9, 0x3d, 0xf1, 0xe8, 0xd8, 0x3e,
  0xf0, 0x80, 0xa5, 0x3d, 0x35, 0xfa, 0xa8, 0x3e, 0x27, 0x4c, 0xd2, 0xbe,
  0x9a, 0x13, 0x87, 0x3e, 0x60, 0xea, 0x46, 0xbc, 0x23, 0x73, 0xce, 0x3e,
  0x7b, 0x0c, 0xf7, 0xbe, 0x05, 0x8d, 0x3c, 0x3d, 0x2f, 0xb1, 0xc4, 0xbe,
  0x62, 0x78, 0x39, 0x3e, 0x8e, 0x69, 0x8a, 0x3e, 0xb1, 0xbc, 0x70, 0xbe,
  0x22, 0xb6, 0x0e, 0x3f, 0x54, 0xcd, 0x0b, 0xbe, 0x23, 0xdb, 0x85, 0xbc,
  0x7e, 0xb6, 0xb4, 0xbe, 0x3f, 0x3e, 0xeb, 0xbe, 0xf2, 0xe4, 0x4b, 0xbf,
  0xc9, 0xc5, 0xd8, 0xbe, 0x49, 0x02, 0xa3, 0x3e, 0x94, 0x68, 0xa9, 0xbd,
  0xf2, 0x57, 0xd2, 0x3e, 0xb2, 0x40, 0xc0, 0x3d, 0x65, 0xde, 0x1e, 0xbc,
  0x37, 0x37, 0x3d, 0x3e, 0xd9, 0x99, 0x06, 0x3e, 0x63, 0xba, 0xbe, 0x3d,
  0xa1, 0x05, 0xe5, 0x3d, 0x5e, 0xca, 0x85, 0x3e, 0x6f, 0x1c, 0x9f, 0xbe,
  0x1d, 0x8f, 0x00, 0x3d, 0xc4, 0x1d, 0xf3, 0x3d, 0x6a, 0xf1, 0xf1, 0x3d,
  0x80, 0x09, 0xb7, 0xba, 0x34, 0x34, 0x74, 0xbe, 0xa8, 0x3e, 0x62, 0xbe,
  0xb0, 0xbb, 0x06, 0x3f, 0x1a, 0x74, 0x15, 0xbe, 0x20, 0x91, 0x96, 0xbb,
  0x7b, 0x85, 0x05, 0x3f, 0xef, 0x3f, 0xf7, 0x3e, 0x31, 0xf0, 0xee, 0xbe,
  0xcb, 0x54, 0xb1, 0xbe, 0xf6, 0x26, 0xad, 0x3e, 0x26, 0xd4, 0x18, 0x3c,
  0x18, 0x8d, 0x2b, 0x3f, 0xc9, 0x68, 0xee, 0x3d, 0x39, 0x05, 0x99, 0xbc,
  0x0d, 0x9b, 0x20, 0x3f, 0x12, 0x17, 0x11, 0xbd, 0x7a, 0x6f, 0x93, 0xbe,
  0x22, 0x8b, 0x07, 0xbf, 0x1d, 0x33, 0xb4, 0x3d, 0xed, 0x84, 0x60, 0x3e,
  0x4d, 0xaf, 0xe6, 0xbe, 0x80, 0xfe, 0x24, 0xbd, 0xa1, 0x69, 0x35, 0x3e,
  0x57, 0x3f, 0x2e, 0xbe, 0x28, 0xc4, 0x5e, 0xbe, 0xc4, 0xb8, 0xe5, 0xbd,
  0x9f, 0x85, 0xa4, 0xbe, 0xb8, 0x8e, 0xc2, 0xbe, 0xbf, 0x6e, 0x10, 0x3e,
  0xa2, 0x59, 0x6c, 0xbe, 0x94, 0x16, 0xf8, 0x3d, 0x94, 0x3d, 0x63, 0x3b,
  0x6e, 0x98, 0xa1, 0xbd, 0xe7, 0x51, 0x07, 0x3d, 0xf1, 0x39, 0x06, 0x3f,
  0x91, 0xfd, 0xae, 0xbe, 0x3e, 0x17, 0x87, 0x3e, 0x55, 0xb9, 0xe0, 0x3d,
  0xbf, 0x08, 0xd0, 0x3d, 0x34, 0xd0, 0x05, 0x3f, 0xf6, 0x09, 0xca, 0x3d,
  0x64, 0x72, 0x56, 0x3e, 0x00, 0xb9, 0x62, 0xbe, 0x2e, 0x23, 0x14, 0x3f,
  0x7f, 0xf3, 0xe0, 0x3d, 0xba, 0x13, 0x3e, 0xbe, 0x5b, 0xe3, 0x8f, 0xbe,
  0xfc, 0xb2, 0xba, 0x3e, 0x4c, 0x0c, 0x1e, 0x3e, 0x47, 0x5f, 0x04, 0xbe,
  0xd6, 0x81, 0xef, 0x3e, 0x4c, 0xb3, 0x43, 0x3e, 0xcd, 0x91, 0x5b, 0xbd,
  0x23, 0x51, 0x57, 0x3e, 0xe7, 0x8b, 0x21, 0x3e, 0x77, 0x8d, 0x81, 0xbe,
  0x4c, 0x87, 0xa6, 0x3e, 0x81, 0xf3, 0xe8, 0xbc, 0xfa, 0x6d, 0x5e, 0x3d,
  0x5f, 0x4d, 0x05, 0xbe, 0x9c, 0xb0, 0xb7, 0x3e, 0x82, 0xa9, 0x4a, 0x3e,
  0x92, 0x05, 0xf7, 0x3d, 0x0a, 0x89, 0xdc, 0xbe, 0x8e, 0x35, 0xea, 0x3e,
  0xea, 0x17, 0xde, 0xbd, 0xa4, 0x71, 0x19, 0xbe, 0x2e, 0x24, 0x11, 0xbf,
  0xf8, 0x30, 0x8f, 0xbe, 0x54, 0x35, 0x73, 0xbe, 0x49, 0x55, 0xbe, 0x3e,
  0xac, 0x6e, 0xcb, 0x3e, 0x1e, 0x70, 0x63, 0x3e, 0xf0, 0x4c, 0xb5, 0xbe,
  0x6d, 0x95, 0x0e, 0xbe, 0x6a, 0x72, 0x9d, 0x3e, 0x98, 0xc6, 0x15, 0x3f,
  0x75, 0x3b, 0x9b, 0x3d, 0xff, 0x3d, 0xdb, 0x3c, 0xbd, 0x16, 0xb2, 0x3d,
  0x91, 0xb3, 0x27, 0x3e, 0x08, 0xfb, 0x0b, 0xbf, 0xd4, 0x2a, 0x74, 0x3e,
  0xfd, 0x7e, 0x8d, 0x3e, 0x17, 0x97, 0xe2, 0xbe, 0x70, 0xcb, 0x6e, 0x3e,
  0xe5, 0x9b, 0x06, 0x3e, 0xb8, 0xc7, 0x2d, 0x3d, 0xba, 0x66, 0x83, 0xbd,
  0x4a, 0xac, 0xcf, 0x3e, 0xb0, 0xf2, 0xe5, 0xbe, 0x59, 0x07, 0x13, 0x3e,
  0xbf, 0x22, 0xd5, 0xbd, 0x65, 0xe2, 0x22, 0xbe, 0x2f, 0xa9, 0xb0, 0x3e,
  0x11, 0xf9, 0x7d, 0x3e, 0xab, 0xab, 0xe7, 0x3e, 0xed, 0x33, 0x7c, 0x3c,
  0x4a, 0x7b, 0x81, 0xbd, 0x09, 0xf8, 0xc4, 0x3d, 0x32, 0x85, 0xa2, 0xbd,
  0x3a, 0x2f, 0x5b, 0x3e, 0x67, 0x9d, 0x97, 0x3d, 0x06, 0x44, 0xd3, 0x3e,
  0x06, 0xb0, 0xf0, 0x3e, 0x26, 0xdb, 0x17, 0x3f, 0x1b, 0x98, 0x90, 0x3e,
  0x0c, 0xbe, 0x21, 0x3f, 0x1a, 0xc2, 0x91, 0xbe, 0xbb, 0x2d, 0xcd, 0xbd,
  0x57, 0xef, 0xbe, 0xbd, 0x64, 0x7b, 0x42, 0x3e, 0x73, 0xf4, 0x76, 0x3e,
  0x0a, 0x01, 0xff, 0x3e, 0xd2, 0xbb, 0x1c, 0x3e, 0xd3, 0xaf, 0xf1, 0x3e,
  0x30, 0xc2, 0x2c, 0xbe, 0x33, 0x89, 0xc3, 0x3c, 0xac, 0xaa, 0xe6, 0x3e,
  0xb5, 0x73, 0x8b, 0xbe, 0x7d, 0xa9, 0x21, 0x3f, 0x32, 0x1b, 0xf0, 0x3b,
  0x8b, 0x1f, 0x15, 0x3e, 0x51, 0x88, 0x6b, 0xbe, 0xf4, 0xa9, 0x30, 0x3d,
  0x0a, 0xf3, 0x96, 0xbe, 0x36, 0xfc, 0x29, 0x3f, 0x05, 0x7a, 0xab, 0xbe,
  0x54, 0x75, 0x91, 0x3e, 0x4f, 0x65, 0xb0, 0x3e, 0xbd, 0xcb, 0x95, 0x3e,
  0x6f, 0x5a, 0xd4, 0xbe, 0x7b, 0xab, 0x83, 0x3e, 0x1f, 0x09, 0x1d, 0xbe,
  0xd2, 0x77, 0x92, 0x3e, 0x0c, 0xcc, 0xe7, 0x3e, 0x90, 0x28, 0x15, 0x3f,
  0xfe, 0x0f, 0x98, 0x3e, 0xa3, 0x20, 0x96, 0x3e, 0x1a, 0x4f, 0xaf, 0x3c,
  0xe3, 0x8b, 0x8a, 0xbd, 0xbf, 0x1b, 0xc6, 0xbe, 0x22, 0xa3, 0x0b, 0x3d,
  0xbd, 0x78, 0xe8, 0xbd, 0x9a, 0x45, 0xc1, 0x3d, 0x4f, 0xe3, 0xc0, 0x3c,
  0xeb, 0x21, 0x98, 0xbd, 0xf0, 0x69, 0xc7, 0x3e, 0xb1, 0x4d, 0x29, 0x3e,
  0xd1, 0x01, 0xba, 0x3d, 0xaf, 0xf5, 0xdf, 0xbd, 0xd2, 0x61, 0x86, 0x3e,
  0xed, 0x57, 0x0a, 0xbf, 0x70, 0xaa, 0x9b, 0x3d, 0x40, 0x0e, 0x72, 0xbe,
  0x38, 0x46, 0xae, 0x3e, 0x43, 0xe6, 0x3f, 0x3e, 0x30, 0x3c, 0xa7, 0x3e,
  0xfb, 0x51, 0x86, 0xbe, 0x73, 0xf1, 0x3e, 0xbe, 0xb8, 0x88, 0x85, 0x3e,
  0xde, 0x5c, 0xab, 0x3e, 0xe8, 0xff, 0x46, 0x3e, 0x1a, 0xc9, 0xd2, 0x3e,
  0x49, 0x19, 0xa4, 0x3e, 0x4a, 0xdb, 0xd8, 0x3e, 0xe6, 0xd7, 0x45, 0x3e,
  0xfa, 0x2e, 0x10, 0xbf, 0xe6, 0xa6, 0x97, 0x3e, 0x92, 0x91, 0xbe, 0xbe,
  0x32, 0xd2, 0x2e, 0x3e, 0xb7, 0x6d, 0xcb, 0x3d, 0xb1, 0x34, 0x9d, 0xbe,
  0xd7, 0x29, 0x96, 0x3e, 0xc0, 0x3b, 0x52, 0x3e, 0x8c, 0xd3, 0xdd, 0x3e,
  0x28, 0x71, 0x32, 0xbe, 0x65, 0xe7, 0x0c, 0xbd, 0xc5, 0xc8, 0x52, 0x3e,
  0x05, 0xe1, 0x6e, 0x3e, 0x96, 0xe1, 0xda, 0xbe, 0x37, 0x64, 0xff, 0x3e,
  0x06, 0xc5, 0xe6, 0xbd, 0xf0, 0x76, 0x2a, 0x3e, 0xda, 0xb9, 0x16, 0x3f,
  0x95, 0xdc, 0x54, 0x3e, 0x1c, 0x7a, 0x81, 0x3d, 0x0f, 0x26, 0xe2, 0x3e,
  0x44, 0xd8, 0x94, 0xbd, 0x4e, 0xb6, 0x9d, 0xbd, 0xcc, 0x84, 0x58, 0x3e,
  0x63, 0x29, 0xcc, 0xbe, 0x29, 0x19, 0x5a, 0x3e, 0xe6, 0x81, 0x38, 0x3e,
  0x31, 0x7c, 0xe6, 0x3d, 0xe6, 0x7a, 0x8f, 0xbe, 0x24, 0x9e, 0x64, 0x3d,
  0xc4, 0xfd, 0xab, 0x3e, 0x56, 0xde, 0x49, 0x3e, 0xca, 0x0f, 0xcb, 0x3e,
  0xa6, 0xbd, 0xd8, 0xbe, 0x4f, 0x60, 0x31, 0x3e, 0xe6, 0x01, 0xab, 0x3e,
  0x4e, 0xef, 0x3c, 0xbf, 0x2f, 0x14, 0x4a, 0x3e, 0xda, 0x7f, 0x09, 0xbd,
  0x92, 0x7c, 0x44, 0x3c, 0x5a, 0x83, 0x9d, 0x3e, 0xfc, 0x87, 0xcb, 0x3e,
  0x3b, 0x75, 0xf2, 0xbe, 0x88, 0x8b, 0xc0, 0xbe, 0x8c, 0xc9, 0x9a, 0x3d,
  0x67, 0x1c, 0x35, 0xbe, 0xbf, 0x12, 0xa4, 0x3e, 0x13, 0xd5, 0x9a, 0x3e,
  0xb4, 0xda, 0xb9, 0xbe, 0x4d, 0xd0, 0x5c, 0x3c, 0x52, 0x92, 0x34, 0x3e,
  0x6e, 0x14, 0x0d, 0x3e, 0xfe, 0x61, 0x6b, 0x3d, 0xf4, 0x49, 0x82, 0xbe,
  0x0e, 0x78, 0x9f, 0x3d, 0xbb, 0x49, 0xb9, 0xbe, 0xd9, 0x16, 0x2b, 0x3e,
  0x7a, 0x0f, 0x80, 0x3e, 0x01, 0x69, 0x85, 0xbe, 0x7c, 0xea, 0xca, 0x3e,
  0xc0, 0xec, 0xd2, 0x3d, 0x60, 0x81, 0x68, 0x3e, 0xad, 0xf1, 0xa5, 0xbe,
  0xc5, 0xfc, 0x02, 0x3e, 0xfc, 0x00, 0x45, 0xbd, 0x72, 0xfe, 0xf2, 0x3e,
  0xfc, 0x48, 0x8c, 0x3e, 0x05, 0xfb, 0x8f, 0x3d, 0xb2, 0xc5, 0xdd, 0xbb,
  0x5e, 0x47, 0x39, 0x3d, 0xab, 0x8f, 0xb2, 0xbe, 0x48, 0x66, 0x30, 0x3e,
  0x9d, 0x7e, 0xd4, 0x3e, 0x57, 0xc4, 0x1f, 0x3f, 0xa1, 0x11, 0xab, 0xbe,
  0x14, 0x92, 0x2c, 0x3d, 0x5b, 0x55, 0x3b, 0x3e, 0xa7, 0x96, 0xeb, 0xbe,
  0x0a, 0x61, 0xa8, 0xbe, 0x5d, 0xcd, 0xfc, 0x3e, 0xc6, 0x93, 0xfd, 0xbd,
  0x44, 0x90, 0x76, 0xbe, 0x3b, 0x5b, 0xb4, 0xbe, 0xc3, 0xa7, 0xfe, 0x3e,
  0x14, 0xd4, 0x8a, 0xbe, 0x71, 0xeb, 0x84, 0x3e, 0x03, 0x37, 0x69, 0xbd,
  0xb8, 0x8e, 0xc9, 0x3e, 0x77, 0x96, 0xa5, 0x3e, 0xba, 0x62, 0xb4, 0x3e,
  0xb1, 0xa3, 0x15, 0x3f, 0xbd, 0xe1, 0x9d, 0xbe, 0xbc, 0xe8, 0xdb, 0xbd,
  0xf4, 0xe1, 0x3d, 0x3d, 0xb1, 0xaa, 0x74, 0xbe, 0xa4, 0x57, 0x02, 0x3f,
  0x9e, 0x3a, 0x2b, 0x3e, 0xfe, 0xb0, 0x12, 0x3e, 0x58, 0x4d, 0xea, 0x3d,
  0x21, 0x1d, 0xc9, 0x3e, 0x0a, 0xe1, 0x99, 0x3c, 0xbd, 0x0b, 0x82, 0x3e,
  0x04, 0xa2, 0x41, 0x3d, 0x69, 0x40, 0xca, 0xbc, 0x55, 0xd7, 0x7e, 0x3e,
  0xb2, 0x5d, 0x6b, 0x3e, 0x53, 0xe5, 0x84, 0xbe, 0xc5, 0x2b, 0x1b, 0x3e,
  0x79, 0xf8, 0x08, 0x3e, 0x98, 0x6b, 0xe0, 0xbe, 0xb5, 0x75, 0x7a, 0x3d,
  0x6c, 0x43, 0xeb, 0x3d, 0x3d, 0xb3, 0x80, 0xbe, 0xfd, 0xa3, 0x8e, 0x3e,
  0xc6, 0x69, 0xc0, 0x3c, 0xfd, 0x2f, 0x1c, 0xbf, 0x5c, 0x98, 0xd8, 0xbc,
  0x69, 0xec, 0x61, 0xbe, 0xbf, 0x0a, 0xcc, 0x3e, 0x5b, 0xae, 0x53, 0x3e,
  0x98, 0xb3, 0x67, 0x3e, 0x96, 0xea, 0x0c, 0x3f, 0x15, 0x04, 0x9e, 0x3e,
  0x48, 0xe1, 0xa4, 0x3d, 0x3e, 0xc3, 0x6d, 0x3d, 0xfe, 0x38, 0x17, 0x3e,
  0x54, 0xa4, 0x6a, 0xbe, 0x04, 0xb2, 0x10, 0x3e, 0xe5, 0x33, 0x5e, 0x3e,
  0x73, 0x56, 0xbb, 0xbc, 0xc0, 0x2f, 0x1a, 0x3e, 0x44, 0xbd, 0x89, 0x3e,
  0xd3, 0x5f, 0x8e, 0x3e, 0x0f, 0x1a, 0x04, 0xbf, 0xe8, 0x2d, 0x62, 0x3e,
  0x0b, 0x33, 0xb3, 0xbe, 0xa2, 0xdd, 0x9f, 0x3c, 0x08, 0xc3, 0x27, 0x3f,
  0x2e, 0xcc, 0xf7, 0x3e, 0x6c, 0xe2, 0x78, 0x3e, 0x10, 0x9f, 0x54, 0x3e,
  0x92, 0x1f, 0x82, 0xbe, 0xbf, 0x53, 0xd5, 0xbe, 0xed, 0x71, 0x5a, 0xbe,
  0xe4, 0xeb, 0x05, 0xbf, 0xa6, 0xca, 0x56, 0xbe, 0x5f, 0xe1, 0xa8, 0x3e,
  0x2e, 0xda, 0x05, 0x3e, 0x71, 0x9c, 0xb1, 0x3d, 0xe7, 0x1d, 0xe4, 0x3e,
  0xfe, 0xc5, 0x5f, 0x3e, 0x28, 0xcd, 0x1b, 0x3f, 0xf0, 0x2f, 0x20, 0x3d,
  0x5c, 0x8e, 0x1a, 0x3e, 0x2d, 0xd1, 0x07, 0x3f, 0x18, 0xfe, 0x9b, 0x3d,
  0xc2, 0x61, 0x5f, 0x3e, 0xa3, 0xb8, 0x68, 0xbe, 0x5a, 0xf0, 0xb5, 0xbc,
  0xc8, 0x11, 0xe2, 0x3e, 0x90, 0xb0, 0x38, 0x3e, 0xe5, 0x87, 0xf0, 0x3e,
  0x21, 0x1f, 0xa5, 0x3e, 0xf0, 0xec, 0x0e, 0x3e, 0x8e, 0x5b, 0xd3, 0x3d,
  0xb8, 0xc0, 0xc5, 0xbe, 0x5f, 0xd5, 0xa6, 0x3d, 0x74, 0xfe, 0xaf, 0x3e,
  0xe3, 0x0f, 0x50, 0x3d, 0x87, 0x88, 0x37, 0x3e, 0x7e, 0xdf, 0x3e, 0xbd,
  0x59, 0xd7, 0xca, 0xbd, 0xc5, 0x53, 0xbc, 0x3e, 0xec, 0x11, 0x70, 0x3d,
  0x37, 0x4d, 0xf5, 0xbe, 0x13, 0xdc, 0xc6, 0x3e, 0x38, 0xb1, 0x86, 0x3d,
  0x66, 0x9e, 0x1f, 0x3d, 0x16, 0x1a, 0x2f, 0x3e, 0xee, 0x2d, 0xc3, 0x3e,
  0x40, 0x2f, 0x5a, 0xbe, 0x2b, 0x38, 0xee, 0x3e, 0xe0, 0x47, 0x2d, 0xbe,
  0x06, 0xa3, 0x30, 0xbd, 0x9a, 0xc3, 0x80, 0x3c, 0x90, 0x10, 0x1b, 0x3d,
  0xad, 0xd0, 0x9e, 0x3e, 0xd5, 0x67, 0x04, 0x3f, 0x69, 0x59, 0x5d, 0xbe,
  0x9f, 0xa0, 0xc6, 0x3d, 0xd3, 0xb7, 0xab, 0xbe, 0xcd, 0x96, 0xa9, 0x3e,
  0xb3, 0x6d, 0x9f, 0x3e, 0xce, 0x66, 0x7d, 0x3d, 0xf3, 0x88, 0x3a, 0x3e,
  0x1a, 0x27, 0x2c, 0x3d, 0x25, 0x62, 0xc7, 0x3c, 0x95, 0xfd, 0x76, 0x3e,
  0x88, 0xb8, 0xec, 0xbc, 0xb5, 0x51, 0x0a, 0x3e, 0x6c, 0x48, 0x43, 0xbe,
  0xd4, 0x23, 0xf7, 0xbe, 0x08, 0x48, 0x6d, 0xbe, 0xee, 0xbf, 0xf2, 0xbc,
  0xd0, 0xb8, 0x22, 0x3e, 0x67, 0x77, 0xbc, 0x3d, 0x4f, 0x50, 0xb6, 0xbe,
  0xec, 0x66, 0x96, 0xbd, 0xbd, 0x06, 0xde, 0x3e, 0x13, 0x67, 0x82, 0x3d,
  0xcd, 0x9c, 0x29, 0xbf, 0xec, 0xc9, 0x50, 0x3e, 0x75, 0xae, 0x89, 0xbe,
  0xe9, 0x68, 0xff, 0x3e, 0x5e, 0x11, 0x39, 0xbe, 0xcd, 0xb7, 0x0d, 0xbf,
  0x7a, 0x0a, 0xa0, 0xbd, 0xa2, 0xae, 0x2d, 0xbf, 0xdd, 0xdc, 0xe4, 0xbe,
  0x00, 0xcb, 0x5b, 0xbe, 0x32, 0xd1, 0xe4, 0xbe, 0x93, 0x63, 0xc8, 0xbd,
  0x28, 0x7c, 0xa5, 0x3e, 0x54, 0xd2, 0xd9, 0x3e, 0xe4, 0x17, 0x36, 0x3d,
  0x1e, 0xd8, 0x2b, 0xbe, 0xf5, 0xa3, 0x31, 0xbe, 0x1b, 0x1c, 0x4e, 0xbe,
  0x8b, 0x14, 0x41, 0x3e, 0xc7, 0xd5, 0xaf, 0x3e, 0xa3, 0x6f, 0x3a, 0x3e,
  0xc9, 0x89, 0x4a, 0xbe, 0xea, 0x44, 0xa7, 0x3d, 0xfb, 0x6c, 0x83, 0x3e,
  0x20, 0xa5, 0xa1, 0x3e, 0x30, 0x84, 0x24, 0x3e, 0x7f, 0xdb, 0x06, 0x3e,
  0x38, 0x9a, 0x80, 0x3e, 0xf6, 0xa8, 0x1d, 0x3f, 0x08, 0x77, 0x62, 0xbe,
  0x7e, 0x33, 0x5b, 0x3e, 0x77, 0x38, 0x3f, 0x3e, 0x40, 0xb7, 0x1b, 0xbe,
  0x90, 0xd7, 0x49, 0x3d, 0x1c, 0x75, 0xbd, 0x3e, 0x48, 0x68, 0x10, 0xbe,
  0x98, 0xed, 0xa9, 0x3e, 0x58, 0x99, 0x2a, 0x3e, 0xee, 0xa5, 0xb4, 0x3d,
  0x17, 0x03, 0x1d, 0x3e, 0xf4, 0x31, 0x80, 0xbb, 0x7d, 0x49, 0x99, 0xbe,
  0xf9, 0x91, 0xb8, 0x3e, 0xd0, 0x09, 0x9d, 0xbd, 0x09, 0x28, 0xf7, 0x3e,
  0x73, 0x40, 0xa6, 0xbe, 0xdd, 0xd4, 0x86, 0xbe, 0x6d, 0x31, 0xa9, 0x3e,
  0xd3, 0xcc, 0x5f, 0x3e, 0x3a, 0xdb, 0x4a, 0x3d, 0x83, 0x98, 0x8e, 0xbd,
  0x8c, 0xb7, 0xaa, 0xbc, 0xc8, 0xc6, 0xf1, 0x3e, 0x90, 0xcf, 0x01, 0x3e,
  0x12, 0xdb, 0x88, 0xbe, 0x42, 0x09, 0x21, 0x3f, 0xfd, 0xaa, 0xfa, 0x3e,
  0x04, 0x32, 0x4a, 0x3e, 0x52, 0x6d, 0xbe, 0x3e, 0xa4, 0x9a, 0xe1, 0x3b,
  0x7d, 0xb7, 0x6f, 0x3e, 0xe3, 0xc7, 0xbd, 0x3d, 0xf3, 0xc4, 0x48, 0xbe,
  0x80, 0x01, 0x86, 0x3e, 0xff, 0x84, 0xd2, 0x3e, 0xe3, 0x71, 0xc9, 0x3d,
  0x25, 0x3d, 0xa0, 0x3d, 0x52, 0x0b, 0xde, 0xbe, 0xca, 0x8f, 0x2d, 0x3e,
  0xa1, 0x2e, 0x2b, 0x3f, 0xea, 0xd5, 0x05, 0x3e, 0x10, 0x59, 0xd0, 0x3e,
  0x5d, 0x48, 0x10, 0x3f, 0x4b, 0x4c, 0xfe, 0xbc, 0x42, 0x34, 0x97, 0x3e,
  0x67, 0x3b, 0xac, 0x3e, 0x45, 0x89, 0x65, 0x3e, 0x22, 0x6a, 0xd5, 0xbc,
  0x4d, 0xda, 0x1a, 0xbf, 0xb4, 0x36, 0x14, 0xbe, 0x14, 0x97, 0xa9, 0x3d,
  0x50, 0xdb, 0xc5, 0x3d, 0x5d, 0x33, 0xc1, 0xbe, 0x28, 0xa6, 0xc0, 0xbe,
  0xd4, 0x0e, 0x9b, 0x3e, 0x4b, 0x35, 0x8b, 0x3e, 0xcf, 0x30, 0xd2, 0x3e,
  0x10, 0x79, 0x85, 0x3e, 0x88, 0x04, 0x80, 0xbe, 0xb2, 0xe3, 0x94, 0x3e,
  0xbd, 0x0b, 0x2a, 0x3f, 0x21, 0x76, 0x90, 0xbd, 0x02, 0xc2, 0x20, 0xbf,
  0x84, 0x41, 0x1c, 0x3f, 0x6c, 0xe9, 0x3b, 0xbe, 0xcf, 0x04, 0xb6, 0x3e,
  0x94, 0xc4, 0x03, 0x3e, 0x37, 0x10, 0x7c, 0x3f, 0x1e, 0xd1, 0x9d, 0xbe,
  0x2c, 0x10, 0xad, 0x3e, 0x73, 0x58, 0x8c, 0xbe, 0x7a, 0xf8, 0x95, 0x3d,
  0xc2, 0xd3, 0xbc, 0x3d, 0xd8, 0xb5, 0x75, 0xbe, 0xf0, 0xbe, 0xa9, 0x3e,
  0xf2, 0x4d, 0xad, 0x3e, 0x35, 0x55, 0x1d, 0xbe, 0xe2, 0xe1, 0xfb, 0xbd,
  0xbe, 0xdd, 0xd2, 0xbe, 0xee, 0x13, 0x51, 0xbd, 0x14, 0xb0, 0xa5, 0x3d,
  0xb8, 0xfb, 0xb4, 0xbe, 0xf0, 0xdd, 0xeb, 0x3d, 0xa5, 0x4e, 0xa4, 0x3e,
  0x87, 0xf5, 0xa7, 0xbe, 0x74, 0x77, 0xb4, 0x3e, 0x0f, 0x70, 0xc5, 0xbe,
  0xd9, 0x4d, 0xbf, 0xbd, 0x76, 0x33, 0x8e, 0x3c, 0x46, 0x5e, 0x9f, 0xbe,
  0xbf, 0x6a, 0xd8, 0xbe, 0xd2, 0x4c, 0xb3, 0x3c, 0xbd, 0x63, 0x50, 0x3e,
  0xe5, 0xb0, 0x5c, 0x3e, 0x8d, 0x40, 0xca, 0xbe, 0x13, 0xb0, 0xff, 0x3e,
  0x75, 0x4b, 0x5f, 0x3f, 0xfc, 0xa0, 0x05, 0xbe, 0xaa, 0xad, 0x68, 0xbe,
  0xba, 0x1f, 0x3c, 0x3f, 0x82, 0x0b, 0xe6, 0xbe, 0xd6, 0xa2, 0x0a, 0x3e,
  0x59, 0x7e, 0xc7, 0x3e, 0x0f, 0x96, 0x03, 0xbf, 0x55, 0x54, 0xc6, 0xbc,
  0x69, 0x40, 0xd5, 0xbe, 0xde, 0x29, 0xe6, 0xbe, 0x65, 0xd2, 0x8c, 0xbd,
  0x0b, 0x5c, 0x86, 0x3d, 0x1c, 0xc4, 0xa4, 0x3e, 0xcc, 0xd3, 0x21, 0x3e,
  0xfb, 0x6e, 0xf1, 0x3d, 0x76, 0x44, 0x11, 0x3f, 0x05, 0x8d, 0x16, 0x3e,
  0x85, 0x0a, 0x21, 0x3f, 0xed, 0x1f, 0xf0, 0x3e, 0x09, 0xd2, 0x95, 0x3e,
  0x49, 0x6d, 0xdc, 0xbc, 0xeb, 0x70, 0x09, 0x3c, 0x91, 0x47, 0x7d, 0x3d,
  0x39, 0x12, 0x3f, 0x3c, 0x7e, 0xc2, 0x4e, 0xbf, 0x50, 0xac, 0x11, 0x3d,
  0x14, 0x4b, 0xae, 0x3d, 0xb2, 0x74, 0xde, 0x3c, 0x42, 0xe7, 0x6d, 0x3e,
  0x3f, 0x23, 0x90, 0x3d, 0x69, 0x5a, 0x96, 0xba, 0x5a, 0x84, 0x18, 0x3d,
  0x6c, 0xc6, 0x9d, 0xbe, 0x31, 0xd1, 0x9a, 0x3e, 0x9f, 0x79, 0x38, 0x3e,
  0xbe, 0xed, 0xd4, 0x3d, 0x7e, 0xe4, 0xd4, 0x3d, 0x56, 0x0c, 0x67, 0x3e,
  0x27, 0x23, 0xdd, 0xbe, 0x1f, 0xd0, 0x3c, 0x3e, 0x70, 0xcd, 0x6f, 0xbe,
  0xc7, 0x80, 0x39, 0xbe, 0x20, 0x46, 0x85, 0x3e, 0x3c, 0xd2, 0xb3, 0xbe,
  0x37, 0x6b, 0x77, 0x3e, 0x40, 0x83, 0x80, 0xbc, 0x7c, 0x2b, 0xa8, 0xbe,
  0x9c, 0x9b, 0x23, 0xbf, 0x9e, 0x49, 0x94, 0x3c, 0x19, 0x06, 0x61, 0x3e,
  0x46, 0xa2, 0x5d, 0xbe, 0xe3, 0x91, 0x7a, 0x3e, 0x7c, 0x48, 0x9c, 0xbe,
  0xe9, 0xe0, 0x7b, 0xbe, 0x61, 0x5d, 0xca, 0xbd, 0x45, 0x2b, 0xe5, 0x3e,
  0x9d, 0x9f, 0xc1, 0x3e, 0xc1, 0xbd, 0x00, 0xbf, 0xf6, 0x67, 0xec, 0xbe,
  0x6b, 0x6d, 0x8e, 0x3b, 0xee, 0x69, 0x66, 0xbe, 0x5e, 0x50, 0x55, 0x3e,
  0x5a, 0x21, 0xdd, 0x3d, 0xbd, 0x1a, 0x70, 0xbc, 0x33, 0x64, 0xd6, 0xbe,
  0xdb, 0x57, 0x25, 0xbd, 0x47, 0x8f, 0xaa, 0x3e, 0xd1, 0x18, 0x05, 0x3e,
  0xf8, 0xb9, 0x0a, 0xbf, 0xb5, 0x7d, 0xd0, 0xbd, 0x40, 0x61, 0x94, 0xbd,
  0x7f, 0x95, 0xb2, 0xbe, 0x52, 0x52, 0x53, 0xbd, 0x30, 0x28, 0xc5, 0x3e,
  0x2f, 0xe1, 0xca, 0x3e, 0x6d, 0xc6, 0x12, 0xbe, 0x0b, 0x53, 0x40, 0xbe,
  0x74, 0xf4, 0xef, 0x3c, 0xd6, 0x5d, 0x3f, 0xbe, 0xa8, 0x1c, 0x67, 0x3e,
  0x6b, 0xfb, 0x42, 0x3f, 0x1b, 0xab, 0xe8, 0x3e, 0xf1, 0x06, 0xd2, 0x3e,
  0x8d, 0xec, 0x11, 0x3e, 0x33, 0xd3, 0xd3, 0xbd, 0xda, 0xdc, 0xb4, 0xbc,
  0x06, 0x06, 0x23, 0x3e, 0xb5, 0xae, 0x90, 0x3e, 0x94, 0xd0, 0x65, 0x3e,
  0x60, 0xa2, 0x04, 0xbf, 0x56, 0xd0, 0xd9, 0x3c, 0x19, 0xde, 0x8e, 0x3e,
  0x2b, 0x45, 0x93, 0xbe, 0x6b, 0x49, 0x87, 0x3d, 0xfd, 0xb5, 0x11, 0xbe,
  0xab, 0x6b, 0x94, 0xbe, 0x9a, 0x4c, 0xfd, 0x3c, 0xa5, 0xec, 0xcd, 0xbe,
  0xf0, 0x39, 0x96, 0x3e, 0xca, 0xd7, 0x10, 0x3f, 0xfd, 0xcd, 0x52, 0x3e,
  0xae, 0x7c, 0x2b, 0x3e, 0x22, 0xab, 0xcc, 0xbe, 0xb6, 0xf9, 0x90, 0x3e,
  0xac, 0xa2, 0xab, 0x3d, 0x2a, 0xab, 0x74, 0x3e, 0x2c, 0x07, 0x0c, 0x3d,
  0x58, 0xfc, 0x9a, 0x3d, 0xe1, 0x00, 0xd2, 0x3e, 0x35, 0x0d, 0x2b, 0x3e,
  0xac, 0xe7, 0x2b, 0x3c, 0x8e, 0x62, 0xec, 0xbd, 0xf9, 0x24, 0x13, 0x3e,
  0x80, 0x65, 0xd1, 0x3e, 0xba, 0xb5, 0x8a, 0x3e, 0xa4, 0x6e, 0x0c, 0x3f,
  0x86, 0xeb, 0x67, 0x3c, 0x36, 0xac, 0x6a, 0xbe, 0xfd, 0x4f, 0x15, 0xbd,
  0x99, 0x7c, 0x09, 0x3f, 0x7b, 0x80, 0xc9, 0x3e, 0x2a, 0x19, 0xf0, 0xbd,
  0x99, 0x4d, 0xae, 0x3e, 0x27, 0xb0, 0xed, 0x3c, 0x48, 0xe1, 0xf1, 0x3c,
  0x3f, 0xa7, 0x45, 0xbe, 0x3c, 0xa2, 0x87, 0xbc, 0xee, 0x89, 0xd0, 0x3e,
  0x8c, 0x09, 0xac, 0x3d, 0x79, 0xa1, 0x86, 0xbd, 0x4b, 0xf1, 0x85, 0x3e,
  0x22, 0x3c, 0x26, 0xbe, 0x06, 0x66, 0x7a, 0x3e, 0x3a, 0x80, 0xbd, 0xbd,
  0x9b, 0x5f, 0x51, 0x3d, 0xf8, 0x6e, 0x77, 0x3d, 0x0b, 0xf6, 0xa8, 0xbd,
  0xa6, 0xe5, 0xd1, 0x3e, 0x65, 0xfe, 0x1b, 0xbe, 0xd9, 0x8e, 0xa2, 0x3c,
  0x1a, 0x44, 0xbf, 0x3c, 0xd1, 0x0a, 0x2b, 0x3e, 0x72, 0x36, 0x93, 0xbd,
  0xcb, 0x65, 0x22, 0xbd, 0xc0, 0xb3, 0xb5, 0x3e, 0x20, 0x5a, 0x94, 0x3e,
  0x02, 0x16, 0xae, 0x3d, 0x7a, 0x2e, 0x53, 0xbe, 0xd6, 0x6b, 0x22, 0x3f,
  0x35, 0x8b, 0xe7, 0xbe, 0x30, 0xa8, 0xaa, 0x3e, 0xc9, 0x63, 0x49, 0xbe,
  0xa4, 0x8b, 0xde, 0xbd, 0xfb, 0x5e, 0x03, 0xbe, 0x37, 0x0f, 0x8b, 0xbd,
  0xd7, 0x68, 0xbe, 0xbe, 0x31, 0xba, 0xac, 0x3e, 0x58, 0xaa, 0xee, 0x3e,
  0x33, 0xa9, 0xce, 0xbd, 0x14, 0x60, 0xd4, 0xbd, 0x83, 0x36, 0x09, 0x3f,
  0x48, 0x99, 0x51, 0x3e, 0x97, 0xa9, 0x3b, 0xbe, 0xbe, 0x44, 0x9f, 0x3b,
  0xcf, 0x89, 0x3f, 0xbe, 0xb5, 0x86, 0x33, 0x3d, 0xef, 0x66, 0xf5, 0x3e,
  0x86, 0xc1, 0xe7, 0x3d, 0xa0, 0x9b, 0x10, 0x3f, 0xb6, 0xfa, 0x0d, 0xbe,
  0x8d, 0x1f, 0xe3, 0x3d, 0x41, 0x70, 0x2d, 0x3e, 0x8f, 0xb6, 0x26, 0xbe,
  0x75, 0xda, 0x98, 0x3e, 0xd6, 0x29, 0x11, 0xbe, 0x6f, 0xf3, 0x5b, 0x3e,
  0x59, 0xf5, 0x89, 0x3e, 0x63, 0xc9, 0x78, 0x3d, 0xed, 0x2b, 0xa1, 0xbe,
  0xcb, 0xb2, 0xf6, 0xbe, 0xa8, 0x61, 0x7a, 0xbe, 0xa6, 0x6b, 0xc7, 0x3e,
  0x7a, 0x64, 0x5f, 0x3a, 0x2e, 0x8d, 0x15, 0xbf, 0xc8, 0x6e, 0xbf, 0x3e,
  0x6c, 0xfc, 0x1d, 0x3f, 0xb4, 0xf5, 0x4a, 0x3e, 0x07, 0x6c, 0x0d, 0xbf,
  0x65, 0x74, 0x12, 0xbd, 0x0c, 0xd8, 0xde, 0xbd, 0x98, 0x71, 0xca, 0xbd,
  0x0f, 0x13, 0x28, 0xbe, 0x53, 0x60, 0x99, 0xbd, 0x6d, 0x73, 0x26, 0x3e,
  0x2d, 0x4f, 0x0f, 0xbf, 0x0b, 0x41, 0xc8, 0xbd, 0x77, 0x51, 0xb3, 0x3e,
  0xbd, 0x37, 0x9e, 0x3e, 0x20, 0xc2, 0x06, 0x3f, 0x9a, 0xb5, 0x9f, 0xbe,
  0x1d, 0x5f, 0xcd, 0xbc, 0x78, 0xee, 0xac, 0x3e, 0x94, 0x4a, 0x0a, 0x3f,
  0xee, 0x0a, 0x67, 0xbf, 0x87, 0xaa, 0x01, 0x3f, 0xac, 0x2c, 0xbb, 0x3e,
  0x3b, 0x73, 0xdb, 0x3e, 0x40, 0xd7, 0xe9, 0xbe, 0x46, 0xae, 0x85, 0x3e,
  0xff, 0xc7, 0x98, 0xbe, 0x78, 0x0b, 0xb0, 0xbe, 0xb8, 0x38, 0xd7, 0x3e,
  0x1d, 0x96, 0xc1, 0xbd, 0xb3, 0xaf, 0x1f, 0xbf, 0xe5, 0xa9, 0x02, 0x3f,
  0x2b, 0x30, 0x1a, 0xbf, 0x74, 0x95, 0xef, 0xbd, 0xb0, 0x71, 0xce, 0x3e,
  0xf7, 0xf1, 0x11, 0xbe, 0x3e, 0x86, 0x15, 0x3d, 0x8e, 0x01, 0xf0, 0x3e,
  0x75, 0xb3, 0x6e, 0x3e, 0x6d, 0x53, 0x41, 0x3e, 0xc2, 0xec, 0x98, 0xbd,
  0x2d, 0xf0, 0x30, 0xbf, 0xe3, 0x5b, 0x6d, 0x3b, 0xab, 0x1f, 0x46, 0xbe,
  0x7f, 0x92, 0xdc, 0xbd, 0x9c, 0xfd, 0x86, 0xbe, 0x6a, 0x1c, 0x53, 0xbd,
  0xa9, 0x55, 0x31, 0xbd, 0x35, 0xd1, 0xd9, 0xbe, 0x82, 0x76, 0xd5, 0x3c,
  0xba, 0x9f, 0xe4, 0x3d, 0x4d, 0x79, 0x98, 0x3e, 0x37, 0x30, 0x4f, 0xbe,
  0xd2, 0xd5, 0x46, 0x3d, 0x46, 0x60, 0xb3, 0x3e, 0xe8, 0x03, 0xe3, 0x3e,
  0x59, 0x83, 0x63, 0xbe, 0xf0, 0x97, 0xe6, 0x3e, 0x20, 0x7c, 0x5f, 0xbe,
  0x1d, 0x37, 0xdb, 0xbd, 0x40, 0xb3, 0x0d, 0x3f, 0x92, 0xd7, 0x29, 0x3e,
  0x65, 0x72, 0x00, 0x3e, 0xc2, 0x75, 0xa9, 0x3e, 0x8b, 0x1e, 0x9e, 0x3e,
  0x6f, 0xc5, 0xcd, 0x3d, 0xa6, 0x2d, 0xfc, 0x3b, 0x2a, 0x44, 0x22, 0xbd,
  0x28, 0x5a, 0xc5, 0x3e, 0xc1, 0x9a, 0xbd, 0xbe, 0x94, 0xb0, 0xab, 0x3e,
  0x0d, 0x7f, 0x0f, 0x3d, 0x3f, 0x45, 0xcc, 0xbc, 0x73, 0x7e, 0x21, 0x3f,
  0xf9, 0x8b, 0x87, 0x3d, 0xc1, 0x7e, 0x92, 0x3e, 0x05, 0xe3, 0x9f, 0x3e,
  0x0a, 0xd0, 0x98, 0x3e, 0x28, 0xb1, 0x6a, 0x3b, 0x67, 0x99, 0x15, 0x3e,
  0x6c, 0x8d, 0xc3, 0x3d, 0x64, 0x0b, 0xce, 0x3e, 0x53, 0xa2, 0x08, 0xbe,
  0x5d, 0xae, 0xef, 0x3e, 0x20, 0x28, 0xc3, 0x3d, 0xd5, 0x6a, 0x8c, 0x3e,
  0x9a, 0x46, 0x5e, 0x3e, 0x47, 0x82, 0x63, 0xbe, 0x10, 0x27, 0x1d, 0x3f,
  0xe4, 0x0f, 0xd9, 0xbd, 0xdd, 0xec, 0x90, 0x3e, 0xb4, 0xd9, 0x71, 0x3e,
  0x36, 0x34, 0xd1, 0xbe, 0x28, 0x1c, 0x9f, 0x3d, 0x5e, 0xdd, 0x48, 0xbe,
  0x27, 0x1a, 0x06, 0x3f, 0x23, 0x93, 0x85, 0x3e, 0x1b, 0xb2, 0x50, 0x3e,
  0xc1, 0x43, 0x47, 0xbd, 0xc1, 0xa7, 0x12, 0xbe, 0xb3, 0x15, 0xa6, 0x3e,
  0x68, 0xd0, 0x35, 0x3e, 0x49, 0xd3, 0x46, 0x3c, 0x73, 0xae, 0x76, 0x3d,
  0xd8, 0x6c, 0x10, 0xbe, 0x9b, 0xbb, 0x00, 0x3f, 0x2f, 0xe9, 0x22, 0x3e,
  0x18, 0x20, 0xba, 0x3e, 0x71, 0x7e, 0xf4, 0xbd, 0xdd, 0x30, 0x96, 0x3e,
  0x37, 0xe2, 0xa3, 0x3c, 0x59, 0x06, 0x3d, 0x3d, 0xf7, 0x1b, 0x0f, 0xbe,
  0xbb, 0x2f, 0x22, 0x3f, 0xae, 0xac, 0x41, 0xbd, 0xc2, 0x65, 0x1a, 0x3f,
  0x0a, 0xcc, 0x96, 0xbe, 0x71, 0x7e, 0x27, 0x3c, 0x4f, 0x54, 0xb1, 0xbe,
  0x0a, 0x2c, 0x8c, 0x3d, 0xc0, 0xd6, 0xf5, 0x3e, 0x96, 0x77, 0xcc, 0xbe,
  0x79, 0x95, 0xd9, 0x3e, 0x27, 0x78, 0xc7, 0x3d, 0xdc, 0xb5, 0xb4, 0xbe,
  0x43, 0xf3, 0xb8, 0xbc, 0x9a, 0x6c, 0xcb, 0x3c, 0x04, 0x75, 0xf8, 0xbc,
  0xe4, 0x3e, 0x47, 0xbe, 0xcf, 0xa8, 0x9f, 0xbd, 0x42, 0xb3, 0x87, 0x3e,
  0xf5, 0x35, 0x88, 0xbc, 0x26, 0x5c, 0xfd, 0x3d, 0x8e, 0xb1, 0x93, 0xbd,
  0xf1, 0xe7, 0xdc, 0xbe, 0x06, 0x2c, 0x4f, 0x3e, 0x2f, 0x56, 0x0c, 0xbd,
  0xde, 0x1d, 0x11, 0xbf, 0x58, 0x4f, 0x89, 0xbd, 0xc6, 0x82, 0xd2, 0x3e,
  0x74, 0xf7, 0x82, 0xbd, 0x13, 0x09, 0xe0, 0x3e, 0xbe, 0x52, 0x5d, 0x3e,
  0xf0, 0x30, 0xd8, 0xbd, 0x40, 0x97, 0x09, 0xbe, 0x0c, 0x9a, 0xd1, 0xbc,
  0x3d, 0x58, 0x80, 0xbe, 0x7f, 0x12, 0xd2, 0xbd, 0x18, 0xd2, 0x00, 0x3d,
  0xb6, 0x4f, 0x40, 0x3e, 0x02, 0x96, 0xa7, 0x3c, 0x54, 0x90, 0x87, 0x3e,
  0x4e, 0x60, 0xff, 0x3e, 0xc4, 0xe0, 0x6b, 0x3c, 0xf2, 0xb3, 0x9f, 0x3e,
  0x05, 0xb1, 0x91, 0xbd, 0xf4, 0x82, 0x40, 0x3e, 0x86, 0xfc, 0x94, 0xbe,
  0x95, 0x0e, 0xfe, 0x3e, 0xe6, 0xd4, 0x01, 0x3e, 0xe5, 0xf8, 0x0b, 0x3f,
  0xae, 0x44, 0x01, 0x3f, 0xaa, 0xcb, 0x79, 0x3d, 0x7c, 0x7e, 0x18, 0x3c,
  0xc7, 0x93, 0x58, 0xbd, 0xf0, 0x3a, 0x9d, 0xbe, 0x92, 0x78, 0x5c, 0x3d,
  0x24, 0xae, 0x3b, 0xbe, 0x30, 0x3c, 0x7e, 0x3e, 0x31, 0x29, 0xcc, 0x3d,
  0xf2, 0x9e, 0x24, 0x3e, 0xea, 0xf3, 0xd8, 0xbe, 0x3c, 0x35, 0x7e, 0x3e,
  0x97, 0xa9, 0xce, 0x3e, 0x36, 0x74, 0xb8, 0xbd, 0xa5, 0x1a, 0xb9, 0xbe,
  0x37, 0xad, 0x97, 0x3e, 0xef, 0xcf, 0x8b, 0x3d, 0x81, 0xbf, 0xd4, 0x3e,
  0x31, 0x6e, 0xb2, 0x3e, 0xb9, 0x7f, 0xeb, 0x3e, 0xff, 0xc7, 0xd2, 0x3e,
  0xf5, 0xb7, 0xd5, 0x3e, 0x12, 0x85, 0x18, 0x3f, 0xa0, 0x06, 0x93, 0x3d,
  0xcc, 0x01, 0xfd, 0xbd, 0x78, 0x85, 0xdd, 0xbe, 0x34, 0xb1, 0x97, 0x3e,
  0xb5, 0x84, 0xba, 0x3e, 0xbd, 0x15, 0x37, 0x3f, 0x6d, 0xcc, 0x9f, 0xbd,
  0x60, 0x54, 0x89, 0xbe, 0x8c, 0x29, 0x34, 0x3f, 0xb6, 0x0f, 0xa5, 0x3e,
  0xde, 0xef, 0xf7, 0xbd, 0x9f, 0x1e, 0xac, 0x3e, 0x85, 0x68, 0xa3, 0xbe,
  0x1b, 0x15, 0x77, 0xbe, 0x2e, 0xc0, 0xb7, 0xbe, 0x2a, 0x9b, 0xf8, 0xbd,
  0x1e, 0x0e, 0x95, 0xbe, 0x05, 0xc7, 0xcd, 0x3d, 0xd1, 0x83, 0xb0, 0x3e,
  0x29, 0xf9, 0xc5, 0xbe, 0x5f, 0x7c, 0x54, 0xbe, 0x74, 0x10, 0xbb, 0x3e,
  0x1e, 0xb9, 0x7c, 0x3e, 0xa4, 0x57, 0xa6, 0xbd, 0x58, 0xae, 0x72, 0x3e,
  0x14, 0x1e, 0x08, 0x3f, 0xdf, 0xd2, 0x1f, 0x3e, 0xb3, 0x9f, 0x15, 0xbe,
  0x70, 0x87, 0xff, 0x3e, 0x6a, 0x16, 0xf3, 0xbe, 0x16, 0x87, 0x7c, 0xbe,
  0xd0, 0xe5, 0xaf, 0x3b, 0xca, 0xe2, 0xac, 0x3e, 0x42, 0x46, 0x57, 0xbe,
  0xb8, 0x7d, 0x58, 0x3d, 0x8d, 0x58, 0x9f, 0xbe, 0x29, 0x36, 0x18, 0xbc,
  0x77, 0x8d, 0x26, 0xbb, 0x9c, 0x0e, 0xa5, 0xbc, 0x87, 0x58, 0xaf, 0xbe,
  0x22, 0xb9, 0x98, 0xbd, 0xfd, 0x40, 0xac, 0x3e, 0x2d, 0xa9, 0xb4, 0x3e,
  0xbb, 0x92, 0x4a, 0xbe, 0xfa, 0xc7, 0x2c, 0x3e, 0x61, 0x78, 0x09, 0x3f,
  0x9c, 0xa7, 0x17, 0xbe, 0x27, 0xca, 0xc2, 0x3e, 0xb8, 0xd3, 0x1d, 0x3e,
  0x59, 0xbb, 0x5e, 0x3e, 0xb9, 0xfc, 0x16, 0x3e, 0x48, 0xfb, 0xb5, 0x3e,
  0xb5, 0x35, 0xea, 0x3e, 0x2b, 0xe7, 0xd5, 0x3d, 0xa7, 0x2c, 0x50, 0x3d,
  0x18, 0x97, 0xff, 0x3d, 0x0c, 0xa7, 0xd2, 0xbe, 0xa8, 0xf4, 0x58, 0x3e,
  0x58, 0x85, 0xe8, 0x3e, 0x5a, 0x12, 0x94, 0xbd, 0xa2, 0xb5, 0x14, 0x3f,
  0x52, 0x20, 0xd2, 0x3e, 0xc0, 0xcf, 0x8d, 0x3e, 0x35, 0x5e, 0x94, 0xbe,
  0xdd, 0xd4, 0x2e, 0xbf, 0x74, 0xad, 0xbb, 0x3e, 0x71, 0xc6, 0xfb, 0x3b,
  0x62, 0x48, 0x76, 0x3e, 0x99, 0xcb, 0xf4, 0xbd, 0x4e, 0x87, 0x1a, 0xbd,
  0xba, 0xf7, 0x4c, 0x3e, 0xe1, 0xef, 0xe4, 0x3e, 0x4a, 0x06, 0x30, 0xbe,
  0xbb, 0x54, 0xa5, 0x3e, 0x7e, 0xfd, 0x0c, 0x3e, 0x02, 0xe7, 0x19, 0xbf,
  0xf5, 0x90, 0x4f, 0x3e, 0x03, 0x28, 0x06, 0x3c, 0x75, 0x4e, 0xeb, 0x3e,
  0xdd, 0xd7, 0x35, 0x3e, 0x48, 0xc2, 0x5d, 0x3d, 0x5b, 0xcb, 0x23, 0x3d,
  0xe9, 0xee, 0x89, 0x3c, 0x74, 0xf8, 0x8e, 0x3e, 0x94, 0x64, 0x0c, 0x3f,
  0x42, 0xa8, 0x1a, 0x3b, 0xd6, 0x03, 0x8a, 0x3e, 0x97, 0xda, 0xa5, 0xbd,
  0x76, 0x26, 0xe4, 0x3d, 0x4f, 0xde, 0x69, 0xbe, 0xf7, 0xde, 0xa9, 0x3e,
  0xf1, 0xe3, 0x9b, 0x3b, 0x77, 0x2e, 0x76, 0x3e, 0x65, 0x75, 0xe5, 0x3d,
  0xc5, 0x35, 0x20, 0x3f, 0x15, 0x2e, 0xd8, 0x3e, 0xa3, 0xd3, 0x55, 0xbe,
  0x5e, 0xe8, 0xed, 0xbe, 0x88, 0x1a, 0x63, 0x3e, 0x1e, 0x56, 0x7d, 0x3e,
  0x58, 0x3b, 0x13, 0xbe, 0xb9, 0x1c, 0x7e, 0xbe, 0xdf, 0x9d, 0xb8, 0xbe,
  0xf5, 0x22, 0x1a, 0x3e, 0xb3, 0x64, 0xd6, 0x3d, 0xce, 0x5d, 0x86, 0xbe,
  0x70, 0xb9, 0x29, 0xbe, 0x5f, 0x4f, 0x87, 0xbe, 0x81, 0x90, 0x7c, 0x3e,
  0x07, 0x1e, 0x66, 0xbd, 0xa0, 0x95, 0xba, 0x3d, 0xa4, 0xd1, 0xee, 0x3e,
  0x65, 0xed, 0xb3, 0xbe, 0xdc, 0x9d, 0x14, 0x3e, 0x93, 0xc8, 0xc5, 0xbe,
  0x36, 0xda, 0x43, 0x3d, 0x65, 0x40, 0x8b, 0x3d, 0x64, 0x0c, 0xda, 0x3d,
  0x76, 0x9a, 0xc1, 0xbe, 0x68, 0x90, 0xdb, 0x3d, 0x60, 0x2e, 0xeb, 0xbd,
  0x7d, 0x9b, 0xb9, 0x3e, 0x23, 0xfc, 0xba, 0xbe, 0xff, 0x90, 0x97, 0x3e,
  0xb5, 0x8d, 0x67, 0x3e, 0x59, 0xe0, 0xe0, 0x3d, 0xab, 0x9c, 0x62, 0xbe,
  0x65, 0x4f, 0x14, 0xbe, 0x17, 0xd1, 0x90, 0xbe, 0x24, 0x94, 0xdc, 0x3e,
  0xf0, 0x46, 0xcd, 0x3e, 0x86, 0xb5, 0x46, 0xbe, 0xee, 0xa8, 0x2c, 0x3e,
  0x02, 0xd9, 0x09, 0x3e, 0xe8, 0x57, 0x1c, 0x3e, 0x29, 0xa3, 0x14, 0xbe,
  0x57, 0xd1, 0x0a, 0x3f, 0x83, 0x50, 0x23, 0x3f, 0xea, 0xb9, 0xbd, 0xbd,
  0x5a, 0x31, 0x5f, 0x3e, 0x51, 0x5a, 0xc9, 0x3e, 0xcd, 0x6b, 0x84, 0x3e,
  0x93, 0x8d, 0x50, 0xbe, 0x5c, 0x06, 0x06, 0x3f, 0x3d, 0x3a, 0x3d, 0x3e,
  0x8d, 0x86, 0x33, 0x3e, 0x73, 0xde, 0x01, 0xbe, 0x33, 0x4e, 0xdc, 0x3d,
  0x9c, 0x54, 0x65, 0xbd, 0x26, 0x3c, 0x9b, 0xbd, 0x88, 0x7f, 0xcf, 0xbb,
  0x6e, 0x87, 0x6a, 0x3b, 0x4f, 0x70, 0x1f, 0xbd, 0x1c, 0x0b, 0x1d, 0x3e,
  0x71, 0x39, 0x5a, 0x3e, 0x99, 0xc1, 0x8d, 0xbe, 0x3c, 0x92, 0xe8, 0xbd,
  0x5a, 0x0b, 0x7d, 0xbd, 0xeb, 0x4b, 0x9d, 0xbe, 0x9e, 0xde, 0xd2, 0x3e,
  0xb8, 0xd1, 0xda, 0x3e, 0xd7, 0x89, 0xa4, 0x3e, 0xa0, 0xdb, 0x81, 0x3e,
  0x3e, 0x89, 0xb2, 0x3e, 0x25, 0x1e, 0x62, 0xbe, 0x94, 0x27, 0x94, 0xbd,
  0xa7, 0xba, 0x07, 0xbe, 0xad, 0xdf, 0xb4, 0x3e, 0xe0, 0x9a, 0x47, 0xbc,
  0xfe, 0xa3, 0x89, 0xbe, 0xf3, 0xa0, 0x25, 0x3e, 0x82, 0x48, 0xeb, 0xbd,
  0x08, 0x8f, 0x82, 0x3e, 0x50, 0xe5, 0x28, 0x3e, 0x1b, 0xa6, 0xb4, 0x3e,
  0xbc, 0x5c, 0x3a, 0x3e, 0xd0, 0xaf, 0xd9, 0x3e, 0x43, 0x94, 0x7c, 0xbe,
  0x46, 0x0a, 0x61, 0x3e, 0x17, 0xbf, 0xc5, 0xbd, 0x0d, 0x41, 0xf3, 0xbd,
  0xf9, 0x7e, 0xbb, 0x3d, 0xab, 0x08, 0xeb, 0xbe, 0xf5, 0xe4, 0x4b, 0x3c,
  0xda, 0xb4, 0xdf, 0x3c, 0xa5, 0x8d, 0x23, 0x3e, 0x76, 0xa4, 0x81, 0xbd,
  0x06, 0xb2, 0xce, 0x3d, 0x03, 0xde, 0xd0, 0xbe, 0xca, 0x22, 0x34, 0xbe,
  0x89, 0x94, 0x4c, 0x3e, 0x7e, 0x75, 0xbe, 0x3e, 0x36, 0xd3, 0xb8, 0x3e,
  0x48, 0x0f, 0x8a, 0xbe, 0xfc, 0xb2, 0x00, 0xbf, 0x3a, 0x0f, 0x79, 0xbc,
  0x51, 0x41, 0x2c, 0x3f, 0x5e, 0x1b, 0xff, 0x3d, 0xfe, 0x96, 0x4d, 0x3c,
  0xbd, 0x64, 0x98, 0x3e, 0xbc, 0xa2, 0xf3, 0x3e, 0xd4, 0x3c, 0xa0, 0xbd,
  0x6c, 0xba, 0xa2, 0xbd, 0x17, 0x66, 0xa9, 0x3e, 0x67, 0x6f, 0xbe, 0xbd,
  0x0c, 0x62, 0x38, 0xbe, 0x5c, 0xac, 0x88, 0x3c, 0xb4, 0xc5, 0x56, 0x3d,
  0x88, 0x2e, 0x90, 0x3e, 0x9c, 0x53, 0xf3, 0x3d, 0xdf, 0x39, 0xdd, 0xbe,
  0xc1, 0x0c, 0xac, 0x3e, 0xae, 0xa1, 0x89, 0x3a, 0x39, 0xa6, 0xd6, 0xbb,
  0x23, 0x7e, 0xcc, 0xbe, 0xce, 0x48, 0x12, 0x3e, 0x12, 0xf9, 0x1c, 0xbf,
  0x7f, 0xdf, 0x94, 0x3e, 0x2f, 0x26, 0xe9, 0x3d, 0xf0, 0x5d, 0x6e, 0x3d,
  0x6b, 0xce, 0x9a, 0xbe, 0xcc, 0xbb, 0x54, 0xbe, 0xa6, 0xc3, 0x84, 0x3c,
  0xd1, 0x70, 0x06, 0xbe, 0x3d, 0x77, 0xab, 0x3e, 0x4c, 0x8f, 0xbe, 0x3e,
  0xf4, 0x43, 0xc6, 0x3e, 0xbd, 0xc3, 0x3e, 0x3e, 0x3f, 0x07, 0x9c, 0x3d,
  0x50, 0x83, 0xd7, 0x3e, 0xa5, 0xb6, 0x45, 0xbe, 0x31, 0x13, 0x31, 0x3e,
  0x57, 0x87, 0x05, 0xbe, 0x47, 0x1e, 0xd1, 0xbe, 0x6a, 0x0f, 0xb8, 0xbc,
  0x87, 0x32, 0x28, 0x3e, 0x5e, 0x94, 0xd4, 0xbe, 0xa2, 0x46, 0xaa, 0xbd,
  0xb4, 0xbc, 0x09, 0x3f, 0xc0, 0x4e, 0xd1, 0xbd, 0x1a, 0x86, 0x22, 0x3e,
  0x85, 0x3a, 0x3c, 0xbe, 0xd5, 0xd8, 0xf0, 0xbe, 0x3a, 0xc3, 0x21, 0x3e,
  0x31, 0x32, 0x43, 0xbf, 0xa2, 0x70, 0x4c, 0xbe, 0xdb, 0x11, 0xc9, 0xbd,
  0xf5, 0xbc, 0x44, 0x3e, 0x80, 0x0a, 0x66, 0x3d, 0x7a, 0x4c, 0xc1, 0xbd,
  0xf5, 0xf2, 0x00, 0xbf, 0x86, 0x73, 0xa0, 0x3e, 0x6b, 0x37, 0x6f, 0xbe,
  0x44, 0x39, 0x96, 0x3e, 0xe7, 0x0a, 0x56, 0x3e, 0xf3, 0xc9, 0xb5, 0x3e,
  0x27, 0x02, 0x0b, 0x3f, 0xca, 0x2e, 0xd0, 0xbe, 0x69, 0x78, 0x5c, 0x3e,
  0xd6, 0xf1, 0x9b, 0xbc, 0x66, 0xae, 0xd6, 0x3e, 0xeb, 0x01, 0x97, 0x3e,
  0xd9, 0x4b, 0x17, 0x3d, 0xac, 0x3e, 0x0d, 0x3f, 0xf9, 0x92, 0xff, 0x3d,
  0x1d, 0x13, 0x81, 0xbc, 0xb4, 0x6c, 0xc0, 0x3e, 0x39, 0x51, 0x19, 0x3f,
  0x9a, 0x0b, 0x5e, 0xbe, 0x02, 0x4f, 0x1d, 0xbe, 0x0b, 0xa4, 0x24, 0xbe,
  0x6b, 0x7f, 0x90, 0xbe, 0x8c, 0x9d, 0xb9, 0xbd, 0x38, 0xbc, 0x92, 0x3e,
  0x26, 0x34, 0xb1, 0x3e, 0x26, 0x41, 0x1b, 0xbf, 0xa2, 0x38, 0x8a, 0x3d,
  0x94, 0x7b, 0xba, 0x3d, 0x34, 0x25, 0x29, 0x3e, 0x6c, 0x54, 0x12, 0x3f,
  0x69, 0xa5, 0xc2, 0xbe, 0x29, 0xbe, 0x04, 0x3f, 0xe6, 0x8e, 0x2f, 0x3e,
  0x82, 0xa0, 0x4f, 0x3d, 0xbe, 0x87, 0x45, 0xbf, 0xfc, 0xa0, 0x20, 0x3f,
  0x05, 0x6b, 0xf2, 0xbe, 0x5d, 0xcb, 0xfb, 0x3d, 0xac, 0x43, 0xac, 0x3e,
  0x85, 0xa0, 0xc5, 0x3e, 0x6d, 0x43, 0xbb, 0xbd, 0x1a, 0x07, 0x8b, 0xbe,
  0x0b, 0x4a, 0xa7, 0x3e, 0x2a, 0x48, 0xb5, 0x3e, 0xa7, 0xdf, 0xbf, 0x3e,
  0xd3, 0xa8, 0x4d, 0x3e, 0x99, 0xbd, 0x08, 0x3f, 0x6b, 0x3b, 0x33, 0x3f,
  0x98, 0x87, 0xad, 0x3e, 0xc3, 0xe4, 0x91, 0x3e, 0xe8, 0x27, 0xa2, 0x3d,
  0x02, 0xd6, 0x30, 0xbc, 0x53, 0x98, 0xba, 0xbe, 0xe9, 0x0e, 0x7e, 0x3c,
  0x7b, 0xb5, 0xeb, 0x3e, 0xec, 0x98, 0x51, 0x3e, 0x52, 0x54, 0xfe, 0x3e,
  0xe1, 0x7e, 0x8f, 0xbe, 0x1b, 0x5a, 0x33, 0xbe, 0x76, 0x4b, 0xc9, 0x3b,
  0xbb, 0x30, 0xb7, 0x3e, 0x1f, 0xef, 0xc2, 0xbe, 0x72, 0x89, 0x0c, 0xbe,
  0xb5, 0x0e, 0x64, 0x3e, 0x46, 0x8b, 0x02, 0x3f, 0x7d, 0x0d, 0x8d, 0x3e,
  0xef, 0xc2, 0xba, 0x3b, 0xe4, 0x9d, 0x3d, 0xbe, 0x22, 0xde, 0xdf, 0xbd,
  0x6c, 0x29, 0xa2, 0x3e, 0xe5, 0xbf, 0xdf, 0x3e, 0xb9, 0x51, 0xa4, 0xbe,
  0xf3, 0x92, 0x64, 0xbd, 0x66, 0xde, 0x69, 0x3e, 0x07, 0x51, 0xe4, 0xbe,
  0x2f, 0x5e, 0x9a, 0xbe, 0x96, 0x6e, 0xbe, 0xbe, 0x35, 0x4c, 0x69, 0xbe,
  0x61, 0x2b, 0xcd, 0xbe, 0x84, 0x2b, 0x23, 0xbf, 0x20, 0x75, 0xbf, 0x3e,
  0x90, 0xde, 0xef, 0xbb, 0x5f, 0x78, 0xb1, 0x3e, 0x16, 0x86, 0x81, 0xbe,
  0xd6, 0x5e, 0xa6, 0x3d, 0x70, 0x1f, 0xfc, 0x3d, 0x75, 0x2f, 0x92, 0xbe,
  0xae, 0xeb, 0x0b, 0xbe, 0xbb, 0x5d, 0x1e, 0x3f, 0x0e, 0xf4, 0x60, 0x3e,
  0x10, 0x93, 0x80, 0x3d, 0xf0, 0x38, 0x18, 0x3e, 0xe5, 0xe7, 0xf4, 0x3b,
  0xbd, 0xce, 0x23, 0x3d, 0x13, 0xdd, 0xa9, 0x3e, 0x89, 0x00, 0xf9, 0x3c,
  0xe5, 0x3d, 0xc6, 0xbe, 0x79, 0x3c, 0x01, 0x3f, 0xee, 0xd5, 0x48, 0xbe,
  0xb5, 0x0f, 0x80, 0xbe, 0x52, 0x7f, 0xc6, 0x3d, 0x13, 0x3c, 0x1d, 0x3f,
  0xbb, 0x59, 0xb4, 0xbe, 0xce, 0xf8, 0xb9, 0xbe, 0x4c, 0xd2, 0xca, 0xbc,
  0x91, 0x3f, 0x41, 0x3e, 0xd9, 0x57, 0xb1, 0x3e, 0x93, 0x01, 0x39, 0x3f,
  0xad, 0x29, 0xc3, 0x3e, 0xaf, 0xd1, 0x94, 0x3e, 0xf9, 0xbc, 0x13, 0x3e,
  0x78, 0xd2, 0xb4, 0x3e, 0xcf, 0x0f, 0xa2, 0xbe, 0x31, 0xfa, 0x1f, 0x3e,
  0x65, 0x06, 0xb0, 0x3c, 0x5a, 0x8e, 0x04, 0xbf, 0xe7, 0x25, 0x12, 0x3e,
  0x46, 0x38, 0x88, 0x3e, 0x75, 0x4d, 0x7e, 0x3d, 0xaa, 0xa9, 0x11, 0xbe,
  0x58, 0x8e, 0x43, 0x3e, 0x37, 0xf8, 0xb0, 0x3e, 0xf2, 0x59, 0x8e, 0xbe,
  0x11, 0xd6, 0xa5, 0xbe, 0xbf, 0x91, 0x84, 0xbe, 0x82, 0x31, 0x86, 0x3c,
  0x1b, 0xae, 0x5c, 0xbe, 0x02, 0x4f, 0x7e, 0x3d, 0x19, 0xca, 0xd8, 0xbd,
  0x9f, 0xc5, 0x29, 0x3e, 0xe8, 0xd8, 0x51, 0x3e, 0x5b, 0x72, 0x92, 0xbd,
  0x68, 0x21, 0x9e, 0xbe, 0x8d, 0x15, 0x12, 0x3d, 0x4f, 0xd5, 0xa2, 0x3e,
  0x3d, 0x8f, 0x58, 0x3e, 0x0e, 0x8c, 0x24, 0x3f, 0x5e, 0xa0, 0xeb, 0xbd,
  0xa5, 0xd6, 0x27, 0xbf, 0x14, 0x57, 0x8f, 0xbd, 0x4f, 0x6f, 0x0f, 0x3e,
  0xd3, 0x1a, 0xa4, 0xbe, 0xeb, 0xe3, 0x45, 0xbe, 0xce, 0x11, 0x45, 0xbe,
  0xe9, 0xc7, 0xba, 0xbd, 0x08, 0x56, 0x77, 0x3e, 0x21, 0x78, 0x89, 0x3e,
  0x52, 0x76, 0xc1, 0xbe, 0x1b, 0x9c, 0x99, 0x3e, 0xf2, 0x2e, 0x17, 0x3d,
  0xa9, 0x78, 0x8d, 0x3d, 0x19, 0xe5, 0xd2, 0xbe, 0x4d, 0x92, 0xc6, 0x3e,
  0xa3, 0xae, 0x52, 0x3d, 0x4a, 0xf8, 0xc1, 0xbe, 0xc6, 0xdc, 0xe3, 0x3d,
  0x2e, 0x13, 0xc2, 0x3c, 0x90, 0xd9, 0xdc, 0x3d, 0x90, 0x77, 0x01, 0x3f,
  0x53, 0xf9, 0x86, 0xbd, 0x09, 0xb7, 0x5a, 0xbe, 0x43, 0xf4, 0xc4, 0x3e,
  0xde, 0xd1, 0x09, 0x3e, 0x48, 0xfb, 0x9a, 0xbe, 0xe3, 0xb4, 0x13, 0x3d,
  0xe5, 0x63, 0x39, 0x3e, 0x0b, 0x71, 0xbe, 0xbe, 0xab, 0xa7, 0xb8, 0xbe,
  0xb2, 0x47, 0x3d, 0xbe, 0x2e, 0x86, 0x3f, 0xbe, 0x06, 0x22, 0x24, 0x3e,
  0x63, 0x92, 0x67, 0xbe, 0xa9, 0x66, 0x0f, 0x3d, 0xc7, 0x30, 0x05, 0x3e,
  0xff, 0x5e, 0x57, 0xbe, 0xaf, 0xc8, 0xf9, 0xbd, 0x58, 0xaa, 0x6a, 0xbe,
  0x53, 0x37, 0x7c, 0x3e, 0x96, 0x3d, 0x41, 0xbe, 0x3a, 0x97, 0xc9, 0x3e,
  0xc4, 0x6a, 0x1f, 0xbf, 0xb6, 0xe9, 0x74, 0xbe, 0xa1, 0x35, 0x13, 0xbf,
  0xf0, 0xbe, 0x02, 0x3f, 0x82, 0x93, 0x8c, 0xbc, 0xa8, 0x5a, 0xaf, 0x3e,
  0xa9, 0xc0, 0x30, 0x3f, 0xb3, 0xbd, 0xf5, 0x3d, 0x52, 0x71, 0x0a, 0x3e,
  0x4c, 0x05, 0xf3, 0x3e, 0x22, 0xe9, 0x05, 0x3f, 0xaf, 0x4e, 0xec, 0x3d,
  0xaa, 0xca, 0x18, 0xbe, 0xd4, 0xb9, 0xa1, 0xbe, 0xbb, 0xf3, 0x2d, 0xbd,
  0x7b, 0xd2, 0x11, 0x3e, 0xc1, 0xa6, 0x3c, 0x3e, 0xc9, 0xa1, 0x0d, 0xbe,
  0x09, 0x19, 0xd7, 0xbc, 0x9f, 0xac, 0xf3, 0x3e, 0x44, 0x63, 0x5a, 0x3e,
  0x39, 0x9a, 0x51, 0x3e, 0x28, 0x1f, 0xbd, 0xbe, 0x3d, 0xf9, 0x95, 0x3d,
  0xfb, 0xfe, 0xaf, 0x3e, 0xb5, 0x82, 0x90, 0x3d, 0x5d, 0xcf, 0xb1, 0x3d,
  0xb8, 0x50, 0xb5, 0x3d, 0x2f, 0x2d, 0x95, 0x3e, 0xeb, 0x2f, 0x53, 0x3e,
  0x4e, 0x03, 0xaf, 0x3d, 0x6a, 0x8a, 0x2c, 0x3f, 0x5f, 0x7c, 0x86, 0x3e,
  0x17, 0x3f, 0x9c, 0x3d, 0xbc, 0x3b, 0x6e, 0xbd, 0x24, 0xf6, 0x8e, 0x3e,
  0x45, 0x34, 0xd3, 0xbc, 0x04, 0xd9, 0xa6, 0xbe, 0xe6, 0x03, 0xdd, 0x3d,
  0xd3, 0x53, 0xe4, 0x3d, 0x98, 0xe8, 0x5c, 0x3e, 0xbc, 0x1e, 0xc7, 0xbb,
  0xad, 0x09, 0x28, 0x3e, 0xe2, 0x24, 0x9f, 0xbe, 0xd2, 0xc4, 0xd4, 0x3e,
  0x62, 0xb3, 0x5e, 0x3e, 0xac, 0xe6, 0xe2, 0x3e, 0x49, 0x03, 0xc2, 0x3d,
  0x7a, 0x37, 0xc7, 0x3e, 0xc3, 0x41, 0x13, 0x3e, 0xc0, 0x6a, 0xb5, 0xbe,
  0x2a, 0x7e, 0x3b, 0xbe, 0x5d, 0x68, 0xbb, 0x3c, 0x5a, 0x13, 0xf2, 0xbd,
  0xab, 0x0d, 0xe1, 0x3e, 0xca, 0xd6, 0xe3, 0x3e, 0x55, 0xe1, 0xa1, 0xbd,
  0x94, 0x81, 0xf4, 0xbe, 0x35, 0x1b, 0x91, 0x3e, 0xc3, 0x88, 0x15, 0x3f,
  0x56, 0x47, 0x02, 0x3f, 0x36, 0xc2, 0xc2, 0xbc, 0x98, 0xe0, 0x92, 0xbe,
  0x61, 0x1a, 0x86, 0x3e, 0x30, 0x02, 0xe8, 0xbc, 0xb1, 0x2a, 0xb6, 0x3d,
  0x76, 0x7d, 0xbd, 0x3d, 0xd4, 0xbb, 0x8f, 0x3e, 0x75, 0x6d, 0xbd, 0xbe,
  0xd2, 0x05, 0xca, 0xbe, 0x8f, 0x63, 0x95, 0xbe, 0xad, 0xeb, 0xf3, 0xbe,
  0x46, 0x37, 0xae, 0x3e, 0xad, 0x00, 0x0a, 0xbe, 0xaa, 0xd9, 0x03, 0x3e,
  0x84, 0x6b, 0xc8, 0x3e, 0x13, 0x8d, 0x01, 0xbf, 0x26, 0x6d, 0x75, 0x3e,
  0xa8, 0xf0, 0x25, 0x3e, 0x03, 0xba, 0xfb, 0x3e, 0x4d, 0x81, 0x9d, 0xbd,
  0x35, 0x29, 0x78, 0x3e, 0x79, 0xb2, 0x26, 0xbd, 0xdc, 0xae, 0xad, 0xbe,
  0xd5, 0x78, 0x95, 0x3e, 0xc5, 0x5d, 0xd5, 0xbc, 0x98, 0x31, 0xc8, 0x3c,
  0xf8, 0x12, 0x32, 0x3e, 0xfe, 0x67, 0x6e, 0x3e, 0x24, 0x24, 0xe3, 0xbd,
  0xf1, 0x5e, 0x93, 0x3e, 0x89, 0x90, 0x3e, 0x3e, 0x11, 0xe9, 0xdd, 0x3e,
  0x00, 0x39, 0x57, 0x3e, 0xfe, 0xa3, 0xcd, 0xbe, 0x89, 0xe3, 0x44, 0x3e,
  0x02, 0x1a, 0x09, 0xbf, 0x70, 0xf5, 0xe0, 0xbe, 0x45, 0x22, 0x96, 0xbe,
  0x45, 0x64, 0x09, 0xbf, 0xc7, 0xde, 0xed, 0x3e, 0x50, 0x61, 0xc9, 0xbd,
  0x33, 0x54, 0x9b, 0x3e, 0x4e, 0x86, 0x3a, 0xbd, 0x41, 0x66, 0xe6, 0x3e,
  0x5e, 0xfd, 0x37, 0x3c, 0x1e, 0x15, 0x04, 0x3f, 0x59, 0x43, 0x30, 0x3e,
  0x16, 0x20, 0x6a, 0xbd, 0x0a, 0x02, 0x92, 0xbe, 0xe5, 0x22, 0xb8, 0x3e,
  0x16, 0x5f, 0xc5, 0xba, 0x83, 0x26, 0xd6, 0xbe, 0x27, 0xf9, 0x14, 0x3d,
  0x16, 0x38, 0xd9, 0xbe, 0xa9, 0x59, 0x6b, 0x3d, 0x1c, 0xe2, 0x95, 0xbd,
  0xb7, 0x67, 0xe6, 0xbe, 0x4a, 0xf1, 0x6c, 0x3e, 0xa7, 0x7b, 0x91, 0xbe,
  0x87, 0xfe, 0xda, 0x3e, 0xac, 0xfe, 0xf4, 0x3d, 0x07, 0x3a, 0x34, 0x3e,
  0xaf, 0xd3, 0xb1, 0x3e, 0x41, 0xd5, 0x1e, 0xbe, 0x71, 0xc1, 0x93, 0x3e,
  0x8e, 0xa2, 0x4d, 0x3e, 0x9f, 0xd1, 0x81, 0x3e, 0xeb, 0xf2, 0x94, 0x3e,
  0x2e, 0xc3, 0x46, 0x3e, 0x5e, 0x59, 0xa4, 0x3c, 0xf2, 0xf1, 0x41, 0x3e,
  0x13, 0x43, 0x94, 0x3e, 0x8d, 0x3a, 0x1a, 0xbf, 0xd5, 0x1d, 0x1e, 0x3f,
  0xb4, 0xa7, 0x59, 0x3e, 0x02, 0x01, 0x1b, 0xbe, 0xb5, 0xa4, 0xcc, 0xbd,
  0x24, 0x51, 0x3e, 0xbe, 0x9c, 0x15, 0x9f, 0xbe, 0x52, 0x80, 0xda, 0x3e,
  0xae, 0x78, 0x9f, 0xbd, 0xd6, 0x19, 0xba, 0x3e, 0x6e, 0x48, 0xcc, 0xbe,
  0x6e, 0x0c, 0x0c, 0x3f, 0x53, 0x64, 0xc1, 0x3e, 0x6e, 0x61, 0x97, 0xbe,
  0x5d, 0x74, 0x0d, 0xbe, 0x8e, 0x87, 0xf2, 0xbe, 0xc1, 0xee, 0x2e, 0x3f,
  0x78, 0xc8, 0xb7, 0x3d, 0x75, 0x7e, 0xae, 0xbe, 0x92, 0x6b, 0xb2, 0xbe,
  0x96, 0x51, 0x5a, 0xbd, 0x0b, 0x8f, 0x91, 0xbe, 0x35, 0xd3, 0x05, 0xbd,
  0x92, 0x48, 0xa6, 0x3e, 0x60, 0xdc, 0x32, 0x3e, 0xd2, 0xb2, 0x33, 0x3e,
  0xf7, 0x61, 0xd0, 0xbe, 0xbb, 0x31, 0x45, 0x3d, 0x7d, 0xea, 0x50, 0x3d,
  0xb5, 0xd6, 0x4f, 0xbe, 0x41, 0x68, 0x02, 0x3f, 0x98, 0xc2, 0x05, 0x3f,
  0x56, 0x4a, 0x26, 0x3e, 0x1b, 0xef, 0x4f, 0x3c, 0xa8, 0x4d, 0x8f, 0xbe,
  0x54, 0x45, 0x81, 0xbe, 0xcc, 0xd7, 0x80, 0xbe, 0x31, 0x9a, 0x46, 0x3d,
  0x7e, 0x9e, 0x50, 0x3e, 0x92, 0x19, 0xdd, 0xbc, 0x96, 0x16, 0x2a, 0x3f,
  0x7b, 0x2a, 0x14, 0xbe, 0x11, 0x2c, 0xc5, 0xbe, 0x11, 0x44, 0x0d, 0x3f,
  0x6a, 0x35, 0xac, 0x3e, 0x83, 0xc6, 0x9b, 0xbd, 0x8d, 0xff, 0x53, 0xbf,
  0xcd, 0xb4, 0x9e, 0x3e, 0xcc, 0x75, 0xb2, 0x3e, 0x72, 0xef, 0x91, 0xbd,
  0x10, 0xe4, 0xc1, 0x3d, 0x29, 0xe5, 0x22, 0x3f, 0x6b, 0x6d, 0x50, 0xbe,
  0x71, 0xa5, 0x31, 0x3e, 0xed, 0xd3, 0x7c, 0x3e, 0x0c, 0x86, 0x81, 0x3e,
  0xcd, 0x92, 0x94, 0x3d, 0x74, 0x59, 0x17, 0x3f, 0x51, 0x84, 0x9b, 0x3e,
  0xc5, 0x2c, 0xe4, 0x3b, 0xb7, 0x41, 0x89, 0x3c, 0xa7, 0xd8, 0x01, 0xbc,
  0x24, 0x74, 0x3c, 0xbe, 0x66, 0x41, 0xdb, 0x3e, 0x55, 0xc5, 0xd7, 0x3e,
  0xcf, 0xed, 0x2d, 0xbd, 0x5e, 0x7c, 0xa7, 0x3e, 0x49, 0xa3, 0xd9, 0xbd,
  0x56, 0xc1, 0x83, 0xbd, 0xc4, 0x45, 0x5f, 0x3e, 0x18, 0x6f, 0x95, 0x3e,
  0xfd, 0x62, 0x93, 0x3e, 0x2d, 0x6e, 0x06, 0x3f, 0xf8, 0x32, 0xad, 0x3d,
  0xbe, 0xaa, 0xc4, 0x3e, 0xb6, 0x02, 0x29, 0xbe, 0x8e, 0x88, 0xf7, 0x3e,
  0x9c, 0x90, 0x9a, 0xbe, 0xbd, 0xf4, 0xae, 0xbe, 0x50, 0x2c, 0x8a, 0xbd,
  0xf5, 0x64, 0x60, 0x3d, 0x52, 0x2b, 0x38, 0xbe, 0xea, 0xa2, 0x12, 0x3f,
  0x72, 0x41, 0x87, 0x3e, 0x3e, 0xeb, 0xa2, 0xbc, 0x5b, 0xb3, 0x71, 0x3e,
  0x1f, 0xd6, 0x09, 0x3e, 0x97, 0xd5, 0x8a, 0xbe, 0xfa, 0x05, 0x17, 0x3e,
  0x79, 0x69, 0x00, 0x3e, 0xd7, 0x9d, 0x0b, 0x3f, 0xa3, 0xf1, 0xdf, 0xbc,
  0xd2, 0x3e, 0xb7, 0xbd, 0x67, 0x66, 0xe3, 0x3e, 0x59, 0x7a, 0x8a, 0xbc,
  0x68, 0x27, 0x01, 0x3e, 0xc8, 0x13, 0x80, 0x3e, 0x2d, 0x42, 0x04, 0x3f,
  0x78, 0x13, 0xaf, 0xbe, 0x8a, 0xb9, 0xe3, 0x3e, 0xbf, 0x5e, 0xa1, 0xbe,
  0x39, 0x47, 0x3b, 0x3f, 0x9e, 0x72, 0xe7, 0x3d, 0x91, 0xcd, 0xa1, 0x3d,
  0x0e, 0x33, 0x06, 0xbf, 0x39, 0x11, 0xd4, 0x3e, 0xb7, 0x69, 0x1e, 0xbe,
  0x93, 0xaf, 0xe0, 0xbd, 0xfd, 0x6c, 0x2f, 0xbf, 0x5b, 0xac, 0x1b, 0x3d,
  0x56, 0xf7, 0xd9, 0xbe, 0x67, 0x56, 0xc6, 0x3e, 0x06, 0x0a, 0x91, 0x3e,
  0x95, 0x31, 0x88, 0x3e, 0xcb, 0x2f, 0x28, 0x3e, 0x85, 0xac, 0x1e, 0xbe,
  0x30, 0x97, 0x2b, 0xbe, 0x9f, 0x47, 0x1d, 0x3e, 0xc3, 0x2f, 0xfa, 0xbe,
  0xd4, 0xd2, 0x9b, 0xbe, 0x4e, 0x8c, 0xd3, 0xbd, 0xc0, 0x13, 0x7b, 0xbe,
  0xeb, 0xcb, 0xc9, 0xbd, 0xe1, 0xa2, 0xf2, 0x3d, 0x46, 0x43, 0xd4, 0x3e,
  0x93, 0xb2, 0x84, 0x3e, 0x05, 0x7c, 0xb8, 0xbe, 0x6e, 0x87, 0x65, 0x3e,
  0x32, 0x9a, 0xd6, 0x3e, 0x9d, 0x4d, 0x5e, 0xbf, 0x03, 0xce, 0x34, 0xbe,
  0x1c, 0x1a, 0x8f, 0x3e, 0xc1, 0x37, 0xb6, 0xbe, 0xe1, 0xb7, 0x68, 0x3e,
  0x1f, 0x09, 0x57, 0xbe, 0x2b, 0xe7, 0xd1, 0xbe, 0x75, 0x19, 0xc2, 0x3e,
  0xfa, 0x20, 0x29, 0xbf, 0xe9, 0xb2, 0xb0, 0x3e, 0x7a, 0x96, 0xee, 0xbe,
  0x75, 0xbf, 0xe5, 0xbe, 0xf7, 0xc5, 0x48, 0xbd, 0xe2, 0xc4, 0xfc, 0xbd,
  0xd0, 0x56, 0xeb, 0x3e, 0x37, 0x42, 0x29, 0xbf, 0x70, 0x62, 0x4f, 0xbd,
  0x2e, 0x1a, 0x0a, 0x3e, 0x1a, 0x1d, 0xa4, 0x3e, 0x6c, 0x4c, 0x87, 0xbe,
  0x47, 0x3f, 0x9f, 0xbd, 0xee, 0xa3, 0xf7, 0x3c, 0x05, 0xcc, 0x7e, 0xbc,
  0x58, 0x2d, 0xe8, 0x3d, 0xf8, 0x7f, 0xaa, 0xbd, 0x27, 0xf5, 0x73, 0xbd,
  0x21, 0x66, 0x2f, 0x3e, 0xb1, 0xe6, 0x8e, 0x3e, 0x6c, 0x0e, 0xe6, 0xbd,
  0xad, 0xf0, 0xa1, 0xbe, 0xe6, 0xd5, 0x9f, 0x3e, 0x61, 0x32, 0x40, 0xbd,
  0xcf, 0x4b, 0x76, 0x3e, 0x9f, 0x1c, 0x9a, 0xbd, 0xe9, 0x91, 0x3e, 0x3e,
  0x74, 0xc9, 0xa0, 0x3e, 0x96, 0xc8, 0x07, 0x3f, 0xfe, 0x3b, 0x61, 0x3e,
  0x76, 0xad, 0x03, 0x3e, 0xf4, 0xe6, 0xdc, 0x3e, 0x93, 0x99, 0x89, 0x3e,
  0xee, 0x44, 0xeb, 0x3d, 0xc3, 0xf6, 0xd7, 0xbe, 0x7d, 0x26, 0xca, 0x3d,
  0xb7, 0x2f, 0x0a, 0x3f, 0xa8, 0xed, 0x1b, 0x3f, 0x25, 0x0e, 0x16, 0x3f,
  0x5f, 0x0d, 0x66, 0x3e, 0xd9, 0x5b, 0x86, 0x3e, 0x2a, 0x69, 0x5d, 0xbe,
  0xa4, 0xf7, 0xe2, 0xbd, 0x19, 0xec, 0xfc, 0x3d, 0x11, 0x18, 0xe2, 0x3c,
  0x29, 0xc1, 0x4a, 0x3c, 0x46, 0x44, 0x89, 0x3c, 0x72, 0x73, 0x6b, 0xbc,
  0xa4, 0x2c, 0xe2, 0x3e, 0xd3, 0x29, 0xac, 0x3e, 0x6b, 0xd8, 0xac, 0xbe,
  0xf4, 0xd6, 0xa1, 0xbe, 0xfc, 0xa7, 0x0a, 0x3e, 0x04, 0x88, 0xfc, 0x3e,
  0x93, 0x8c, 0x78, 0xbe, 0xe1, 0x03, 0x2f, 0x3f, 0x7c, 0xd9, 0x06, 0xbe,
  0x93, 0x77, 0x12, 0x3f, 0x3a, 0xe8, 0x27, 0x3e, 0xbc, 0x24, 0x2c, 0x3f,
  0x49, 0x88, 0xb1, 0x3d, 0x2f, 0x55, 0x8b, 0x3d, 0xa9, 0x23, 0xe7, 0x3d,
  0x13, 0x7a, 0x66, 0x3e, 0x98, 0x6a, 0x01, 0xbe, 0x44, 0x95, 0x52, 0x3e,
  0xa9, 0xcb, 0x8f, 0xbd, 0x0c, 0x1f, 0x07, 0x3d, 0xb6, 0x54, 0x38, 0x3e,
  0x9d, 0x28, 0xd2, 0xbe, 0x77, 0x25, 0x0c, 0x3c, 0xa1, 0xf8, 0x2d, 0x3d,
  0xc2, 0x4d, 0x15, 0xbf, 0x99, 0xa3, 0x67, 0x3e, 0x55, 0xe9, 0xcb, 0x3e,
  0xa6, 0x80, 0x2f, 0x3e, 0xc1, 0xeb, 0x9d, 0xbb, 0x83, 0x4c, 0xf3, 0xbe,
  0x95, 0x4c, 0xed, 0xbd, 0xf5, 0x40, 0xc3, 0xbe, 0x92, 0xfc, 0xd0, 0xbe,
  0x59, 0x4b, 0x4c, 0x3f, 0x01, 0xfc, 0x98, 0xbe, 0x90, 0xf2, 0x0f, 0xbf,
  0x24, 0x3e, 0xa2, 0x3e, 0x71, 0x17, 0x26, 0xbe, 0x1d, 0xd8, 0xd4, 0xbd,
  0xe9, 0x83, 0x53, 0x3d, 0x3d, 0x66, 0x76, 0x3d, 0xef, 0x38, 0x82, 0x3d,
  0x7e, 0x12, 0xd1, 0x3e, 0xe9, 0x7b, 0x84, 0xbe, 0x41, 0xc6, 0xdf, 0xbd,
  0x03, 0x8b, 0x07, 0xbf, 0x97, 0x2b, 0xe3, 0xbd, 0x7e, 0x56, 0x17, 0xbf,
  0xe6, 0xa6, 0xf1, 0xbd, 0x23, 0xea, 0xcc, 0x3e, 0xab, 0x9c, 0xc0, 0x3e,
  0xc6, 0x95, 0xd7, 0x3e, 0x5b, 0xe1, 0xd0, 0xbd, 0x43, 0x23, 0x1d, 0xbb,
  0x40, 0xcb, 0x07, 0xbf, 0x55, 0xdd, 0x1b, 0xbe, 0xe4, 0xab, 0xf3, 0x3e,
  0xc5, 0xad, 0x9a, 0xbe, 0xaf, 0x82, 0x4d, 0xbc, 0xde, 0xb9, 0x02, 0xbd,
  0x25, 0x0d, 0xa6, 0xbe, 0x15, 0xa1, 0x5a, 0xbe, 0x1c, 0xf2, 0x50, 0x3f,
  0xc5, 0x85, 0x44, 0xbe, 0xe6, 0xc7, 0x59, 0xbd, 0x60, 0xd8, 0x02, 0x3f,
  0x29, 0x66, 0xc7, 0x3d, 0x20, 0x73, 0xfb, 0x3e, 0x32, 0x7e, 0xce, 0x3e,
  0x08, 0x62, 0x88, 0xbd, 0xa5, 0xdd, 0x88, 0xbd, 0x95, 0x3b, 0xe9, 0x3e,
  0xe8, 0x0b, 0x05, 0x3e, 0x7a, 0x67, 0x55, 0x3e, 0x8b, 0xaf, 0x89, 0xbe,
  0xcd, 0xfc, 0x55, 0x3e, 0x1e, 0x33, 0xf8, 0xbe, 0x6f, 0xa3, 0x0e, 0x3f,
  0x5c, 0x01, 0x92, 0xbe, 0xa6, 0x27, 0x85, 0xbd, 0x86, 0xf4, 0x93, 0xbe,
  0xd9, 0x41, 0x02, 0x3e, 0x5f, 0xf0, 0xa5, 0xbe, 0x44, 0xc6, 0xae, 0x3e,
  0xbc, 0x90, 0x02, 0xbe, 0x34, 0x3e, 0x24, 0x3e, 0x68, 0x3e, 0x9e, 0x3e,
  0x4f, 0x5b, 0x94, 0xbe, 0x6d, 0xf8, 0x83, 0xbd, 0x00, 0x3f, 0xcb, 0x3e,
  0xc0, 0xbf, 0x2b, 0x3f, 0xd1, 0xe5, 0x9e, 0x3e, 0xc1, 0x1d, 0xd2, 0x3d,
  0x0d, 0x6c, 0xf5, 0x3d, 0xbf, 0xf0, 0x73, 0xbd, 0x84, 0xe5, 0xd4, 0xbe,
  0xd1, 0x89, 0x2e, 0x3e, 0xeb, 0x69, 0x50, 0x3d, 0x98, 0xe8, 0x07, 0x3d,
  0xad, 0xe2, 0xe9, 0x3e, 0xfd, 0x42, 0x6e, 0x3e, 0xfb, 0x76, 0x89, 0xbd,
  0x2a, 0x7c, 0xe1, 0xbe, 0x24, 0x2c, 0xa3, 0x3e, 0xc3, 0x3c, 0x07, 0x3f,
  0xaa, 0xb3, 0x48, 0x3d, 0x6b, 0x2a, 0x95, 0xbe, 0x98, 0x3e, 0x71, 0xbe,
  0x94, 0x55, 0xdb, 0x3e, 0xdc, 0xf3, 0xdc, 0xbb, 0xea, 0xe6, 0x8b, 0xbe,
  0xb7, 0x29, 0x9d, 0xbb, 0x31, 0xc5, 0x70, 0x3e, 0x83, 0xfe, 0xed, 0x3e,
  0x83, 0x52, 0xa5, 0x3e, 0x7f, 0x7f, 0x75, 0x3e, 0xdd, 0xbf, 0x9c, 0x3e,
  0xfb, 0xfb, 0x1f, 0x3e, 0x66, 0x36, 0xa5, 0x3e, 0x62, 0x10, 0xfb, 0x3e,
  0x29, 0x0f, 0x98, 0xbe, 0xb2, 0x85, 0x0d, 0xbe, 0xa9, 0x1a, 0x4e, 0x3e,
  0xe1, 0x9f, 0x06, 0xbd, 0x82, 0x1a, 0x95, 0xbb, 0x73, 0x7e, 0xd0, 0xbd,
  0xa5, 0x77, 0x8d, 0x3e, 0x39, 0x19, 0x8b, 0xbc, 0xa0, 0x77, 0xea, 0xbe,
  0x79, 0x5c, 0x23, 0x3e, 0xf3, 0x5f, 0xe1, 0x3d, 0x0c, 0x9b, 0xfc, 0xbd,
  0xd1, 0x6e, 0x79, 0x3e, 0xdf, 0xe9, 0xdf, 0x3e, 0xb9, 0x99, 0x30, 0xbc,
  0x69, 0xd0, 0x74, 0xbc, 0x9d, 0x80, 0x31, 0x3e, 0x71, 0x98, 0x6f, 0xbd,
  0x14, 0xbd, 0xfb, 0x3e, 0x16, 0x40, 0xd8, 0x3e, 0xf1, 0x55, 0x85, 0x3e,
  0x63, 0xc2, 0x70, 0xbe, 0x78, 0x28, 0x03, 0x3e, 0x07, 0x74, 0xf7, 0x3d,
  0xa8, 0x1e, 0xd5, 0x3e, 0x4a, 0x47, 0x1e, 0x3f, 0xbe, 0x89, 0x2e, 0x3e,
  0xce, 0x58, 0xae, 0x3e, 0xd6, 0xe3, 0x93, 0x3d, 0x95, 0x0b, 0xf9, 0x3e,
  0x41, 0xfb, 0x33, 0xbd, 0xb2, 0x17, 0xae, 0x3e, 0x9c, 0xac, 0x12, 0x3f,
  0x44, 0x6d, 0x31, 0x3f, 0x51, 0xa6, 0x56, 0xbe, 0x27, 0x1d, 0x77, 0x3e,
  0x1a, 0xa9, 0xae, 0x3e, 0x5e, 0xe5, 0x87, 0x3e, 0x4b, 0x39, 0xd4, 0x3e,
  0xf7, 0x71, 0xc8, 0x3e, 0x91, 0x00, 0xf3, 0xbc, 0x97, 0x10, 0xff, 0x3d,
  0xce, 0x67, 0x3d, 0x3d, 0x58, 0x8a, 0xf0, 0x3c, 0xdb, 0x32, 0xbf, 0xbe,
  0x86, 0xec, 0xb9, 0x3e, 0xe3, 0xd0, 0xad, 0x3e, 0xfd, 0x96, 0xbf, 0xbe,
  0x9c, 0x00, 0x95, 0xbd, 0xa9, 0x32, 0x8f, 0xbd, 0x75, 0x97, 0xeb, 0x3e,
  0x31, 0xfd, 0x97, 0x3e, 0xda, 0x12, 0xca, 0x3e, 0xee, 0x31, 0xe8, 0x3e,
  0x82, 0x24, 0x16, 0x3f, 0x88, 0x1c, 0xdc, 0x3d, 0x1e, 0xc0, 0x1e, 0x3d,
  0x2c, 0x2c, 0xe6, 0x3e, 0x14, 0x59, 0xdf, 0x3d, 0x11, 0x81, 0x8f, 0xbb,
  0x9b, 0xa7, 0x33, 0x3c, 0x54, 0xd5, 0x2f, 0x3e, 0xc0, 0x2f, 0x1b, 0xbe,
  0x39, 0x41, 0xac, 0x3c, 0x5c, 0x98, 0xcf, 0xbc, 0xd2, 0x5a, 0x15, 0xbd,
  0x26, 0x46, 0xc8, 0x3e, 0x8f, 0x5b, 0xe5, 0xbc, 0x42, 0x3d, 0xbd, 0x3e,
  0x85, 0x50, 0xae, 0x3d, 0x5e, 0xb8, 0x4b, 0x3e, 0xed, 0x87, 0x03, 0x3f,
  0xbd, 0xe7, 0x59, 0x3d, 0x7f, 0x90, 0x6a, 0xbe, 0xf6, 0x96, 0xa0, 0xbe,
  0x2b, 0xb5, 0x05, 0x3d, 0x87, 0x1f, 0xb9, 0x3e, 0xbc, 0xe1, 0x92, 0x3e,
  0x5a, 0xea, 0x8a, 0x3e, 0xdd, 0xd2, 0xf9, 0x3e, 0xb0, 0xbe, 0xe1, 0xbd,
  0x93, 0x8b, 0x95, 0x3e, 0xcc, 0x99, 0x7a, 0xbe, 0x16, 0x7f, 0x0e, 0x3f,
  0x02, 0x26, 0x97, 0x3e, 0x66, 0x96, 0x57, 0x3d, 0x65, 0x85, 0x9b, 0x3d,
  0x28, 0x95, 0xc2, 0x3e, 0xa8, 0x01, 0x3e, 0xbe, 0x98, 0x10, 0x14, 0xbe,
  0x52, 0xf0, 0x81, 0xbe, 0x9b, 0x66, 0x6f, 0xbd, 0xd8, 0xf4, 0x94, 0x3d,
  0xca, 0x31, 0xb3, 0xbe, 0x4f, 0x35, 0x76, 0x3e, 0xa3, 0x4c, 0x96, 0xbd,
  0xd4, 0x44, 0xf0, 0xbd, 0x18, 0xf8, 0x15, 0x3f, 0xc8, 0xb5, 0x44, 0xbe,
  0xc2, 0x2f, 0xaa, 0x3d, 0xd6, 0x31, 0xc3, 0xbe, 0x16, 0x87, 0x26, 0xbf,
  0x4f, 0xc0, 0x93, 0xbe, 0x06, 0x46, 0x98, 0xbd, 0x81, 0xd3, 0xcc, 0x3e,
  0x09, 0x55, 0x26, 0x3f, 0x2d, 0x85, 0x2f, 0x3e, 0x12, 0x7a, 0x45, 0xbd,
  0x42, 0x0e, 0x19, 0x3f, 0x7f, 0xcb, 0xce, 0xbe, 0x83, 0x24, 0x63, 0x3e,
  0xe8, 0xbb, 0x2c, 0x3e, 0x23, 0x3c, 0xe5, 0x3c, 0x9d, 0xe7, 0x23, 0x3d,
  0xc7, 0x85, 0x02, 0x3f, 0x44, 0xc6, 0x3b, 0xbf, 0xc1, 0x07, 0xa6, 0x3e,
  0x2e, 0xf6, 0x89, 0xbe, 0xa1, 0x27, 0xff, 0xbe, 0x88, 0xd3, 0x43, 0xbe,
  0xd8, 0xa3, 0x6a, 0x3e, 0xd5, 0x49, 0x15, 0x3e, 0x59, 0xec, 0xe6, 0x3c,
  0x6d, 0x25, 0xc6, 0xbe, 0xeb, 0x5f, 0xde, 0xbe, 0x8f, 0x0d, 0x4e, 0x3e,
  0x92, 0x86, 0x3b, 0xbe, 0x9b, 0x80, 0xb2, 0xbd, 0x17, 0x5a, 0x02, 0x3f,
  0x94, 0xb5, 0x73, 0x3e, 0xed, 0x20, 0xe9, 0x3d, 0xa2, 0xf5, 0xe8, 0x3d,
  0xbd, 0xc2, 0x86, 0x3e, 0xfd, 0x2b, 0xc5, 0xbd, 0x8e, 0x97, 0xf1, 0xbd,
  0xbb, 0xc2, 0x27, 0xbe, 0x96, 0x7e, 0x62, 0x3e, 0x0e, 0xbb, 0xd2, 0xbe,
  0x6f, 0x29, 0xa9, 0x3e, 0xae, 0x90, 0x37, 0x3f, 0x50, 0x7a, 0x17, 0xbe,
  0x08, 0x53, 0x94, 0x3e, 0xcb, 0x76, 0x6d, 0x3e, 0xe6, 0x6e, 0x1b, 0x3e,
  0xb9, 0xb3, 0x60, 0xbe, 0x83, 0xa3, 0x22, 0xbe, 0x97, 0xc1, 0x95, 0xbe,
  0xd0, 0xbb, 0x05, 0xbf, 0xf6, 0x73, 0x22, 0x3d, 0x4c, 0xc8, 0x46, 0xbd,
  0xd6, 0x23, 0x7f, 0x3e, 0xdf, 0x81, 0x63, 0xbc, 0x07, 0xfa, 0x3a, 0x3e,
  0xeb, 0xbd, 0x58, 0x3d, 0xd5, 0x6a, 0x8b, 0xbe, 0x83, 0x3f, 0x47, 0x3c,
  0xed, 0x59, 0xe1, 0x3d, 0x58, 0xf4, 0xab, 0x3e, 0x32, 0x14, 0x66, 0x3e,
  0xc3, 0x61, 0x1b, 0xbd, 0xb1, 0x41, 0xd8, 0x3d, 0x10, 0x7f, 0x00, 0xbf,
  0xed, 0xb4, 0xa8, 0xbe, 0x02, 0x81, 0x28, 0x3e, 0x4a, 0xb8, 0x63, 0x3e,
  0x5b, 0x64, 0xa7, 0x3e, 0xda, 0x0b, 0x12, 0xbe, 0xa9, 0x46, 0x85, 0x3e,
  0xf6, 0xe4, 0x04, 0x3f, 0x2b, 0x46, 0xb1, 0xbd, 0xd0, 0xb0, 0xed, 0xbe,
  0x6d, 0x91, 0x35, 0x3f, 0x43, 0x5e, 0xa8, 0x3d, 0x90, 0xd8, 0x43, 0xbe,
  0x32, 0x03, 0x80, 0xbe, 0xc2, 0xc7, 0xc8, 0x3e, 0xe7, 0xfb, 0x2d, 0xbe,
  0x05, 0x66, 0xac, 0x3e, 0xd8, 0x89, 0x93, 0xbe, 0x5c, 0x93, 0x4a, 0x3e,
  0x45, 0x8b, 0xe9, 0xbe, 0xa4, 0xc5, 0xf9, 0x3d, 0x7d, 0xc0, 0xa7, 0xbd,
  0x58, 0x1c, 0x4c, 0x3e, 0x8c, 0xc8, 0x3c, 0xbe, 0xaf, 0x20, 0x98, 0xbe,
  0xdb, 0x2f, 0x8b, 0xbe, 0x4d, 0x94, 0x35, 0x3f, 0xd1, 0xec, 0x6a, 0x3e,
  0x4f, 0xe5, 0x51, 0x3d, 0xf0, 0x50, 0x8c, 0x3e, 0xc4, 0xb8, 0x1c, 0x3f,
  0x1d, 0xb3, 0xed, 0xbd, 0x5e, 0xf4, 0xff, 0xff, 0x04, 0x00, 0x00, 0x00,
  0x00, 0x0b, 0x00, 0x00, 0xf3, 0x7e, 0xda, 0xbd, 0x6f, 0x41, 0xa6, 0xbe,
  0xca, 0x1e, 0xc8, 0xbd, 0x27, 0xf5, 0x91, 0x3d, 0x54, 0xfd, 0x14, 0x3f,
  0x76, 0x45, 0xa5, 0xbf, 0x9f, 0xf2, 0x16, 0xbe, 0xcf, 0x35, 0xd7, 0xbe,
  0xc3, 0xa5, 0xa2, 0x3e, 0x6f, 0xe4, 0x90, 0x3d, 0x6c, 0x33, 0x06, 0xbf,
  0x90, 0x31, 0xc1, 0xbf, 0x22, 0x27, 0x03, 0x3f, 0x3c, 0x58, 0x1d, 0x3f,
  0x65, 0x4f, 0x12, 0xbf, 0x28, 0x29, 0x5e, 0xbf, 0xac, 0xbd, 0xcc, 0x3e,
  0x5b, 0xad, 0x5d, 0xbf, 0x48, 0xac, 0xb7, 0x3e, 0xee, 0x19, 0xb9, 0x3e,
  0x1d, 0xa2, 0x00, 0xbf, 0x5f, 0x47, 0xa3, 0x3e, 0x1c, 0xd8, 0xeb, 0xbe,
  0xc9, 0x75, 0x33, 0x3c, 0x1d, 0x58, 0x5f, 0x3e, 0x68, 0xb6, 0x8d, 0xbe,
  0x0d, 0x16, 0x07, 0x3f, 0xa0, 0x0c, 0x33, 0xbf, 0x91, 0x3e, 0x16, 0x3e,
  0xb6, 0x27, 0xf9, 0xbc, 0xee, 0x6a, 0x50, 0xbf, 0x1a, 0x85, 0x14, 0xbe,
  0xd2, 0x37, 0x75, 0xbe, 0x34, 0x90, 0x78, 0x3e, 0x78, 0xac, 0x01, 0x3f,
  0xc7, 0x0c, 0x8a, 0x3d, 0x9c, 0x81, 0x2b, 0xbf, 0x79, 0xee, 0x07, 0x3f,
  0x73, 0xd3, 0xc7, 0x3e, 0x0f, 0x55, 0xda, 0x3d, 0xe2, 0x30, 0x1e, 0x3d,
  0xcb, 0x0b, 0x81, 0xbf, 0x50, 0xc4, 0x6b, 0xbe, 0x7e, 0x2e, 0xfd, 0xbd,
  0xba, 0x10, 0xb0, 0x3e, 0xca, 0x5b, 0x8c, 0xbf, 0xee, 0x9e, 0xbb, 0x3e,
  0x0c, 0x18, 0x32, 0x3f, 0x4b, 0xfd, 0xa9, 0xbd, 0x7f, 0xf3, 0x84, 0xbd,
  0x9f, 0x6c, 0x94, 0x3d, 0xdf, 0xad, 0xd4, 0x39, 0x91, 0xbc, 0x95, 0x3e,
  0xcf, 0xb4, 0xb9, 0x3e, 0xb9, 0x4d, 0xc9, 0xbe, 0x46, 0x51, 0x3f, 0x3d,
  0x95, 0x2a, 0x73, 0xbe, 0x21, 0xcf, 0x80, 0xbf, 0x5f, 0x47, 0x55, 0xbe,
  0x2c, 0xa0, 0x46, 0xbf, 0xc5, 0xe1, 0x9b, 0xbe, 0x01, 0x19, 0x27, 0xbe,
  0x4e, 0xdd, 0x52, 0xbf, 0x93, 0x21, 0xc7, 0x3e, 0xd3, 0x93, 0x83, 0x3e,
  0x5d, 0xda, 0x41, 0xbf, 0xe1, 0x1f, 0xa8, 0x3e, 0xf9, 0x52, 0xe5, 0x3e,
  0xeb, 0xbd, 0xf7, 0xbe, 0xe0, 0x98, 0xdf, 0x3e, 0x07, 0x8f, 0xca, 0x3e,
  0x4d, 0x7a, 0x6d, 0xbe, 0x42, 0x84, 0x0e, 0xbf, 0x93, 0xdb, 0x77, 0x3d,
  0xc9, 0xbb, 0x88, 0x3e, 0xce, 0x82, 0xcf, 0xbe, 0x95, 0xf6, 0x19, 0xbf,
  0xc8, 0xc9, 0x84, 0x3e, 0x45, 0x3f, 0x9f, 0xbd, 0xb3, 0x1f, 0x3d, 0xbf,
  0xcc, 0x48, 0x7a, 0x3e, 0x81, 0x94, 0xbf, 0x3e, 0xc4, 0x5e, 0x9e, 0xbe,
  0x2e, 0x30, 0x08, 0xbf, 0x70, 0x2b, 0x51, 0xbf, 0x97, 0xcd, 0x13, 0xbf,
  0x87, 0xfa, 0xc9, 0xbd, 0x5a, 0x8d, 0x8f, 0xbe, 0x08, 0x39, 0x11, 0xbf,
  0x30, 0x1d, 0xce, 0xbe, 0xfd, 0x25, 0xbd, 0x3e, 0x43, 0xcb, 0x12, 0xbf,
  0xaf, 0xe6, 0xb2, 0x3e, 0xfb, 0xc4, 0x8e, 0x3e, 0x7c, 0x91, 0x68, 0xbe,
  0x3d, 0x34, 0x98, 0x3e, 0x12, 0xf6, 0x19, 0x3e, 0x82, 0x05, 0xf7, 0xbe,
  0xae, 0x26, 0x09, 0x3f, 0x95, 0x0f, 0xdc, 0x3e, 0x53, 0x2b, 0x86, 0x3e,
  0x22, 0xa0, 0xe3, 0x3e, 0x4d, 0xdb, 0x27, 0xbe, 0xbf, 0x32, 0x09, 0xbe,
  0x2a, 0x2f, 0x26, 0x3d, 0x23, 0x48, 0xae, 0xbd, 0x03, 0x77, 0x5e, 0xbf,
  0x6a, 0x0f, 0x65, 0xbd, 0x80, 0xff, 0xb3, 0xbe, 0xc3, 0xf2, 0xe7, 0x3e,
  0x8a, 0x4c, 0x45, 0xbf, 0x3c, 0x7b, 0xd1, 0xbe, 0xe9, 0x1f, 0x07, 0xbc,
  0xd7, 0xcc, 0xf2, 0x3e, 0xfc, 0xa5, 0xb1, 0x3e, 0xd8, 0x23, 0xdd, 0x3c,
  0xd5, 0x86, 0x1e, 0xbf, 0xf3, 0x05, 0x1d, 0x3d, 0xe7, 0x20, 0xd1, 0xbe,
  0xc4, 0x37, 0xc9, 0xbe, 0x18, 0x9f, 0x0b, 0xbe, 0x90, 0x54, 0x47, 0xbf,
  0x2f, 0x6f, 0x47, 0xbf, 0x5d, 0xea, 0xa6, 0xbd, 0x71, 0x5c, 0x2b, 0x3e,
  0xc6, 0xd3, 0x70, 0xbd, 0x2c, 0xec, 0xa6, 0xbd, 0x9c, 0x87, 0xde, 0x3e,
  0x1f, 0x58, 0xfd, 0xbe, 0xb2, 0x73, 0x22, 0x3d, 0xb2, 0x29, 0xa9, 0xbe,
  0x18, 0xb1, 0xe1, 0x3e, 0x5a, 0x88, 0x24, 0x3f, 0xe9, 0x84, 0xe9, 0x3c,
  0x98, 0xef, 0x73, 0x3c, 0x70, 0xf8, 0xd4, 0xbe, 0x81, 0xd0, 0xa0, 0x3e,
  0x42, 0xe3, 0x7f, 0xbf, 0xca, 0xa0, 0xb5, 0x3e, 0x30, 0x41, 0xd1, 0x3e,
  0xd4, 0x69, 0xc7, 0xbe, 0x2a, 0xb2, 0x80, 0x3d, 0xaa, 0xf5, 0x2a, 0xbf,
  0xf0, 0xa0, 0xf0, 0x3e, 0x7c, 0xeb, 0xb1, 0x3e, 0x6d, 0x29, 0x4f, 0xbe,
  0x8a, 0xa0, 0xe7, 0xbe, 0x6d, 0x86, 0x12, 0xbf, 0x2d, 0x03, 0xc5, 0x3d,
  0xe4, 0x86, 0x0b, 0x3e, 0x4d, 0x1c, 0x12, 0x3e, 0x24, 0x12, 0x3c, 0xbf,
  0x72, 0x44, 0x05, 0x3f, 0x0b, 0xe8, 0x1d, 0xbe, 0x0b, 0x4d, 0xb4, 0xbe,
  0x4f, 0x85, 0x18, 0xbf, 0x73, 0x72, 0x2b, 0xbf, 0x07, 0x8d, 0x29, 0x3e,
  0xdf, 0x18, 0x78, 0xbf, 0x73, 0x77, 0x94, 0xbe, 0xa7, 0x08, 0xa3, 0xbe,
  0x05, 0xc4, 0x7f, 0xbd, 0x3f, 0x8d, 0x16, 0x3f, 0xc8, 0x4d, 0x03, 0x3d,
  0xcf, 0xb8, 0x29, 0x3e, 0x03, 0x07, 0xe6, 0xbd, 0x01, 0x96, 0xa1, 0x3e,
  0x7b, 0x5d, 0x04, 0x3f, 0xe9, 0x71, 0x1a, 0xbf, 0x29, 0xa5, 0xa1, 0x3d,
  0x3e, 0x92, 0x37, 0x3f, 0x90, 0x83, 0xe3, 0x3d, 0x77, 0x2a, 0xea, 0xbe,
  0x9c, 0x93, 0x9e, 0x3e, 0x64, 0x9d, 0xb2, 0x3e, 0x45, 0xc8, 0xa8, 0x3e,
  0xf5, 0x06, 0x3f, 0xbe, 0xe2, 0x37, 0x8d, 0xbd, 0xc1, 0x05, 0xea, 0x3e,
  0x73, 0xb6, 0x2a, 0xbf, 0x52, 0xfc, 0xa8, 0xbc, 0x62, 0x88, 0x49, 0xbf,
  0xa5, 0xb1, 0x3c, 0xbf, 0xe7, 0xa2, 0x84, 0xbd, 0x31, 0x8c, 0xde, 0xbb,
  0xf8, 0x94, 0x9b, 0xbd, 0xda, 0x0a, 0x1f, 0x3f, 0x17, 0x96, 0x5e, 0x3d,
  0x4f, 0x9c, 0xa4, 0x3e, 0x3d, 0x82, 0x41, 0xbd, 0x49, 0x1e, 0x57, 0xbf,
  0x8d, 0x85, 0x20, 0x3e, 0x57, 0xa4, 0x2f, 0xbf, 0xa0, 0x29, 0x16, 0x3e,
  0xee, 0x05, 0x0b, 0xbf, 0x69, 0xdf, 0x8b, 0xbe, 0xce, 0x5c, 0x61, 0xbf,
  0x8f, 0x11, 0xc0, 0xbe, 0x05, 0xb1, 0x83, 0xbd, 0x91, 0xbe, 0x83, 0x3e,
  0xc5, 0xa0, 0x3f, 0xbf, 0x76, 0x84, 0xfc, 0x3e, 0x49, 0xd4, 0xa6, 0xbe,
  0x11, 0x1c, 0x8f, 0x3e, 0x20, 0xb6, 0xc8, 0xbe, 0xcc, 0xa5, 0x2b, 0xbf,
  0x13, 0x00, 0x65, 0x3d, 0xc8, 0x5b, 0xd9, 0x3e, 0x8f, 0x4b, 0xa8, 0xbd,
  0xe8, 0xe5, 0x88, 0xbf, 0x38, 0x9c, 0xcd, 0x3d, 0x79, 0x9a, 0x03, 0xbf,
  0xba, 0xe1, 0xf9, 0x3e, 0x02, 0xbe, 0xcf, 0x3e, 0x26, 0x53, 0xda, 0xbe,
  0xc2, 0x85, 0x3f, 0xbf, 0xa8, 0xab, 0xc4, 0x3d, 0x5c, 0xed, 0xde, 0x3e,
  0x58, 0xd2, 0x11, 0x3d, 0x65, 0x38, 0x23, 0xbe, 0xd5, 0xa1, 0x28, 0xbf,
  0x58, 0x8c, 0x84, 0xbe, 0x15, 0xfc, 0x2c, 0x3e, 0x84, 0x01, 0xb3, 0xbe,
  0x84, 0x20, 0x16, 0xbd, 0xa2, 0xfc, 0xec, 0x3e, 0x6b, 0xc8, 0x39, 0xbe,
  0xbb, 0x59, 0x2e, 0xbe, 0x4f, 0x47, 0x25, 0x3d, 0x31, 0x32, 0xf0, 0xbd,
  0xf1, 0xd8, 0x0a, 0x3f, 0x5b, 0x2c, 0x19, 0xbf, 0x9a, 0xe7, 0x40, 0xbe,
  0x2a, 0xeb, 0x81, 0x3e, 0xf6, 0x53, 0x25, 0xbf, 0xb0, 0xa2, 0xe0, 0xbd,
  0x2b, 0x39, 0xef, 0xbd, 0xa1, 0xab, 0x96, 0xbe, 0x39, 0x1b, 0x93, 0xbe,
  0x75, 0x04, 0x96, 0x3e, 0xf7, 0xb2, 0x8c, 0x3e, 0x2c, 0x3f, 0xf1, 0xbe,
  0x99, 0x18, 0x6c, 0xbf, 0x5e, 0x40, 0x6f, 0xbf, 0xe6, 0xd7, 0x6a, 0xbc,
  0x5b, 0x85, 0x8d, 0xbe, 0x5f, 0x89, 0xb7, 0x3e, 0x81, 0x13, 0x0b, 0xbf,
  0x6b, 0x65, 0xcb, 0x3e, 0x7a, 0xe8, 0x00, 0xbe, 0x0f, 0x32, 0xaf, 0xbe,
  0x9b, 0x66, 0x78, 0xbf, 0x44, 0x8f, 0x4c, 0xbf, 0xd3, 0x83, 0x0a, 0x3f,
  0x9d, 0xf5, 0x3e, 0xbf, 0x2a, 0x83, 0x80, 0x3e, 0xd2, 0x0e, 0x55, 0xbd,
  0xdd, 0x3b, 0x0c, 0x3f, 0x49, 0xf5, 0xda, 0xbe, 0xb5, 0x98, 0x30, 0x3d,
  0xf9, 0x20, 0x0d, 0xbe, 0x60, 0x4a, 0xda, 0x3e, 0x8c, 0x90, 0x86, 0xbe,
  0x39, 0x77, 0xc4, 0x3e, 0xbb, 0x09, 0xad, 0xbe, 0xf8, 0x53, 0xe2, 0x3e,
  0x2a, 0x4c, 0xdf, 0x3d, 0x8a, 0x39, 0xfb, 0xbd, 0x7c, 0xc0, 0x72, 0xbf,
  0x22, 0x45, 0xd6, 0xbe, 0x68, 0x43, 0xae, 0x3e, 0xc7, 0x63, 0x17, 0xbf,
  0x2b, 0xda, 0x1e, 0x3e, 0xdb, 0x3a, 0xad, 0xbe, 0x2e, 0x16, 0xfe, 0xbc,
  0x4c, 0x37, 0xb6, 0xbe, 0xd5, 0x44, 0xe0, 0x3e, 0xb2, 0x6f, 0x13, 0x3c,
  0x7a, 0x5c, 0x06, 0xbf, 0x50, 0x2d, 0xde, 0xbd, 0xa7, 0x3f, 0xc3, 0x3e,
  0x74, 0x3c, 0xd3, 0xbd, 0xf0, 0xbe, 0xd4, 0xbc, 0xe7, 0xb9, 0xd9, 0xbe,
  0x7b, 0x02, 0xa9, 0x3e, 0x7f, 0x32, 0x3f, 0xbf, 0xd1, 0xc0, 0xe6, 0xbe,
  0x49, 0x33, 0xd4, 0x3e, 0x14, 0xdc, 0x1b, 0xbf, 0x3a, 0x35, 0x40, 0xbf,
  0x4e, 0x0f, 0x03, 0xbf, 0x4c, 0x6e, 0x54, 0xbf, 0x1d, 0xe2, 0x2d, 0xbf,
  0x50, 0x1a, 0x0f, 0x3f, 0x70, 0x3e, 0x19, 0xbf, 0x71, 0x6d, 0x5d, 0x3e,
  0x26, 0x07, 0xe8, 0xbe, 0x2a, 0x1a, 0x7a, 0x3e, 0xf1, 0x22, 0x36, 0x3e,
  0x49, 0xcd, 0x21, 0x3e, 0x49, 0xe5, 0x2a, 0xbf, 0x87, 0x7a, 0xb1, 0xbb,
  0x77, 0x76, 0x9d, 0x3e, 0x34, 0xe0, 0xf2, 0x3e, 0x0b, 0x55, 0x86, 0xbe,
  0xcd, 0x97, 0xb4, 0xbe, 0x3b, 0x4b, 0x94, 0xbd, 0xb4, 0x6d, 0x78, 0x3d,
  0x49, 0x58, 0xd1, 0xbd, 0xa0, 0xa4, 0x09, 0x3f, 0x69, 0xc8, 0x36, 0xbf,
  0xbf, 0x48, 0x93, 0x3e, 0x81, 0xe0, 0x3e, 0xbf, 0xb6, 0x35, 0x0a, 0x3f,
  0xe6, 0xc0, 0xb5, 0x3e, 0xe8, 0xad, 0x00, 0xbf, 0xd2, 0xde, 0xea, 0x3e,
  0x9b, 0xee, 0x5f, 0x3e, 0x7a, 0xf0, 0x82, 0x3e, 0x33, 0x9f, 0xe9, 0xbe,
  0x6c, 0xbd, 0xff, 0x3e, 0x52, 0x9a, 0x9c, 0xbe, 0xc9, 0x50, 0x9c, 0xbe,
  0x14, 0x01, 0xdc, 0xbe, 0xf1, 0xfa, 0xcd, 0xbe, 0x4b, 0x60, 0x36, 0xbe,
  0x4f, 0xe1, 0xec, 0x3d, 0x4a, 0x75, 0x82, 0x3e, 0xb4, 0x74, 0x7f, 0xbe,
  0x85, 0xfb, 0x22, 0xbf, 0x69, 0xf4, 0x44, 0x3e, 0x17, 0x93, 0x41, 0x3e,
  0xbb, 0x43, 0xb8, 0x3e, 0x00, 0xb2, 0x17, 0xbf, 0x1b, 0x56, 0x5c, 0x3e,
  0xf9, 0x11, 0xb0, 0xbe, 0x29, 0x43, 0xbb, 0x3e, 0x98, 0x0d, 0xde, 0x3e,
  0x4b, 0xc9, 0x8d, 0xbe, 0xd2, 0xbe, 0x0a, 0xbf, 0xae, 0x07, 0x7e, 0xbe,
  0xe3, 0xd6, 0x31, 0xbf, 0xc0, 0xe7, 0x1d, 0x3f, 0x00, 0xb8, 0x95, 0xbe,
  0x9c, 0x59, 0xf9, 0x3d, 0x08, 0x97, 0x21, 0xbf, 0xd0, 0x76, 0xb3, 0xbe,
  0x42, 0x61, 0xfe, 0x3e, 0x76, 0xad, 0x01, 0x3f, 0xfb, 0x14, 0xba, 0x3e,
  0xfe, 0x92, 0x44, 0xbf, 0x5c, 0xb9, 0xa3, 0x3d, 0x33, 0xbf, 0x66, 0xbf,
  0x9c, 0xf4, 0x65, 0xbf, 0xd7, 0x8f, 0xd9, 0x3e, 0x7b, 0xdf, 0x37, 0x3e,
  0x0d, 0x9b, 0x53, 0x3e, 0x91, 0x86, 0x4b, 0xbd, 0x5a, 0xdc, 0x0a, 0xbd,
  0xe3, 0xf5, 0xd0, 0xbe, 0x9a, 0xcb, 0x2b, 0xbf, 0x29, 0xc2, 0x32, 0xbe,
  0xdf, 0x20, 0x9b, 0x3e, 0xd1, 0x2f, 0x50, 0x3e, 0xda, 0xad, 0x82, 0xbe,
  0x1a, 0xab, 0xc5, 0x3e, 0xfb, 0x71, 0x86, 0xbe, 0x79, 0x1e, 0x12, 0x3f,
  0xfc, 0x53, 0x97, 0xbe, 0xf7, 0xf1, 0xba, 0xbd, 0xed, 0x6e, 0x2e, 0x3f,
  0x46, 0x68, 0xeb, 0x3e, 0xe9, 0x2f, 0x6e, 0xbf, 0x8a, 0x65, 0x21, 0xbf,
  0xaf, 0x8a, 0x37, 0xbf, 0x84, 0x20, 0xd3, 0xbe, 0xe7, 0x39, 0x5f, 0x3e,
  0xa3, 0xe5, 0xa6, 0x3e, 0xd0, 0x29, 0x9e, 0xbd, 0x98, 0xf9, 0x24, 0xbf,
  0xa9, 0x1d, 0xcc, 0xbe, 0x31, 0x18, 0xc8, 0x3b, 0xc5, 0x12, 0x09, 0xbf,
  0x97, 0x73, 0xa3, 0x3e, 0x39, 0xb0, 0x21, 0x3e, 0xc0, 0xcb, 0xb7, 0xbe,
  0x2f, 0x88, 0x10, 0xbf, 0x2e, 0x69, 0x16, 0xbe, 0x06, 0x74, 0x84, 0x3e,
  0xed, 0x4e, 0xea, 0x3e, 0xa4, 0xb4, 0x09, 0xbf, 0x73, 0x0c, 0x12, 0xbf,
  0xa0, 0xd1, 0xb0, 0x3d, 0x64, 0x1f, 0xe3, 0x3e, 0xd2, 0x66, 0xb5, 0x3a,
  0x03, 0x00, 0xbf, 0x3e, 0xbe, 0xef, 0x86, 0xbd, 0x3c, 0x14, 0xbf, 0xbe,
  0xa4, 0x4c, 0xa7, 0x3e, 0x41, 0xd4, 0x3e, 0xbf, 0x90, 0x81, 0xae, 0x3e,
  0xc9, 0xa4, 0xd7, 0x3e, 0x11, 0x54, 0xf5, 0x3e, 0x86, 0xfe, 0x7d, 0xbe,
  0xc3, 0xe4, 0x46, 0xbf, 0xbb, 0x12, 0xa9, 0x3e, 0x36, 0xa2, 0x22, 0xbe,
  0x76, 0x68, 0x9f, 0xbe, 0xb2, 0xfe, 0x9d, 0xbd, 0xa0, 0x34, 0x9e, 0x3d,
  0xf9, 0xa1, 0x4f, 0x3e, 0x3c, 0x73, 0x67, 0xbd, 0x98, 0x34, 0x0c, 0x3e,
  0xdd, 0x0c, 0x1c, 0xbf, 0x07, 0x5a, 0xf7, 0xbd, 0x3b, 0xea, 0xb0, 0x3e,
  0xca, 0xd2, 0xfe, 0xbe, 0xdf, 0x86, 0xe3, 0xbe, 0xf3, 0xbf, 0x09, 0x3e,
  0x72, 0x50, 0xb7, 0x3c, 0x3e, 0x36, 0x78, 0xbe, 0x77, 0x4e, 0x0b, 0x3f,
  0xd3, 0x9c, 0xe7, 0xbe, 0xcc, 0x3f, 0x63, 0xbd, 0xfe, 0xba, 0xe5, 0xbe,
  0xf7, 0x49, 0xfd, 0x3b, 0x28, 0x84, 0x92, 0x3d, 0x69, 0xd9, 0x93, 0x3e,
  0x21, 0x51, 0x7b, 0x3e, 0x1d, 0xd8, 0x2f, 0xbf, 0x8e, 0x7e, 0xfb, 0x3e,
  0xde, 0xe9, 0xfa, 0xbe, 0x0c, 0x05, 0x42, 0x3e, 0x46, 0x61, 0x09, 0x3f,
  0x4e, 0x76, 0x12, 0xbf, 0xfe, 0x76, 0xeb, 0x3e, 0x78, 0x36, 0x15, 0xbf,
  0x30, 0xce, 0xea, 0x3d, 0x39, 0x5c, 0x18, 0xbd, 0xc8, 0x03, 0x93, 0x3e,
  0xdd, 0x64, 0x85, 0xbe, 0x01, 0x09, 0x4b, 0xbe, 0xc5, 0x37, 0xd9, 0x3e,
  0x18, 0x29, 0x67, 0x3d, 0x8c, 0xa4, 0x7c, 0x3d, 0x70, 0x74, 0x0c, 0x3e,
  0x87, 0x05, 0x6a, 0x3e, 0x36, 0x4c, 0x31, 0xbe, 0xa3, 0x56, 0xc0, 0x3d,
  0xfb, 0xae, 0x05, 0x3f, 0x6a, 0xc2, 0xa6, 0x3e, 0x82, 0x0f, 0xf8, 0xbe,
  0x0f, 0xeb, 0x54, 0xbe, 0x6e, 0xc0, 0x99, 0xbf, 0x35, 0xf7, 0x8d, 0xbf,
  0x6f, 0xd9, 0x0c, 0x3f, 0x84, 0x3f, 0x8a, 0xbf, 0x1e, 0xfa, 0x84, 0x3e,
  0x32, 0xb5, 0x85, 0x3e, 0x71, 0x11, 0x15, 0x3d, 0xcc, 0x35, 0xb5, 0x3d,
  0x40, 0x82, 0xd8, 0xbe, 0x22, 0xd4, 0x83, 0x3d, 0xce, 0x78, 0x03, 0xbe,
  0x7d, 0x79, 0x4b, 0xbf, 0x86, 0xeb, 0xa6, 0xbe, 0x75, 0xc3, 0xae, 0xbd,
  0x24, 0x1b, 0x1f, 0x3d, 0x39, 0xab, 0x6d, 0xbf, 0x0d, 0xdf, 0xeb, 0xbe,
  0x55, 0xe8, 0xd8, 0x3e, 0xe7, 0x5f, 0xab, 0xbf, 0xf2, 0xc5, 0xc9, 0xbc,
  0x72, 0xbc, 0x7c, 0xbe, 0x90, 0xae, 0x08, 0xbf, 0xc3, 0x0b, 0x8d, 0x3e,
  0xbe, 0x5e, 0xf0, 0xbe, 0x58, 0xaa, 0x49, 0x3e, 0x92, 0x6d, 0x80, 0x3e,
  0x98, 0x2b, 0x81, 0xbf, 0xbe, 0xb3, 0x4d, 0x3e, 0xfc, 0x46, 0x16, 0xbf,
  0xc7, 0xaf, 0x0b, 0xbe, 0xe8, 0xd3, 0x53, 0xbf, 0xe5, 0x17, 0x1d, 0x3c,
  0xc6, 0xd3, 0x48, 0xbd, 0xa7, 0x08, 0x73, 0xbf, 0xe1, 0x12, 0xd5, 0xbe,
  0xc9, 0x07, 0xb1, 0x3d, 0xd6, 0x10, 0x76, 0xbe, 0x32, 0x4c, 0x39, 0xbd,
  0x0a, 0x8a, 0xe4, 0xbd, 0xcf, 0x8b, 0xe8, 0xbe, 0xb6, 0xa5, 0x1e, 0x3f,
  0x6f, 0x77, 0x78, 0xbe, 0xa8, 0xe0, 0xd5, 0xbe, 0x1a, 0x48, 0xe5, 0x3d,
  0x3c, 0x15, 0x64, 0x3e, 0x03, 0x5f, 0x50, 0xbf, 0x4c, 0x88, 0xa1, 0xbe,
  0x63, 0xca, 0x10, 0xbf, 0x20, 0x8a, 0x39, 0xbf, 0x28, 0xdf, 0x0a, 0x3f,
  0xae, 0x00, 0x85, 0x3e, 0xbf, 0xc4, 0xa2, 0xbe, 0x5f, 0xda, 0xc6, 0x3e,
  0x22, 0x5e, 0x20, 0x3e, 0xd3, 0xb4, 0x19, 0xbf, 0xad, 0xef, 0xc0, 0x3e,
  0xee, 0x31, 0xb1, 0xbc, 0x9b, 0x8a, 0x31, 0x3e, 0x26, 0xfe, 0x54, 0xbf,
  0xc8, 0xfa, 0x1a, 0xbe, 0x13, 0x65, 0x9d, 0x3e, 0x7e, 0x2b, 0xf4, 0x3d,
  0x66, 0x88, 0xe2, 0x3e, 0xc0, 0x3e, 0x67, 0xbe, 0xff, 0x49, 0xa8, 0xbd,
  0xf5, 0xf2, 0x1b, 0x3d, 0xc9, 0x3f, 0xd5, 0xbd, 0xb3, 0x62, 0xa6, 0x3d,
  0x8c, 0xf4, 0x39, 0xbf, 0x70, 0xad, 0xcb, 0x3d, 0x61, 0x18, 0x95, 0xbe,
  0xb4, 0x61, 0x00, 0xbf, 0x3a, 0x88, 0x54, 0xbf, 0x14, 0x49, 0x7d, 0xbe,
  0xc2, 0x32, 0xc4, 0x3e, 0xe2, 0xb9, 0x32, 0xbf, 0xad, 0x11, 0x05, 0xbd,
  0xfb, 0x1c, 0xa3, 0xbd, 0x07, 0xbc, 0x5e, 0xbe, 0x35, 0x94, 0x01, 0x3f,
  0x9f, 0xca, 0x29, 0x3e, 0x70, 0xc4, 0x6b, 0xbf, 0x45, 0x63, 0x45, 0x3e,
  0x32, 0x05, 0xa8, 0x3e, 0x9e, 0x82, 0x69, 0x3e, 0x6a, 0x32, 0x8e, 0x3e,
  0x6c, 0x35, 0x75, 0xbe, 0x8b, 0x6c, 0x94, 0xbf, 0x75, 0xf2, 0x6c, 0x3e,
  0x79, 0x15, 0xb2, 0x3e, 0x70, 0x30, 0xf2, 0xbe, 0xf6, 0xf0, 0x05, 0xbf,
  0x3c, 0x41, 0xa9, 0x3e, 0x82, 0xc0, 0xf5, 0xbe, 0xba, 0xb6, 0xc2, 0xbf,
  0xcf, 0x8b, 0x4e, 0x3e, 0xc9, 0x89, 0xd5, 0xbe, 0xdf, 0xac, 0x0b, 0xbf,
  0x1a, 0x91, 0x9a, 0x3e, 0x6b, 0x11, 0xc1, 0x3e, 0x49, 0x26, 0x7a, 0x3e,
  0x60, 0xb7, 0x24, 0xbf, 0xb1, 0x62, 0xa3, 0x3d, 0xcd, 0xce, 0xb1, 0xbe,
  0x7c, 0x81, 0x1c, 0xbd, 0xec, 0xb5, 0xff, 0xbe, 0x7e, 0x7c, 0x83, 0xbd,
  0xa0, 0xa1, 0x31, 0x3f, 0x27, 0xc7, 0x08, 0xbf, 0xed, 0x4b, 0x25, 0xbf,
  0x2d, 0x16, 0x17, 0xbf, 0xa1, 0x9c, 0xf8, 0xbe, 0x3b, 0xb7, 0x95, 0xbe,
  0xf6, 0x98, 0x18, 0xbe, 0xde, 0x02, 0x9c, 0x3e, 0x5e, 0xd4, 0xad, 0xbd,
  0x4c, 0x6a, 0x00, 0x3f, 0x61, 0x32, 0x87, 0xbe, 0x19, 0x50, 0xd4, 0x3e,
  0xb9, 0x49, 0x76, 0x3e, 0xd6, 0xb3, 0xaf, 0x3e, 0xac, 0x58, 0x16, 0xbe,
  0xcf, 0x31, 0xaa, 0xbe, 0x16, 0xa7, 0xf2, 0xbd, 0x77, 0xd9, 0x5c, 0xbf,
  0x23, 0xf4, 0x20, 0xbf, 0xe1, 0x0e, 0x17, 0xbf, 0xcd, 0x07, 0x31, 0xbe,
  0x76, 0x81, 0x0c, 0xbf, 0x24, 0x25, 0x37, 0xbf, 0xe9, 0x99, 0x77, 0xbe,
  0xc8, 0x3f, 0xe4, 0xba, 0xa2, 0x83, 0x7a, 0xbf, 0xb1, 0x8b, 0x6b, 0x3e,
  0x2f, 0xe6, 0xb1, 0xbe, 0xd2, 0xf1, 0x51, 0xbf, 0xcd, 0x09, 0x4f, 0x3c,
  0x6d, 0xd1, 0x3b, 0xbf, 0x03, 0x1b, 0x04, 0x3f, 0xc1, 0x58, 0xa4, 0xbe,
  0x3c, 0xad, 0xa4, 0xbe, 0xbd, 0xed, 0xcf, 0x3e, 0x3b, 0x95, 0xd5, 0x3e,
  0xbb, 0xba, 0xfb, 0x3e, 0xe8, 0x6d, 0xdf, 0xbe, 0xf9, 0x99, 0x70, 0xbf,
  0xe3, 0x81, 0xd4, 0x3e, 0x34, 0x6d, 0xdf, 0x3e, 0xf6, 0x51, 0x79, 0xbd,
  0x64, 0x67, 0x15, 0xbf, 0xa2, 0x29, 0x7d, 0xbe, 0xbc, 0xd3, 0x03, 0x3f,
  0xf6, 0x0a, 0xe2, 0x3e, 0x6a, 0x14, 0x4e, 0xbe, 0x74, 0x23, 0x14, 0x3c,
  0xd0, 0x5a, 0xf3, 0x3e, 0x67, 0x52, 0x46, 0x3e, 0xe8, 0xc2, 0x2b, 0x3e,
  0x72, 0xb0, 0xc2, 0x3e, 0xd3, 0xf7, 0x7f, 0xbe, 0x66, 0x6f, 0x50, 0xbf,
  0x98, 0x6f, 0xb9, 0x3e, 0x65, 0x3a, 0xd8, 0xbe, 0xe0, 0xf0, 0x4c, 0xbe,
  0xda, 0xa8, 0x5d, 0xbf, 0x69, 0xa8, 0x14, 0xbe, 0x95, 0x69, 0x0d, 0xbf,
  0xbf, 0x47, 0x6d, 0x3e, 0xb2, 0x0e, 0xdc, 0xbe, 0x74, 0x41, 0xbf, 0x3e,
  0x7b, 0x90, 0x5a, 0xbf, 0x97, 0xb5, 0x51, 0xbf, 0xac, 0xdb, 0x07, 0xbf,
  0x24, 0x4f, 0xc2, 0xbe, 0x9b, 0x87, 0xcf, 0x3e, 0x8b, 0xde, 0x60, 0x3e,
  0x31, 0xd2, 0xcb, 0x3c, 0x6e, 0xea, 0x5b, 0x3e, 0x18, 0x18, 0x8c, 0x3e,
  0x68, 0xde, 0x9d, 0xbe, 0xd2, 0x5d, 0x71, 0xbe, 0x2a, 0x93, 0xa3, 0x3e,
  0x71, 0x9b, 0x83, 0x3e, 0x5a, 0xe6, 0x8d, 0xbf, 0x92, 0x27, 0x11, 0xbe,
  0xb4, 0xbd, 0x9b, 0xbe, 0x8f, 0xbd, 0x04, 0xbf, 0xa3, 0x46, 0x1b, 0xbf,
  0xe2, 0x8f, 0x0b, 0xbf, 0x5e, 0xc4, 0x44, 0xbf, 0x17, 0x30, 0x7b, 0x3d,
  0xeb, 0xce, 0x96, 0xbe, 0x7c, 0xb8, 0x05, 0x3c, 0x36, 0x01, 0xbb, 0x3e,
  0x1d, 0xaf, 0xc7, 0xbe, 0x58, 0x60, 0xef, 0x3e, 0x9f, 0x98, 0x11, 0xbd,
  0xe2, 0x08, 0xcf, 0x3e, 0x4f, 0xf8, 0x89, 0x3e, 0x40, 0x4f, 0xa5, 0x3e,
  0x04, 0x75, 0x01, 0xbf, 0xd5, 0xf8, 0xda, 0x3b, 0xab, 0x87, 0x28, 0x3c,
  0x3c, 0x4b, 0xc1, 0x3d, 0x90, 0xc5, 0x81, 0x3e, 0xee, 0x0c, 0x17, 0xbf,
  0x65, 0xca, 0x37, 0xbd, 0xe2, 0x41, 0x0a, 0xbf, 0x1b, 0xc1, 0x92, 0xbf,
  0x74, 0x12, 0x47, 0xbe, 0xf8, 0xc0, 0xfb, 0x3e, 0xaa, 0xf5, 0xcb, 0xbe,
  0xc5, 0xa9, 0x46, 0x3e, 0x95, 0x4e, 0xd2, 0xbe, 0x84, 0x95, 0x87, 0xbd,
  0xfb, 0x57, 0x93, 0xbd, 0x40, 0xcc, 0x84, 0x3e, 0x22, 0xdd, 0x31, 0xbf,
  0x75, 0xca, 0x1b, 0xbf, 0xda, 0xce, 0xc9, 0xbe, 0x36, 0x39, 0x03, 0xbf,
  0x33, 0x21, 0x72, 0xbd, 0x51, 0x8a, 0xc5, 0x3e, 0x3e, 0xb4, 0x3b, 0xbf,
  0xee, 0xb9, 0xf0, 0x3e, 0x9d, 0xd0, 0xaa, 0x3e, 0xcd, 0x30, 0xa1, 0xbe,
  0x18, 0xd5, 0xf7, 0x3e, 0x7c, 0x90, 0x36, 0xbe, 0x81, 0xed, 0x86, 0xbe,
  0x0c, 0x0d, 0x0c, 0x3f, 0xbb, 0x9f, 0xa5, 0x3c, 0x80, 0x99, 0xfa, 0xbe,
  0x27, 0x32, 0x6e, 0xbe, 0xa4, 0xb2, 0xdd, 0xbe, 0x3c, 0x91, 0x60, 0xbf,
  0x67, 0x1e, 0xef, 0xbd, 0x46, 0x8f, 0x1e, 0x3f, 0x2c, 0x4c, 0xfb, 0x3e,
  0x76, 0xb2, 0xad, 0xbf, 0x40, 0x3e, 0xb9, 0xbe, 0x61, 0xb5, 0xe0, 0xbe,
  0x30, 0x2d, 0x1d, 0x3c, 0x00, 0x32, 0x17, 0xbf, 0xfa, 0x49, 0xab, 0xbf,
  0x7f, 0xd5, 0xf0, 0x3e, 0xd0, 0xe5, 0x41, 0xbf, 0xf6, 0x71, 0x97, 0xbf,
  0xdf, 0x00, 0x67, 0x3e, 0x6a, 0x14, 0x2d, 0xbf, 0xf9, 0xee, 0x78, 0x3d,
  0x68, 0xfa, 0xff, 0xff, 0x6c, 0xfa, 0xff, 0xff, 0x0f, 0x00, 0x00, 0x00,
  0x4d, 0x4c, 0x49, 0x52, 0x20, 0x43, 0x6f, 0x6e, 0x76, 0x65, 0x72, 0x74,
  0x65, 0x64, 0x2e, 0x00, 0x01, 0x00, 0x00, 0x00, 0x14, 0x00, 0x00, 0x00,
  0x00, 0x00, 0x0e, 0x00, 0x18, 0x00, 0x14, 0x00, 0x10, 0x00, 0x0c, 0x00,
  0x08, 0x00, 0x04, 0x00, 0x0e, 0x00, 0x00, 0x00, 0x14, 0x00, 0x00, 0x00,
  0x1c, 0x00, 0x00, 0x00, 0x24, 0x01, 0x00, 0x00, 0x28, 0x01, 0x00, 0x00,
  0x2c, 0x01, 0x00, 0x00, 0x04, 0x00, 0x00, 0x00, 0x6d, 0x61, 0x69, 0x6e,
  0x00, 0x00, 0x00, 0x00, 0x04, 0x00, 0x00, 0x00, 0xcc, 0x00, 0x00, 0x00,
  0x84, 0x00, 0x00, 0x00, 0x50, 0x00, 0x00, 0x00, 0x14, 0x00, 0x00, 0x00,
  0x00, 0x00, 0x0e, 0x00, 0x1a, 0x00, 0x14, 0x00, 0x10, 0x00, 0x0c, 0x00,
  0x0b, 0x00, 0x04, 0x00, 0x0e, 0x00, 0x00, 0x00, 0x1c, 0x00, 0x00, 0x00,
  0x00, 0x00, 0x00, 0x09, 0x1c, 0x00, 0x00, 0x00, 0x20, 0x00, 0x00, 0x00,
  0x01, 0x00, 0x00, 0x00, 0x00, 0x00, 0x06, 0x00, 0x08, 0x00, 0x04, 0x00,
  0x06, 0x00, 0x00, 0x00, 0x00, 0x00, 0x80, 0x3f, 0x01, 0x00, 0x00, 0x00,
  0x0a, 0x00, 0x00, 0x00, 0x01, 0x00, 0x00, 0x00, 0x09, 0x00, 0x00, 0x00,
  0x9a, 0xff, 0xff, 0xff, 0x10, 0x00, 0x00, 0x00, 0x00, 0x00, 0x00, 0x08,
  0x0c, 0x00, 0x00, 0x00, 0x10, 0x00, 0x00, 0x00, 0x30, 0xfb, 0xff, 0xff,
  0x01, 0x00, 0x00, 0x00, 0x09, 0x00, 0x00, 0x00, 0x03, 0x00, 0x00, 0x00,
  0x08, 0x00, 0x00, 0x00, 0x01, 0x00, 0x00, 0x00, 0x03, 0x00, 0x00, 0x00,
  0xca, 0xff, 0xff, 0xff, 0x10, 0x00, 0x00, 0x00, 0x00, 0x00, 0x00, 0x08,
  0x10, 0x00, 0x00, 0x00, 0x14, 0x00, 0x00, 0x00, 0xba, 0xff, 0xff, 0xff,
  0x00, 0x00, 0x00, 0x01, 0x01, 0x00, 0x00, 0x00, 0x08, 0x00, 0x00, 0x00,
  0x03, 0x00, 0x00, 0x00, 0x07, 0x00, 0x00, 0x00, 0x02, 0x00, 0x00, 0x00,
  0x04, 0x00, 0x00, 0x00, 0x00, 0x00, 0x0e, 0x00, 0x16, 0x00, 0x00, 0x00,
  0x10, 0x00, 0x0c, 0x00, 0x0b, 0x00, 0x04, 0x00, 0x0e, 0x00, 0x00, 0x00,
  0x18, 0x00, 0x00, 0x00, 0x00, 0x00, 0x00, 0x08, 0x18, 0x00, 0x00, 0x00,
  0x1c, 0x00, 0x00, 0x00, 0x00, 0x00, 0x06, 0x00, 0x08, 0x00, 0x07, 0x00,
  0x06, 0x00, 0x00, 0x00, 0x00, 0x00, 0x00, 0x01, 0x01, 0x00, 0x00, 0x00,
  0x07, 0x00, 0x00, 0x00, 0x03, 0x00, 0x00, 0x00, 0x00, 0x00, 0x00, 0x00,
  0x06, 0x00, 0x00, 0x00, 0x05, 0x00, 0x00, 0x00, 0x01, 0x00, 0x00, 0x00,
  0x0a, 0x00, 0x00, 0x00, 0x01, 0x00, 0x00, 0x00, 0x00, 0x00, 0x00, 0x00,
  0x0b, 0x00, 0x00, 0x00, 0xf8, 0x03, 0x00, 0x00, 0xa0, 0x03, 0x00, 0x00,
  0x48, 0x03, 0x00, 0x00, 0x0c, 0x03, 0x00, 0x00, 0xd0, 0x02, 0x00, 0x00,
  0x74, 0x02, 0x00, 0x00, 0x24, 0x02, 0x00, 0x00, 0x84, 0x01, 0x00, 0x00,
  0xe4, 0x00, 0x00, 0x00, 0x60, 0x00, 0x00, 0x00, 0x04, 0x00, 0x00, 0x00,
  0x4a, 0xfc, 0xff, 0xff, 0x00, 0x00, 0x00, 0x01, 0x14, 0x00, 0x00, 0x00,
  0x1c, 0x00, 0x00, 0x00, 0x1c, 0x00, 0x00, 0x00, 0x0b, 0x00, 0x00, 0x00,
  0x34, 0x00, 0x00, 0x00, 0x02, 0x00, 0x00, 0x00, 0xff, 0xff, 0xff, 0xff,
  0x16, 0x00, 0x00, 0x00, 0x34, 0xfc, 0xff, 0xff, 0x1b, 0x00, 0x00, 0x00,
  0x53, 0x74, 0x61, 0x74, 0x65, 0x66, 0x75, 0x6c, 0x50, 0x61, 0x72, 0x74,
  0x69, 0x74, 0x69, 0x6f, 0x6e, 0x65, 0x64, 0x43, 0x61, 0x6c, 0x6c, 0x5f,
  0x31, 0x3a, 0x30, 0x00, 0x02, 0x00, 0x00, 0x00, 0x01, 0x00, 0x00, 0x00,
  0x16, 0x00, 0x00, 0x00, 0xa2, 0xfc, 0xff, 0xff, 0x00, 0x00, 0x00, 0x01,
  0x14, 0x00, 0x00, 0x00, 0x1c, 0x00, 0x00, 0x00, 0x1c, 0x00, 0x00, 0x00,
  0x0a, 0x00, 0x00, 0x00, 0x5c, 0x00, 0x00, 0x00, 0x02, 0x00, 0x00, 0x00,
  0xff, 0xff, 0xff, 0xff, 0x16, 0x00, 0x00, 0x00, 0x8c, 0xfc, 0xff, 0xff,
  0x40, 0x00, 0x00, 0x00, 0x73, 0x65, 0x71, 0x75, 0x65, 0x6e, 0x74, 0x69,
  0x61, 0x6c, 0x5f, 0x31, 0x5f, 0x31, 0x2f, 0x64, 0x65, 0x6e, 0x73, 0x65,
  0x5f, 0x35, 0x5f, 0x31, 0x2f, 0x4d, 0x61, 0x74, 0x4d, 0x75, 0x6c, 0x3b,
  0x73, 0x65, 0x71, 0x75, 0x65, 0x6e, 0x74, 0x69, 0x61, 0x6c, 0x5f, 0x31,
  0x5f, 0x31, 0x2f, 0x64, 0x65, 0x6e, 0x73, 0x65, 0x5f, 0x35, 0x5f, 0x31,
  0x2f, 0x42, 0x69, 0x61, 0x73, 0x41, 0x64, 0x64, 0x00, 0x00, 0x00, 0x00,
  0x02, 0x00, 0x00, 0x00, 0x01, 0x00, 0x00, 0x00, 0x16, 0x00, 0x00, 0x00,
  0x22, 0xfd, 0xff, 0xff, 0x00, 0x00, 0x00, 0x01, 0x14, 0x00, 0x00, 0x00,
  0x1c, 0x00, 0x00, 0x00, 0x1c, 0x00, 0x00, 0x00, 0x09, 0x00, 0x00, 0x00,
  0x78, 0x00, 0x00, 0x00, 0x02, 0x00, 0x00, 0x00, 0xff, 0xff, 0xff, 0xff,
  0x20, 0x00, 0x00, 0x00, 0x0c, 0xfd, 0xff, 0xff, 0x5e, 0x00, 0x00, 0x00,
  0x73, 0x65, 0x71, 0x75, 0x65, 0x6e, 0x74, 0x69, 0x61, 0x6c, 0x5f, 0x31,
  0x5f, 0x31, 0x2f, 0x64, 0x65, 0x6e, 0x73, 0x65, 0x5f, 0x34, 0x5f, 0x31,
  0x2f, 0x4d, 0x61, 0x74, 0x4d, 0x75, 0x6c, 0x3b, 0x73, 0x65, 0x71, 0x75,
  0x65, 0x6e, 0x74, 0x69, 0x61, 0x6c, 0x5f, 0x31, 0x5f, 0x31, 0x2f, 0x64,
  0x65, 0x6e, 0x73, 0x65, 0x5f, 0x34, 0x5f, 0x31, 0x2f, 0x52, 0x65, 0x6c,
  0x75, 0x3b, 0x73, 0x65, 0x71, 0x75, 0x65, 0x6e, 0x74, 0x69, 0x61, 0x6c,
  0x5f, 0x31, 0x5f, 0x31, 0x2f, 0x64, 0x65, 0x6e, 0x73, 0x65, 0x5f, 0x34,
  0x5f, 0x31, 0x2f, 0x42, 0x69, 0x61, 0x73, 0x41, 0x64, 0x64, 0x00, 0x00,
  0x02, 0x00, 0x00, 0x00, 0x01, 0x00, 0x00, 0x00, 0x20, 0x00, 0x00, 0x00,
  0xbe, 0xfd, 0xff, 0xff, 0x00, 0x00, 0x00, 0x01, 0x14, 0x00, 0x00, 0x00,
  0x1c, 0x00, 0x00, 0x00, 0x1c, 0x00, 0x00, 0x00, 0x08, 0x00, 0x00, 0x00,
  0x78, 0x00, 0x00, 0x00, 0x02, 0x00, 0x00, 0x00, 0xff, 0xff, 0xff, 0xff,
  0x40, 0x00, 0x00, 0x00, 0xa8, 0xfd, 0xff, 0xff, 0x5e, 0x00, 0x00, 0x00,
  0x73, 0x65, 0x71, 0x75, 0x65, 0x6e, 0x74, 0x69, 0x61, 0x6c, 0x5f, 0x31,
  0x5f, 0x31, 0x2f, 0x64, 0x65, 0x6e, 0x73, 0x65, 0x5f, 0x33, 0x5f, 0x31,
  0x2f, 0x4d, 0x61, 0x74, 0x4d, 0x75, 0x6c, 0x3b, 0x73, 0x65, 0x71, 0x75,
  0x65, 0x6e, 0x74, 0x69, 0x61, 0x6c, 0x5f, 0x31, 0x5f, 0x31, 0x2f, 0x64,
  0x65, 0x6e, 0x73, 0x65, 0x5f, 0x33, 0x5f, 0x31, 0x2f, 0x52, 0x65, 0x6c,
  0x75, 0x3b, 0x73, 0x65, 0x71, 0x75, 0x65, 0x6e, 0x74, 0x69, 0x61, 0x6c,
  0x5f, 0x31, 0x5f, 0x31, 0x2f, 0x64, 0x65, 0x6e, 0x73, 0x65, 0x5f, 0x33,
  0x5f, 0x31, 0x2f, 0x42, 0x69, 0x61, 0x73, 0x41, 0x64, 0x64, 0x00, 0x00,
  0x02, 0x00, 0x00, 0x00, 0x01, 0x00, 0x00, 0x00, 0x40, 0x00, 0x00, 0x00,
  0xae, 0xfe, 0xff, 0xff, 0x00, 0x00, 0x00, 0x01, 0x10, 0x00, 0x00, 0x00,
  0x10, 0x00, 0x00, 0x00, 0x07, 0x00, 0x00, 0x00, 0x2c, 0x00, 0x00, 0x00,
  0x34, 0xfe, 0xff, 0xff, 0x1f, 0x00, 0x00, 0x00, 0x73, 0x65, 0x71, 0x75,
  0x65, 0x6e, 0x74, 0x69, 0x61, 0x6c, 0x5f, 0x31, 0x5f, 0x31, 0x2f, 0x64,
  0x65, 0x6e, 0x73, 0x65, 0x5f, 0x33, 0x5f, 0x31, 0x2f, 0x4d, 0x61, 0x74,
  0x4d, 0x75, 0x6c, 0x00, 0x02, 0x00, 0x00, 0x00, 0x40, 0x00, 0x00, 0x00,
  0x07, 0x00, 0x00, 0x00, 0xfa, 0xfe, 0xff, 0xff, 0x00, 0x00, 0x00, 0x01,
  0x10, 0x00, 0x00, 0x00, 0x10, 0x00, 0x00, 0x00, 0x06, 0x00, 0x00, 0x00,
  0x3c, 0x00, 0x00, 0x00, 0x80, 0xfe, 0xff, 0xff, 0x2f, 0x00, 0x00, 0x00,
  0x73, 0x65, 0x71, 0x75, 0x65, 0x6e, 0x74, 0x69, 0x61, 0x6c, 0x5f, 0x31,
  0x5f, 0x31, 0x2f, 0x64, 0x65, 0x6e, 0x73, 0x65, 0x5f, 0x33, 0x5f, 0x31,
  0x2f, 0x42, 0x69, 0x61, 0x73, 0x41, 0x64, 0x64, 0x2f, 0x52, 0x65, 0x61,
  0x64, 0x56, 0x61, 0x72, 0x69, 0x61, 0x62, 0x6c, 0x65, 0x4f, 0x70, 0x00,
  0x01, 0x00, 0x00, 0x00, 0x40, 0x00, 0x00, 0x00, 0x52, 0xff, 0xff, 0xff,
  0x00, 0x00, 0x00, 0x01, 0x10, 0x00, 0x00, 0x00, 0x10, 0x00, 0x00, 0x00,
  0x05, 0x00, 0x00, 0x00, 0x1c, 0x00, 0x00, 0x00, 0xd8, 0xfe, 0xff, 0xff,
  0x0f, 0x00, 0x00, 0x00, 0x61, 0x72, 0x69, 0x74, 0x68, 0x2e, 0x63, 0x6f,
  0x6e, 0x73, 0x74, 0x61, 0x6e, 0x74, 0x33, 0x00, 0x01, 0x00, 0x00, 0x00,
  0x20, 0x00, 0x00, 0x00, 0x8a, 0xff, 0xff, 0xff, 0x00, 0x00, 0x00, 0x01,
  0x10, 0x00, 0x00, 0x00, 0x10, 0x00, 0x00, 0x00, 0x04, 0x00, 0x00, 0x00,
  0x1c, 0x00, 0x00, 0x00, 0x10, 0xff, 0xff, 0xff, 0x0f, 0x00, 0x00, 0x00,
  0x61, 0x72, 0x69, 0x74, 0x68, 0x2e, 0x63, 0x6f, 0x6e, 0x73, 0x74, 0x61,
  0x6e, 0x74, 0x32, 0x00, 0x01, 0x00, 0x00, 0x00, 0x16, 0x00, 0x00, 0x00,
  0xc2, 0xff, 0xff, 0xff, 0x00, 0x00, 0x00, 0x01, 0x10, 0x00, 0x00, 0x00,
  0x10, 0x00, 0x00, 0x00, 0x03, 0x00, 0x00, 0x00, 0x1c, 0x00, 0x00, 0x00,
  0x48, 0xff, 0xff, 0xff, 0x0f, 0x00, 0x00, 0x00, 0x61, 0x72, 0x69, 0x74,
  0x68, 0x2e, 0x63, 0x6f, 0x6e, 0x73, 0x74, 0x61, 0x6e, 0x74, 0x31, 0x00,
  0x02, 0x00, 0x00, 0x00, 0x20, 0x00, 0x00, 0x00, 0x40, 0x00, 0x00, 0x00,
  0x00, 0x00, 0x16, 0x00, 0x18, 0x00, 0x14, 0x00, 0x00, 0x00, 0x10, 0x00,
  0x0c, 0x00, 0x08, 0x00, 0x00, 0x00, 0x00, 0x00, 0x00, 0x00, 0x07, 0x00,
  0x16, 0x00, 0x00, 0x00, 0x00, 0x00, 0x00, 0x01, 0x10, 0x00, 0x00, 0x00,
  0x10, 0x00, 0x00, 0x00, 0x02, 0x00, 0x00, 0x00, 0x1c, 0x00, 0x00, 0x00,
  0x9c, 0xff, 0xff, 0xff, 0x0e, 0x00, 0x00, 0x00, 0x61, 0x72, 0x69, 0x74,
  0x68, 0x2e, 0x63, 0x6f, 0x6e, 0x73, 0x74, 0x61, 0x6e, 0x74, 0x00, 0x00,
  0x02, 0x00, 0x00, 0x00, 0x16, 0x00, 0x00, 0x00, 0x20, 0x00, 0x00, 0x00,
  0x00, 0x00, 0x16, 0x00, 0x1c, 0x00, 0x18, 0x00, 0x00, 0x00, 0x14, 0x00,
  0x10, 0x00, 0x0c, 0x00, 0x00, 0x00, 0x00, 0x00, 0x08, 0x00, 0x07, 0x00,
  0x16, 0x00, 0x00, 0x00, 0x00, 0x00, 0x00, 0x01, 0x14, 0x00, 0x00, 0x00,
  0x20, 0x00, 0x00, 0x00, 0x20, 0x00, 0x00, 0x00, 0x01, 0x00, 0x00, 0x00,
  0x3c, 0x00, 0x00, 0x00, 0x02, 0x00, 0x00, 0x00, 0xff, 0xff, 0xff, 0xff,
  0x07, 0x00, 0x00, 0x00, 0x04, 0x00, 0x04, 0x00, 0x04, 0x00, 0x00, 0x00,
  0x1f, 0x00, 0x00, 0x00, 0x73, 0x65, 0x72, 0x76, 0x69, 0x6e, 0x67, 0x5f,
  0x64, 0x65, 0x66, 0x61, 0x75, 0x6c, 0x74, 0x5f, 0x69, 0x6e, 0x70, 0x75,
  0x74, 0x5f, 0x6c, 0x61, 0x79, 0x65, 0x72, 0x5f, 0x31, 0x3a, 0x30, 0x00,
  0x02, 0x00, 0x00, 0x00, 0x01, 0x00, 0x00, 0x00, 0x07, 0x00, 0x00, 0x00,
  0x02, 0x00, 0x00, 0x00, 0x20, 0x00, 0x00, 0x00, 0x04, 0x00, 0x00, 0x00,
  0xf4, 0xff, 0xff, 0xff, 0x19, 0x00, 0x00, 0x00, 0x00, 0x00, 0x00, 0x19,
  0x0c, 0x00, 0x0c, 0x00, 0x0b, 0x00, 0x00, 0x00, 0x00, 0x00, 0x04, 0x00,
  0x0c, 0x00, 0x00, 0x00, 0x09, 0x00, 0x00, 0x00, 0x00, 0x00, 0x00, 0x09,
};

#endif  // MODEL_H
