#ifndef MODEL_H
#define MODEL_H

const uint8_t g_model[] = {
  0x1c, 0x00, 0x00, 0x00, 0x54, 0x46, 0x4c, 0x33, 0x14, 0x00, 0x20, 0x00,
  0x1c, 0x00, 0x18, 0x00, 0x14, 0x00, 0x10, 0x00, 0x0c, 0x00, 0x00, 0x00,
  0x08, 0x00, 0x04, 0x00, 0x14, 0x00, 0x00, 0x00, 0x1c, 0x00, 0x00, 0x00,
  0x98, 0x00, 0x00, 0x00, 0xf0, 0x00, 0x00, 0x00, 0x90, 0x46, 0x00, 0x00,
  0xa0, 0x46, 0x00, 0x00, 0x60, 0x4e, 0x00, 0x00, 0x03, 0x00, 0x00, 0x00,
  0x01, 0x00, 0x00, 0x00, 0x10, 0x00, 0x00, 0x00, 0x00, 0x00, 0x0a, 0x00,
  0x10, 0x00, 0x0c, 0x00, 0x08, 0x00, 0x04, 0x00, 0x0a, 0x00, 0x00, 0x00,
  0x0c, 0x00, 0x00, 0x00, 0x1c, 0x00, 0x00, 0x00, 0x3c, 0x00, 0x00, 0x00,
  0x0f, 0x00, 0x00, 0x00, 0x73, 0x65, 0x72, 0x76, 0x69, 0x6e, 0x67, 0x5f,
  0x64, 0x65, 0x66, 0x61, 0x75, 0x6c, 0x74, 0x00, 0x01, 0x00, 0x00, 0x00,
  0x04, 0x00, 0x00, 0x00, 0x90, 0xff, 0xff, 0xff, 0x0d, 0x00, 0x00, 0x00,
  0x04, 0x00, 0x00, 0x00, 0x08, 0x00, 0x00, 0x00, 0x6f, 0x75, 0x74, 0x70,
  0x75, 0x74, 0x5f, 0x30, 0x00, 0x00, 0x00, 0x00, 0x01, 0x00, 0x00, 0x00,
  0x04, 0x00, 0x00, 0x00, 0x52, 0xb9, 0xff, 0xff, 0x04, 0x00, 0x00, 0x00,
  0x0d, 0x00, 0x00, 0x00, 0x69, 0x6e, 0x70, 0x75, 0x74, 0x5f, 0x6c, 0x61,
  0x79, 0x65, 0x72, 0x5f, 0x31, 0x00, 0x00, 0x00, 0x02, 0x00, 0x00, 0x00,
  0x34, 0x00, 0x00, 0x00, 0x04, 0x00, 0x00, 0x00, 0xdc, 0xff, 0xff, 0xff,
  0x10, 0x00, 0x00, 0x00, 0x04, 0x00, 0x00, 0x00, 0x13, 0x00, 0x00, 0x00,
  0x43, 0x4f, 0x4e, 0x56, 0x45, 0x52, 0x53, 0x49, 0x4f, 0x4e, 0x5f, 0x4d,
  0x45, 0x54, 0x41, 0x44, 0x41, 0x54, 0x41, 0x00, 0x08, 0x00, 0x0c, 0x00,
  0x08, 0x00, 0x04, 0x00, 0x08, 0x00, 0x00, 0x00, 0x0f, 0x00, 0x00, 0x00,
  0x04, 0x00, 0x00, 0x00, 0x13, 0x00, 0x00, 0x00, 0x6d, 0x69, 0x6e, 0x5f,
  0x72, 0x75, 0x6e, 0x74, 0x69, 0x6d, 0x65, 0x5f, 0x76, 0x65, 0x72, 0x73,
  0x69, 0x6f, 0x6e, 0x00, 0x11, 0x00, 0x00, 0x00, 0x9c, 0x45, 0x00, 0x00,
  0x94, 0x45, 0x00, 0x00, 0x84, 0x3a, 0x00, 0x00, 0x1c, 0x3a, 0x00, 0x00,
  0x0c, 0x2a, 0x00, 0x00, 0x7c, 0x29, 0x00, 0x00, 0x6c, 0x09, 0x00, 0x00,
  0xdc, 0x08, 0x00, 0x00, 0xcc, 0x07, 0x00, 0x00, 0xbc, 0x00, 0x00, 0x00,
  0xb4, 0x00, 0x00, 0x00, 0xac, 0x00, 0x00, 0x00, 0xa4, 0x00, 0x00, 0x00,
  0x9c, 0x00, 0x00, 0x00, 0x94, 0x00, 0x00, 0x00, 0x74, 0x00, 0x00, 0x00,
  0x04, 0x00, 0x00, 0x00, 0x12, 0xba, 0xff, 0xff, 0x04, 0x00, 0x00, 0x00,
  0x60, 0x00, 0x00, 0x00, 0x10, 0x00, 0x00, 0x00, 0x00, 0x00, 0x00, 0x00,
  0x08, 0x00, 0x0e, 0x00, 0x08, 0x00, 0x04, 0x00, 0x08, 0x00, 0x00, 0x00,
  0x10, 0x00, 0x00, 0x00, 0x24, 0x00, 0x00, 0x00, 0x00, 0x00, 0x06, 0x00,
  0x08, 0x00, 0x04, 0x00, 0x06, 0x00, 0x00, 0x00, 0x04, 0x00, 0x00, 0x00,
  0x00, 0x00, 0x00, 0x00, 0x0c, 0x00, 0x18, 0x00, 0x14, 0x00, 0x10, 0x00,
  0x0c, 0x00, 0x04, 0x00, 0x0c, 0x00, 0x00, 0x00, 0x28, 0xb9, 0x26, 0xd4,
  0x52, 0x76, 0x40, 0x6f, 0x02, 0x00, 0x00, 0x00, 0x02, 0x00, 0x00, 0x00,
  0x04, 0x00, 0x00, 0x00, 0x06, 0x00, 0x00, 0x00, 0x32, 0x2e, 0x31, 0x38,
  0x2e, 0x30, 0x00, 0x00, 0x7e, 0xba, 0xff, 0xff, 0x04, 0x00, 0x00, 0x00,
  0x10, 0x00, 0x00, 0x00, 0x31, 0x2e, 0x35, 0x2e, 0x30, 0x00, 0x00, 0x00,
  0x00, 0x00, 0x00, 0x00, 0x00, 0x00, 0x00, 0x00, 0x8c, 0xb3, 0xff, 0xff,
  0x90, 0xb3, 0xff, 0xff, 0x94, 0xb3, 0xff, 0xff, 0x98, 0xb3, 0xff, 0xff,
  0x9c, 0xb3, 0xff, 0xff, 0xae, 0xba, 0xff, 0xff, 0x04, 0x00, 0x00, 0x00,
  0x00, 0x07, 0x00, 0x00, 0x63, 0x17, 0xfb, 0xbd, 0xcd, 0xfa, 0xf4, 0xbc,
  0xa3, 0x14, 0xb2, 0x3e, 0x22, 0x01, 0x35, 0xbe, 0xc9, 0x02, 0xfe, 0x3e,
  0xa9, 0x60, 0xdf, 0x3d, 0x5a, 0xe5, 0x8b, 0x3e, 0xbe, 0xa1, 0x13, 0xbe,
  0xca, 0xa2, 0xf0, 0xbc, 0x1c, 0x85, 0x71, 0x3e, 0xef, 0xe7, 0x51, 0x3d,
  0xec, 0x7f, 0xb4, 0xbe, 0x62, 0x5a, 0xc1, 0x3e, 0xa7, 0xaf, 0x36, 0x3e,
  0x92, 0xcc, 0xbe, 0xbe, 0x3a, 0x5d, 0x1b, 0x3d, 0xb1, 0xe6, 0x16, 0x3d,
  0xea, 0x83, 0x61, 0x3e, 0xbc, 0x56, 0x99, 0x3e, 0x1c, 0x93, 0x88, 0xbc,
  0x85, 0xf1, 0x32, 0xbd, 0x6f, 0x3f, 0xe8, 0x3d, 0xbd, 0x70, 0xfd, 0x3e,
  0xdf, 0x98, 0x95, 0x3e, 0x38, 0x25, 0xfe, 0x3d, 0xd9, 0xfd, 0xd6, 0x3e,
  0xb1, 0x72, 0x29, 0x3e, 0x78, 0x6d, 0x6a, 0x3e, 0x1c, 0xef, 0x87, 0x3e,
  0xfb, 0x1e, 0xdd, 0x3e, 0x71, 0x1a, 0xaa, 0xbc, 0x75, 0xa0, 0x62, 0xbc,
  0x8e, 0x77, 0x84, 0xbe, 0x99, 0x83, 0x03, 0xbe, 0xde, 0x52, 0x2d, 0x3e,
  0x9e, 0x9e, 0x5f, 0x3e, 0xe5, 0xac, 0xc7, 0x3d, 0xc8, 0xd0, 0xf3, 0x3e,
  0xe1, 0xba, 0x5b, 0x3e, 0xe8, 0x4d, 0x54, 0x3e, 0xe6, 0x1e, 0xac, 0xbd,
  0x62, 0x7d, 0x9a, 0xbd, 0x41, 0x84, 0x57, 0xbe, 0xd3, 0x55, 0x9a, 0xbe,
  0xc9, 0x6e, 0xd4, 0x3e, 0x34, 0x71, 0xe1, 0x3d, 0x89, 0x3c, 0xbd, 0xbe,
  0x99, 0x91, 0xd1, 0xbd, 0x2e, 0x0b, 0xb8, 0xbe, 0xab, 0x0c, 0x26, 0x3e,
  0x07, 0x02, 0x24, 0xbe, 0x38, 0xf9, 0xce, 0xbe, 0xa7, 0xff, 0x1f, 0xbe,
  0x10, 0x8b, 0xac, 0x3e, 0x3e, 0xc5, 0x33, 0xbe, 0x13, 0x1f, 0x50, 0x3e,
  0x45, 0xd1, 0x1d, 0xbb, 0x69, 0xa9, 0xb8, 0x3e, 0x0a, 0xe3, 0x67, 0xbe,
  0xb4, 0xc9, 0xc9, 0x3b, 0x0a, 0xc0, 0x11, 0x3f, 0x3d, 0x9b, 0xbc, 0x3d,
  0xb9, 0xf8, 0xc5, 0xbe, 0xc2, 0xce, 0x64, 0xbe, 0x67, 0xe9, 0x31, 0x3e,
  0xc7, 0x8a, 0x0e, 0x3e, 0x1a, 0x7d, 0x1f, 0xbe, 0xc5, 0xaa, 0x08, 0xbf,
  0x39, 0xd5, 0xa3, 0x3d, 0x2d, 0xfc, 0x05, 0xbf, 0x6c, 0x99, 0x94, 0x3e,
  0xe6, 0x7e, 0x69, 0xbd, 0xb5, 0xe5, 0x17, 0x3f, 0x16, 0xcb, 0xce, 0xba,
  0x1d, 0xb7, 0x3f, 0xbe, 0xe6, 0x57, 0xd6, 0x3d, 0x38, 0x2b, 0x36, 0x3d,
  0xfa, 0x22, 0x00, 0xbe, 0x6f, 0x04, 0x31, 0x3e, 0x45, 0x95, 0x06, 0x3f,
  0xe6, 0xff, 0xd2, 0x3d, 0x34, 0xa8, 0xbe, 0xbd, 0xdc, 0x56, 0xf3, 0x3c,
  0xeb, 0xa2, 0xd5, 0xbe, 0xf7, 0xd0, 0xdf, 0x3d, 0xd3, 0x6f, 0x13, 0xbd,
  0x14, 0x79, 0xfb, 0x3e, 0x12, 0xfe, 0xfd, 0xbd, 0xfc, 0x18, 0x9e, 0xbe,
  0x79, 0x05, 0x20, 0xbe, 0xb6, 0x7a, 0xff, 0x3e, 0x42, 0x53, 0xa7, 0x3e,
  0x25, 0xfb, 0x41, 0xbe, 0xe7, 0xd6, 0x39, 0xbe, 0x57, 0x58, 0x04, 0xbc,
  0x30, 0xfb, 0x90, 0x3d, 0x20, 0x8a, 0x03, 0x3c, 0x4e, 0x9a, 0xa0, 0x3e,
  0x7c, 0xdd, 0xa7, 0x3e, 0x94, 0xc8, 0x31, 0x3d, 0xdf, 0x5c, 0xd9, 0x3e,
  0xf3, 0x1c, 0xec, 0xbd, 0x61, 0x0e, 0x5e, 0xbf, 0xd0, 0x25, 0x02, 0xbd,
  0xa5, 0x2a, 0x89, 0x3e, 0xd5, 0xf2, 0xe2, 0xbd, 0x82, 0xc9, 0xc3, 0xbe,
  0x06, 0x49, 0xd4, 0xbe, 0x25, 0x41, 0xe3, 0xbc, 0xca, 0xaf, 0x83, 0xbd,
  0xd5, 0x95, 0x36, 0x3e, 0xc3, 0x6c, 0x8a, 0x3e, 0xba, 0x33, 0x30, 0xbe,
  0xf1, 0x7e, 0x00, 0x3e, 0xe0, 0x77, 0x3e, 0xbe, 0x7b, 0x88, 0x18, 0x3e,
  0x61, 0xa4, 0x23, 0x3f, 0x8e, 0x86, 0xb8, 0xbe, 0x5d, 0x15, 0x1a, 0x3e,
  0x1a, 0x79, 0x34, 0xbe, 0x2d, 0x87, 0xeb, 0xbe, 0x9b, 0xde, 0x0a, 0x3e,
  0xa4, 0x5e, 0x25, 0x3e, 0xbd, 0xe8, 0x49, 0xbe, 0xe8, 0x28, 0x24, 0xbd,
  0x42, 0xfb, 0x9d, 0xbe, 0x15, 0x5e, 0x60, 0x3d, 0xd0, 0x86, 0xa4, 0xbe,
  0xd5, 0x1b, 0xdd, 0x3e, 0xd7, 0x73, 0x5e, 0xbe, 0xc8, 0x21, 0x84, 0xbe,
  0xef, 0x64, 0xb2, 0xbc, 0xa7, 0x10, 0x47, 0x3e, 0xa5, 0x3b, 0x4e, 0x3d,
  0x02, 0xcc, 0x26, 0xbe, 0x02, 0x58, 0x0f, 0xbf, 0xd4, 0xae, 0xf8, 0xbd,
  0x46, 0x26, 0x2e, 0xbd, 0x12, 0xe9, 0xda, 0xbd, 0x75, 0xa1, 0x7d, 0x3e,
  0x2f, 0xf1, 0x05, 0x3f, 0xc5, 0xe1, 0xa6, 0xbd, 0xfe, 0x02, 0xe7, 0xbe,
  0x91, 0xbe, 0x74, 0xbe, 0x3b, 0xe1, 0xca, 0xbe, 0xde, 0x16, 0x8e, 0x3b,
  0x0e, 0xdb, 0x77, 0x3d, 0xc4, 0x02, 0x6c, 0xbe, 0x21, 0x69, 0x4a, 0x3c,
  0x75, 0xa1, 0x33, 0xbe, 0xc2, 0xa6, 0xa0, 0xb9, 0x29, 0x03, 0xce, 0x3d,
  0x53, 0x3d, 0x1d, 0xbe, 0xbd, 0x4f, 0x43, 0xbf, 0x90, 0x95, 0x87, 0xbe,
  0x7f, 0x04, 0x8d, 0x3e, 0x0b, 0xb8, 0xe9, 0xbe, 0x9a, 0x45, 0x9e, 0x3d,
  0x9a, 0x3f, 0xc3, 0x3e, 0x90, 0x9f, 0x9a, 0xbd, 0xf9, 0x6f, 0x9e, 0x3e,
  0xf0, 0x5b, 0x8c, 0xbe, 0xa7, 0x75, 0x64, 0xbd, 0x3f, 0x6b, 0x5a, 0xbe,
  0x21, 0x9b, 0xe6, 0x3d, 0xd1, 0x5a, 0xaa, 0x3d, 0x2c, 0x42, 0x18, 0xbf,
  0xca, 0xf0, 0xa9, 0x3d, 0x06, 0x55, 0xf4, 0xbd, 0x30, 0x57, 0x81, 0x3e,
  0xa8, 0x28, 0x46, 0xbe, 0x7e, 0x31, 0xce, 0x3d, 0x8e, 0x25, 0x56, 0x3f,
  0x49, 0x97, 0x41, 0x3e, 0xa0, 0x38, 0x64, 0x3e, 0x21, 0xf8, 0x05, 0x3e,
  0xdf, 0xf5, 0x80, 0x3e, 0x86, 0x89, 0x3b, 0xbe, 0x79, 0x4a, 0xc3, 0xbe,
  0xbe, 0x14, 0x00, 0xbc, 0x22, 0x26, 0xcc, 0x3d, 0x15, 0xfa, 0x37, 0xbe,
  0x87, 0x43, 0x07, 0x3e, 0x2e, 0x83, 0xc4, 0xbd, 0x95, 0x93, 0x02, 0xbf,
  0x80, 0x4f, 0x4e, 0xbe, 0xa6, 0x79, 0xee, 0xbd, 0xf7, 0x50, 0xf3, 0xbb,
  0xcf, 0x12, 0xf9, 0xbe, 0xcc, 0x15, 0xb9, 0xbe, 0xfb, 0x2c, 0x3a, 0x3e,
  0xa2, 0xbd, 0x94, 0xbe, 0xeb, 0xe0, 0x11, 0x3e, 0x72, 0x6c, 0x5f, 0xbe,
  0x03, 0xcd, 0x5b, 0xbe, 0x0c, 0xca, 0x17, 0x3f, 0x3c, 0xca, 0x17, 0xbe,
  0x78, 0x35, 0xae, 0x3e, 0xf0, 0x8d, 0xa1, 0xbe, 0x4d, 0x4f, 0xcb, 0x3e,
  0x3d, 0x3d, 0x10, 0x3d, 0xd1, 0xe7, 0x46, 0x3c, 0x54, 0x65, 0x63, 0x3c,
  0xee, 0xea, 0xe2, 0xbd, 0x0f, 0xbe, 0x35, 0xbe, 0x2d, 0x6c, 0xe0, 0x3e,
  0x22, 0xae, 0x15, 0x3d, 0x0e, 0x1c, 0xc6, 0x3e, 0x7b, 0x60, 0x12, 0xbe,
  0x7a, 0x4d, 0x15, 0x3f, 0xe4, 0x90, 0xfa, 0x3d, 0xb0, 0x7c, 0x53, 0x3e,
  0xb2, 0x25, 0x0e, 0x3e, 0x4e, 0xc8, 0x64, 0x3c, 0xc1, 0x80, 0x3a, 0xbe,
  0x06, 0x45, 0x46, 0x3e, 0x5d, 0x21, 0xa3, 0x3c, 0x23, 0x77, 0x35, 0xbd,
  0x35, 0xd4, 0x98, 0x3d, 0x17, 0x3d, 0x85, 0xbe, 0x09, 0x7c, 0x68, 0xbe,
  0x1f, 0xde, 0x84, 0x3d, 0x5b, 0xd3, 0x86, 0xbc, 0x27, 0x7d, 0xa4, 0x3e,
  0xe6, 0xe9, 0x90, 0x3e, 0x98, 0x2d, 0x43, 0x3e, 0x5f, 0x71, 0xa6, 0xbe,
  0x65, 0xd0, 0x8e, 0xbd, 0xe8, 0x58, 0x30, 0x3e, 0x15, 0x59, 0xc2, 0xbe,
  0x3f, 0x9c, 0xe5, 0x3d, 0xe6, 0x5c, 0x1d, 0x3e, 0x8e, 0xd9, 0xa4, 0xbd,
  0xd7, 0x3e, 0x8d, 0x3e, 0x32, 0x5a, 0x6a, 0x3d, 0x4f, 0x0d, 0xca, 0xbd,
  0xe8, 0x02, 0xa8, 0x3d, 0x39, 0x77, 0xd7, 0x3e, 0x7d, 0x30, 0x9b, 0x3c,
  0xf6, 0x75, 0x0d, 0x3e, 0xb6, 0x1a, 0xb9, 0xbd, 0x87, 0x67, 0x0a, 0x3f,
  0xec, 0xbb, 0x64, 0x3e, 0xd7, 0x71, 0xff, 0xbc, 0xea, 0x35, 0xdb, 0x3c,
  0xea, 0x05, 0x0c, 0xbe, 0xf6, 0x9c, 0x4b, 0x3e, 0x84, 0xa3, 0x72, 0x3e,
  0xac, 0xfd, 0x80, 0x3e, 0xa3, 0x8f, 0x97, 0xbe, 0x56, 0x34, 0xac, 0xbc,
  0x9b, 0x4c, 0x41, 0xbe, 0x12, 0x72, 0x00, 0x3e, 0xe6, 0x91, 0x20, 0x3e,
  0x2b, 0x22, 0x06, 0x3e, 0x52, 0x26, 0xc5, 0x3d, 0x6c, 0x9c, 0x1f, 0xbe,
  0x62, 0xff, 0x5b, 0xbd, 0x15, 0x8b, 0xfe, 0xbe, 0x00, 0xad, 0x6a, 0xbe,
  0x30, 0xb2, 0x9a, 0x3e, 0xd8, 0xd2, 0x88, 0x3e, 0xec, 0xe1, 0x31, 0xbe,
  0xf5, 0xa5, 0xaf, 0xbe, 0x79, 0x98, 0x1e, 0x3d, 0xb1, 0xe5, 0xac, 0x3e,
  0x3c, 0xf4, 0x79, 0x3e, 0xcd, 0x61, 0xda, 0x3d, 0xf4, 0xc7, 0x32, 0xbf,
  0x00, 0x15, 0x7a, 0x3e, 0xb5, 0xe9, 0xcb, 0xbc, 0x8a, 0x29, 0x35, 0x3d,
  0xf6, 0x14, 0x88, 0x3e, 0x91, 0x6b, 0x4f, 0xbe, 0x74, 0x26, 0x3d, 0xbe,
  0x28, 0x18, 0x8b, 0xbe, 0x58, 0xa6, 0xff, 0xbe, 0xc5, 0x46, 0x92, 0xbe,
  0xcf, 0xcc, 0xd6, 0xbd, 0xa5, 0xc6, 0x37, 0xbe, 0x3e, 0x68, 0x0c, 0xbe,
  0x12, 0x8f, 0x5b, 0x3e, 0xe2, 0x21, 0xb2, 0xbe, 0xe5, 0x21, 0xd2, 0xbd,
  0xad, 0x84, 0x2a, 0xbd, 0xb9, 0xa3, 0x39, 0xbe, 0x63, 0x98, 0x88, 0xbd,
  0xfe, 0x16, 0xe2, 0x3b, 0xc2, 0x85, 0x16, 0xbf, 0xa8, 0xdd, 0x6e, 0xbd,
  0xdd, 0x3b, 0x09, 0x3e, 0x3f, 0x03, 0x4f, 0xbf, 0x0c, 0x8a, 0x48, 0x3e,
  0x59, 0x24, 0x31, 0x3d, 0x7a, 0x77, 0xe5, 0xbd, 0xd1, 0xdd, 0xd2, 0x3e,
  0x2f, 0x77, 0xea, 0x3d, 0x7c, 0xd1, 0x2e, 0xbe, 0x06, 0xc9, 0x6c, 0xbe,
  0x7a, 0x03, 0x45, 0x3d, 0xc5, 0xb5, 0xc6, 0x3b, 0xe4, 0xc7, 0x7c, 0x3e,
  0xbd, 0x11, 0xa9, 0x3e, 0x40, 0x5e, 0x8e, 0xbc, 0xd1, 0xca, 0x8b, 0x3e,
  0xd5, 0x12, 0x03, 0xbf, 0x7e, 0x62, 0x1d, 0xbe, 0x85, 0x66, 0x32, 0x3d,
  0x59, 0x30, 0x8e, 0x3d, 0xf2, 0x57, 0xf4, 0xbe, 0xcf, 0x8e, 0xea, 0x3d,
  0x2b, 0x7e, 0x1f, 0x3e, 0x98, 0xec, 0x8a, 0xbe, 0xfe, 0x6e, 0x31, 0xba,
  0x73, 0x5f, 0x63, 0x3e, 0xb5, 0xaa, 0x98, 0x3e, 0x77, 0x2c, 0x2d, 0x3d,
  0x55, 0x90, 0xdd, 0xbd, 0xb6, 0x07, 0xc5, 0x3d, 0x4f, 0xe0, 0x02, 0x3f,
  0x28, 0x67, 0x7f, 0xbd, 0x55, 0x94, 0xa3, 0x3e, 0x6b, 0x7e, 0x97, 0x3d,
  0x93, 0x17, 0x10, 0x3e, 0x7a, 0xbf, 0x4c, 0x3e, 0x92, 0x04, 0x52, 0x3d,
  0xdc, 0x3f, 0x7c, 0x3f, 0x08, 0x65, 0x69, 0x3c, 0xd4, 0x16, 0x6c, 0x3c,
  0x39, 0xfc, 0x10, 0xbe, 0x02, 0xa6, 0xb6, 0xbe, 0x14, 0xe9, 0x61, 0xbe,
  0x55, 0xf3, 0x6d, 0xbd, 0x0c, 0xe1, 0x64, 0xbe, 0x35, 0xf0, 0x2b, 0xbd,
  0x7e, 0x01, 0xc2, 0x3e, 0x7d, 0x38, 0xca, 0xbc, 0x24, 0xa6, 0x80, 0xbe,
  0x84, 0xb8, 0xab, 0xbe, 0x00, 0xb6, 0x08, 0xbc, 0x23, 0x36, 0x8f, 0xbd,
  0xb3, 0xe0, 0x7e, 0x3d, 0x68, 0xf4, 0x22, 0xbe, 0xa0, 0xe2, 0xc2, 0xbe,
  0x84, 0xa7, 0xee, 0x3d, 0x25, 0x6f, 0xb5, 0xbe, 0x1d, 0xd6, 0xc9, 0xbd,
  0x5c, 0x54, 0xc0, 0xbe, 0xd8, 0xe3, 0x8f, 0x3d, 0x50, 0x4d, 0x68, 0xbd,
  0x3d, 0xf6, 0x2f, 0x3c, 0xe5, 0x51, 0x9b, 0xbd, 0x76, 0xc6, 0xd1, 0xbe,
  0x48, 0x11, 0x23, 0x3e, 0x69, 0x95, 0x70, 0xbd, 0xd1, 0x71, 0xd0, 0x3b,
  0xbc, 0x1d, 0x72, 0xbd, 0xb3, 0xb5, 0x33, 0x3e, 0x2d, 0xc8, 0x9d, 0x3e,
  0x69, 0xbd, 0xdc, 0x3d, 0x22, 0x7f, 0x00, 0x3e, 0xee, 0x4a, 0x0f, 0x3f,
  0x76, 0x33, 0x83, 0xba, 0x7c, 0xb3, 0xcb, 0xbe, 0xfa, 0xf4, 0x2c, 0xbe,
  0x46, 0xf9, 0x0c, 0xbe, 0x93, 0x5c, 0x96, 0x3e, 0x6c, 0x73, 0x8a, 0x3c,
  0x65, 0x9d, 0x6c, 0x3f, 0x44, 0x75, 0x2e, 0x3c, 0xec, 0x0b, 0xa3, 0xbe,
  0x27, 0x43, 0x94, 0x3e, 0x72, 0xb5, 0x3f, 0x3e, 0xbe, 0x33, 0x93, 0xbe,
  0x81, 0xd9, 0x0b, 0xbf, 0x52, 0x36, 0xd1, 0x3d, 0xc0, 0x80, 0x81, 0x3e,
  0x77, 0x8a, 0xa4, 0x3d, 0x12, 0xf2, 0x1b, 0x3e, 0xb4, 0xca, 0x9f, 0xbe,
  0x8f, 0xba, 0x28, 0xbf, 0xa2, 0xb4, 0x7c, 0x3c, 0x79, 0x08, 0x58, 0xbe,
  0xf8, 0x8a, 0xca, 0xbd, 0x0e, 0x05, 0x0d, 0xbe, 0x9b, 0x83, 0x3d, 0xbe,
  0xcd, 0x2f, 0xc6, 0x3d, 0x43, 0x64, 0x49, 0xbd, 0xd2, 0x88, 0x8a, 0xbe,
  0x73, 0x50, 0x62, 0x3e, 0x65, 0x94, 0x31, 0x3e, 0xa7, 0x3c, 0xb7, 0xbe,
  0x89, 0x4f, 0x7e, 0xbc, 0xfa, 0x70, 0x1a, 0xbe, 0x18, 0x01, 0x5b, 0x3e,
  0x0a, 0xbd, 0xb9, 0x3e, 0x4f, 0x49, 0xb2, 0xbd, 0xe4, 0x74, 0x29, 0x3d,
  0xa2, 0xe2, 0x2d, 0x3c, 0xb6, 0x19, 0xbd, 0x3d, 0x5f, 0x4b, 0x70, 0xbe,
  0xf4, 0x19, 0xb0, 0x3d, 0xec, 0xe0, 0x8c, 0xbe, 0xa6, 0xaa, 0x2b, 0x3e,
  0x58, 0xcb, 0x8c, 0xbe, 0xb3, 0x27, 0xce, 0xbe, 0xd6, 0xa7, 0xf2, 0xbe,
  0xe4, 0xb6, 0xfc, 0xbe, 0xc7, 0xa4, 0xcd, 0x3e, 0x48, 0x4b, 0x73, 0x3c,
  0xb6, 0x35, 0xc3, 0xbe, 0xf0, 0xdb, 0xbb, 0xbc, 0x41, 0x16, 0x8a, 0x3e,
  0xc7, 0x91, 0x08, 0x3e, 0x1a, 0xaf, 0x9e, 0xbd, 0x5e, 0x4a, 0xb0, 0xbe,
  0xa3, 0x08, 0x01, 0x3f, 0xaa, 0x9b, 0x00, 0xbe, 0x46, 0xba, 0x2f, 0xbe,
  0x0b, 0x56, 0x09, 0xbe, 0x28, 0x13, 0x1c, 0x3d, 0xc5, 0xb1, 0x9f, 0xbc,
  0x5f, 0x42, 0x66, 0xbf, 0x1c, 0xd8, 0x2a, 0x3d, 0x3e, 0xb0, 0xf6, 0x3e,
  0xf9, 0x04, 0x73, 0x3c, 0x4e, 0x9c, 0xda, 0x3d, 0x40, 0x0a, 0xb0, 0xbd,
  0x93, 0x0f, 0x5f, 0x3e, 0xe5, 0x54, 0x9b, 0xbe, 0x60, 0x2c, 0x80, 0xbe,
  0x2d, 0x7c, 0xd8, 0x3e, 0x4e, 0x79, 0x4c, 0xbd, 0x9c, 0xfa, 0x97, 0x3c,
  0x5c, 0x84, 0x4b, 0x3e, 0x99, 0x5d, 0x95, 0x3e, 0xf9, 0x88, 0x7f, 0xbe,
  0xf8, 0x99, 0x81, 0xbd, 0x7e, 0x93, 0x9a, 0x38, 0x08, 0x54, 0xea, 0xbd,
  0xab, 0xbb, 0x82, 0x3d, 0xc8, 0x36, 0xf1, 0xbe, 0xde, 0x22, 0x98, 0xbe,
  0x9e, 0x77, 0xa8, 0xbe, 0x5e, 0xf0, 0xb6, 0x3d, 0x12, 0xf2, 0x83, 0x3e,
  0xac, 0x46, 0x24, 0xbd, 0x62, 0xc9, 0xc1, 0xbc, 0xba, 0xc1, 0xff, 0xff,
  0x04, 0x00, 0x00, 0x00, 0x00, 0x01, 0x00, 0x00, 0xda, 0x11, 0xd8, 0xbd,
  0xa4, 0x95, 0xa7, 0xbe, 0xc3, 0xb6, 0x94, 0xbe, 0xdf, 0xcf, 0x37, 0xbd,
  0x55, 0x89, 0x14, 0x3e, 0xf7, 0xf4, 0x4c, 0xbe, 0xe3, 0x8d, 0xb1, 0xbe,
  0x16, 0xc5, 0xdb, 0xbe, 0x04, 0x99, 0x1f, 0xbc, 0xef, 0xa7, 0x02, 0xbf,
  0x4d, 0x71, 0xea, 0x3d, 0xad, 0xb9, 0x9a, 0xbe, 0xb1, 0x6c, 0x83, 0xbe,
  0x6f, 0x5e, 0x83, 0xbe, 0x00, 0x5c, 0xa2, 0xbe, 0x14, 0x4e, 0xa1, 0xbe,
  0x69, 0x36, 0x38, 0xbe, 0xed, 0xfe, 0xc5, 0xbe, 0xc6, 0x66, 0xa2, 0x3e,
  0x4e, 0x4a, 0x3e, 0xbd, 0x17, 0x9a, 0x6d, 0xbe, 0x90, 0x89, 0xe9, 0xbe,
  0xb7, 0x7b, 0x91, 0x3d, 0x3c, 0x8a, 0x9d, 0xbd, 0xdd, 0x4f, 0x5b, 0xbe,
  0x31, 0xbc, 0x8c, 0xbe, 0xd6, 0x05, 0x95, 0xbc, 0x12, 0x9e, 0x1e, 0xbe,
  0x5c, 0x09, 0x0d, 0xbe, 0xdf, 0xf1, 0x09, 0xbf, 0x78, 0xd1, 0xeb, 0x3d,
  0xdf, 0x52, 0x88, 0x3e, 0x04, 0x1e, 0x86, 0xbe, 0x9b, 0xc5, 0xf4, 0xbc,
  0x1d, 0xd2, 0xa8, 0x3c, 0x73, 0xcb, 0x9c, 0xbe, 0xa4, 0x7a, 0x9b, 0xbe,
  0x8d, 0x31, 0x8c, 0x3b, 0xe7, 0xdc, 0x29, 0xbe, 0xb8, 0xf2, 0x76, 0xbd,
  0x63, 0x17, 0x94, 0xbe, 0x52, 0x3c, 0xb4, 0xbe, 0xcb, 0x89, 0x40, 0xbe,
  0x47, 0xbc, 0x6a, 0xbe, 0xb5, 0xe7, 0x77, 0xbe, 0x3c, 0x63, 0x65, 0xbe,
  0x44, 0x2e, 0x14, 0xbf, 0x83, 0x14, 0xa1, 0xbe, 0xe8, 0x77, 0x71, 0xbe,
  0x34, 0x24, 0x87, 0xbd, 0x32, 0xe9, 0x8b, 0xbe, 0x26, 0x22, 0xe3, 0xbd,
  0x9f, 0xe0, 0x25, 0xbe, 0xe0, 0x3f, 0x09, 0xbf, 0xf2, 0xcc, 0xf4, 0xbc,
  0x45, 0x08, 0xe1, 0xbe, 0x0d, 0x89, 0x9f, 0x3c, 0xd9, 0x18, 0x84, 0xbe,
  0x28, 0x4e, 0xc2, 0xbe, 0x40, 0x36, 0xb9, 0xbe, 0xf3, 0x85, 0xd0, 0xbe,
  0x9c, 0x3f, 0x85, 0x3e, 0x48, 0x4d, 0x16, 0xbe, 0xca, 0xb3, 0x49, 0xbe,
  0xc6, 0xc2, 0xff, 0xff, 0x04, 0x00, 0x00, 0x00, 0x80, 0x00, 0x00, 0x00,
  0x65, 0xea, 0x50, 0x3d, 0x20, 0x7f, 0xb9, 0xbe, 0x39, 0x6e, 0xc0, 0xbe,
  0xfb, 0xb6, 0x87, 0x3d, 0x65, 0x1a, 0xc3, 0x3e, 0x6f, 0xc1, 0xf5, 0xbd,
  0xd6, 0x4e, 0xae, 0xbd, 0x47, 0x85, 0xe7, 0x3d, 0x08, 0x12, 0x3c, 0xbd,
  0x04, 0xe0, 0x5e, 0xbe, 0x6b, 0x5a, 0xb2, 0xbe, 0x80, 0x54, 0xa6, 0x3e,
  0x90, 0x3b, 0x6d, 0xbe, 0xe8, 0x67, 0x47, 0x3d, 0x05, 0x10, 0xe6, 0xbd,
  0xa7, 0x0b, 0x5b, 0x3e, 0xb4, 0x49, 0x7d, 0xbe, 0x56, 0x00, 0x88, 0x3e,
  0xc3, 0x44, 0x3e, 0xbe, 0x05, 0x2f, 0xe1, 0xbd, 0x73, 0xc6, 0xe6, 0x3a,
  0x84, 0x96, 0xbd, 0x3e, 0xfa, 0x81, 0x28, 0x3e, 0x71, 0x2a, 0x5a, 0x3e,
  0xdc, 0x9e, 0x32, 0xbe, 0x9e, 0x0e, 0x88, 0xbd, 0x35, 0x39, 0xad, 0xbe,
  0xed, 0x5f, 0xfd, 0xbd, 0xf1, 0xb1, 0x47, 0x3e, 0xda, 0xac, 0x11, 0x3e,
  0xa9, 0xcf, 0x1d, 0xbe, 0xbc, 0x53, 0xe0, 0xbd, 0x52, 0xc3, 0xff, 0xff,
  0x04, 0x00, 0x00, 0x00, 0x00, 0x20, 0x00, 0x00, 0x96, 0x87, 0x52, 0x3d,
  0x8c, 0x1f, 0x0b, 0x3e, 0x13, 0x07, 0xed, 0x3d, 0xa9, 0xb9, 0xf0, 0x3d,
  0x44, 0xaf, 0x13, 0xbe, 0x23, 0xcc, 0x8a, 0x3d, 0x0b, 0x52, 0x09, 0x3d,
  0xbe, 0xef, 0x45, 0xbe, 0x44, 0xfe, 0x1f, 0x3e, 0x3a, 0xbe, 0xee, 0x3e,
  0x96, 0xc9, 0x0c, 0xbe, 0xf3, 0x3b, 0x81, 0xbe, 0xfd, 0x31, 0x15, 0x3d,
  0xcd, 0x18, 0x9a, 0x3e, 0xf2, 0x2a, 0x19, 0xbe, 0x6c, 0x6e, 0x13, 0xbe,
  0x02, 0x56, 0xc6, 0xbd, 0xdb, 0xa6, 0x07, 0x3e, 0x94, 0xdc, 0x2b, 0xbd,
  0xbc, 0x6d, 0x3a, 0x3e, 0xbf, 0x51, 0x4d, 0x3e, 0xf6, 0xf9, 0x1d, 0x3f,
  0xf0, 0xa3, 0x70, 0xbd, 0xa0, 0xf9, 0x76, 0x3e, 0xd6, 0x4c, 0x85, 0x3e,
  0x33, 0xf5, 0x16, 0x3e, 0x38, 0x19, 0x15, 0xbd, 0x45, 0x11, 0xa3, 0x3d,
  0x69, 0x70, 0x0c, 0xbd, 0x3c, 0x4a, 0xfb, 0xbd, 0xc4, 0x0c, 0x1e, 0xbe,
  0x13, 0x9e, 0xf4, 0x3e, 0xea, 0x74, 0x88, 0xbc, 0x81, 0x1b, 0x1b, 0x3f,
  0xb2, 0xb2, 0x4d, 0xbd, 0xee, 0xa2, 0xdd, 0xbc, 0x5f, 0xde, 0x6a, 0x3e,
  0x7f, 0x16, 0xe3, 0xbe, 0xd9, 0xf6, 0xba, 0xbd, 0xd9, 0xd4, 0xf3, 0xbd,
  0xec, 0xca, 0xc5, 0x3d, 0x65, 0x92, 0x8c, 0x3e, 0x9f, 0xbc, 0x18, 0xbf,
  0x22, 0xfe, 0xe0, 0xbe, 0x3e, 0xa6, 0x6a, 0x3d, 0xcd, 0xe8, 0x90, 0xbd,
  0x31, 0x6a, 0x42, 0x3f, 0xd0, 0xe6, 0xeb, 0xbe, 0xb8, 0xc2, 0x4f, 0xbe,
  0x90, 0x84, 0x44, 0x3e, 0xdf, 0xa3, 0xc5, 0x3c, 0x98, 0x06, 0x41, 0xbe,
  0x48, 0x8d, 0xcc, 0x3d, 0x1c, 0x79, 0x6f, 0xbe, 0x15, 0x79, 0x76, 0x3d,
  0x96, 0xe3, 0xa1, 0x3e, 0x4a, 0x09, 0xfb, 0x3d, 0x67, 0xc5, 0xae, 0xbd,
  0x94, 0x78, 0x69, 0xbf, 0x31, 0x46, 0x46, 0x3e, 0xbc, 0x99, 0x4b, 0xbf,
  0x8e, 0xed, 0x96, 0xbe, 0x8c, 0x12, 0x05, 0x3e, 0xbf, 0xe1, 0x11, 0xbf,
  0xf3, 0x9b, 0x52, 0x3e, 0xc3, 0x0d, 0x13, 0xbf, 0x81, 0xb1, 0x44, 0xbe,
  0xf1, 0x90, 0xfe, 0xbd, 0x09, 0xfb, 0x39, 0x3e, 0x78, 0x10, 0x92, 0x3e,
  0x7f, 0x4f, 0xc0, 0x3d, 0xcc, 0xbc, 0x34, 0x3e, 0xbe, 0x60, 0x7c, 0x3e,
  0xcc, 0x51, 0x82, 0x3e, 0xca, 0x79, 0x81, 0x3d, 0x36, 0xb0, 0x77, 0xbd,
  0x9d, 0xd3, 0x6e, 0x3e, 0x4e, 0xb4, 0x0f, 0x3e, 0x72, 0xa1, 0x3d, 0xbe,
  0x38, 0xef, 0x28, 0x3d, 0xab, 0xb7, 0x50, 0xbc, 0x34, 0xda, 0x9e, 0x3d,
  0xec, 0x1e, 0x3a, 0x3e, 0xfb, 0xad, 0xbf, 0x3e, 0xab, 0x5c, 0xb1, 0xbd,
  0x55, 0x43, 0x92, 0x3e, 0xc9, 0xea, 0x12, 0xbe, 0xed, 0x17, 0x6a, 0x3e,
  0x57, 0xd4, 0x74, 0x3e, 0x2a, 0x29, 0x82, 0xbe, 0xc1, 0xd4, 0x76, 0x3d,
  0x47, 0x73, 0x19, 0xbe, 0x91, 0xb8, 0x14, 0xbf, 0xe9, 0x19, 0xae, 0x3e,
  0x2b, 0xe9, 0x76, 0xbd, 0x33, 0x89, 0x5c, 0xbc, 0xac, 0x04, 0x8d, 0xbd,
  0xb7, 0x0c, 0x03, 0xbe, 0xbb, 0x45, 0x26, 0x3f, 0x9f, 0xb6, 0x79, 0x3e,
  0xbb, 0xb5, 0x57, 0xbd, 0x02, 0xd7, 0x97, 0x3d, 0xfc, 0x7c, 0x35, 0xbd,
  0x78, 0x7f, 0x92, 0xbe, 0xd7, 0x0a, 0xba, 0xbe, 0x81, 0x36, 0x4b, 0x3f,
  0x46, 0xcd, 0x49, 0x3e, 0x09, 0x77, 0xa7, 0xbd, 0x96, 0x62, 0x0f, 0x3e,
  0xb8, 0x13, 0x00, 0xbd, 0x52, 0xc4, 0x5d, 0xbf, 0x68, 0xfa, 0xfb, 0xbd,
  0x80, 0x01, 0xd0, 0xbc, 0x18, 0x39, 0x99, 0x3e, 0xb1, 0x8a, 0xba, 0x3c,
  0xd2, 0xfc, 0x02, 0x3e, 0x82, 0xc6, 0x9a, 0x3e, 0x44, 0x8e, 0xf3, 0x3e,
  0xcc, 0x8e, 0xbd, 0x3e, 0xc7, 0xca, 0xaa, 0xbd, 0x04, 0xcc, 0xa6, 0x3c,
  0xfc, 0x2f, 0xcc, 0xbb, 0xe1, 0xf1, 0xa5, 0xbe, 0x8f, 0x9a, 0xae, 0xbe,
  0x03, 0x38, 0xa5, 0x3e, 0x70, 0x87, 0x19, 0xbe, 0x35, 0xac, 0x07, 0x3e,
  0xde, 0xa3, 0xbb, 0x3e, 0xcb, 0x04, 0x45, 0x3d, 0xdd, 0xab, 0x33, 0xbd,
  0x8b, 0x9e, 0x11, 0x3c, 0x70, 0x7b, 0x07, 0xbe, 0x90, 0xbc, 0x8a, 0x3d,
  0x20, 0x5f, 0xb0, 0x3c, 0xf0, 0x91, 0xe3, 0x3d, 0x03, 0xe5, 0x5f, 0xbd,
  0x8e, 0xb8, 0x13, 0xbd, 0x75, 0x92, 0x1d, 0x3f, 0x38, 0x4f, 0xf8, 0x3d,
  0x6e, 0xc0, 0x19, 0x3e, 0x5f, 0x59, 0xd1, 0x3e, 0x26, 0x98, 0x2c, 0x3e,
  0xf7, 0xb0, 0x3b, 0xbf, 0xd1, 0xca, 0xbe, 0x3e, 0x92, 0x0e, 0xcc, 0xbe,
  0x0c, 0x5b, 0xbe, 0xbe, 0x10, 0x34, 0x90, 0xbe, 0x11, 0xe6, 0xf2, 0x3d,
  0xd0, 0xa2, 0x88, 0xbe, 0x8f, 0x99, 0xb6, 0x3e, 0x3c, 0xa0, 0x50, 0x3e,
  0x72, 0xe9, 0x0f, 0x3f, 0x16, 0x05, 0x5b, 0xbe, 0x0a, 0x66, 0xaa, 0x3d,
  0x24, 0x74, 0xc7, 0x3e, 0x72, 0xd3, 0xa6, 0xbd, 0x53, 0xeb, 0xd7, 0xbe,
  0xe1, 0x15, 0x90, 0x3e, 0x66, 0x9f, 0xbd, 0x3d, 0xf4, 0x0e, 0xce, 0x3d,
  0x61, 0xd8, 0x4e, 0x3e, 0x51, 0x22, 0x4d, 0xbd, 0x07, 0x71, 0xc8, 0x3e,
  0x66, 0x89, 0x60, 0x3d, 0xbf, 0xc6, 0x95, 0x3e, 0x69, 0xb9, 0x63, 0xbd,
  0x2a, 0x84, 0x88, 0xbd, 0x7f, 0x1f, 0xcf, 0xbe, 0xd9, 0xe7, 0xc7, 0xbd,
  0xdb, 0x2f, 0x7d, 0x3e, 0xe2, 0x3b, 0xf8, 0x3d, 0x3b, 0xe2, 0xa2, 0xbe,
  0x0f, 0x27, 0x82, 0xbe, 0x3a, 0xb6, 0x9e, 0x3e, 0x2a, 0xbf, 0x43, 0xbf,
  0xea, 0x10, 0x49, 0xbe, 0xea, 0xfb, 0xb4, 0x3c, 0xc7, 0xb8, 0x96, 0x3d,
  0xf1, 0x0d, 0x09, 0xbe, 0x52, 0xf1, 0xa5, 0x3e, 0x27, 0x6e, 0x89, 0x3d,
  0xd3, 0x8e, 0x09, 0x3f, 0xb2, 0xd7, 0x62, 0x3e, 0x8a, 0x60, 0x86, 0x3e,
  0x9a, 0x13, 0x50, 0x3e, 0x74, 0x7d, 0x2e, 0xbe, 0xc8, 0x93, 0xdd, 0xbe,
  0x26, 0x36, 0x98, 0xbe, 0xd7, 0xdc, 0xb7, 0x3e, 0x48, 0x7d, 0x2e, 0x3a,
  0xfa, 0xc4, 0x28, 0x3d, 0x22, 0xed, 0xb5, 0x3e, 0x03, 0x88, 0x72, 0xbe,
  0xa0, 0x8b, 0x05, 0xbe, 0xdc, 0xf5, 0x54, 0xbd, 0xd8, 0x33, 0xe8, 0xbe,
  0x40, 0xa2, 0x05, 0x3e, 0x8b, 0xd2, 0x6b, 0x3e, 0x36, 0xf7, 0xf4, 0xbe,
  0x16, 0xe0, 0x5a, 0x3e, 0x42, 0x43, 0x1f, 0x3e, 0x09, 0x6a, 0x7b, 0xbe,
  0xef, 0x06, 0xc3, 0x3c, 0xa0, 0x7d, 0x33, 0xbe, 0xd7, 0xee, 0x1a, 0xbe,
  0x0c, 0xc6, 0xb1, 0xbc, 0x8a, 0xa6, 0xb9, 0xbe, 0xcd, 0x1b, 0x44, 0xbe,
  0x9d, 0x22, 0x14, 0xbf, 0x3e, 0xee, 0xfb, 0x3c, 0x49, 0xe1, 0x39, 0xbf,
  0xc4, 0x38, 0x12, 0xbf, 0xf4, 0x0b, 0x97, 0xbe, 0x78, 0xd3, 0x60, 0x3d,
  0x54, 0xcc, 0x80, 0xbd, 0x6e, 0x7e, 0x19, 0x3e, 0xb2, 0x7f, 0x25, 0xbf,
  0xfc, 0xe9, 0xa0, 0x3c, 0x86, 0x80, 0xf2, 0xb9, 0xd4, 0x4b, 0x33, 0xbf,
  0xb3, 0xe4, 0x1d, 0x3e, 0x40, 0x42, 0xec, 0xbd, 0xe8, 0x4e, 0x34, 0x3d,
  0x46, 0x09, 0xa4, 0x3e, 0xa2, 0x1b, 0xc1, 0xbe, 0xc8, 0x32, 0x11, 0xbe,
  0x5e, 0xf7, 0x98, 0x3d, 0xdf, 0x59, 0x07, 0xbe, 0x41, 0xaf, 0x1b, 0xbb,
  0xe4, 0x32, 0x00, 0x3d, 0xac, 0x69, 0x8e, 0x3e, 0x3e, 0xf8, 0x91, 0x3c,
  0xb6, 0x29, 0xf5, 0x3d, 0x95, 0x57, 0x13, 0xbf, 0xf2, 0x1d, 0x10, 0x3e,
  0x5f, 0x22, 0x3f, 0xbe, 0x19, 0xac, 0xc1, 0x3e, 0x06, 0x9a, 0x87, 0xbd,
  0x51, 0x0a, 0x30, 0x3f, 0x91, 0xca, 0x03, 0xbe, 0x5b, 0x61, 0xf7, 0x3d,
  0xa5, 0xb4, 0x87, 0x3e, 0x16, 0x8b, 0x0c, 0x3c, 0xe4, 0x73, 0x94, 0xbd,
  0x38, 0x3b, 0x83, 0xbe, 0x0b, 0x72, 0xb7, 0xbc, 0xec, 0x21, 0xe5, 0x3c,
  0x29, 0x27, 0xe3, 0xbd, 0xf8, 0xe7, 0x11, 0x3d, 0xd8, 0xc4, 0x9f, 0x3e,
  0xd8, 0x36, 0xe5, 0xbc, 0x1b, 0xfa, 0x89, 0x3e, 0x2b, 0x57, 0xd4, 0xbe,
  0x1c, 0x52, 0x99, 0xbd, 0xf9, 0xa6, 0xe3, 0xbe, 0xa1, 0xbf, 0x8c, 0xbd,
  0xf8, 0x04, 0x49, 0xbe, 0x3a, 0x5f, 0xed, 0x3d, 0xa6, 0x8e, 0xa8, 0x3d,
  0xf8, 0x28, 0x8f, 0xbe, 0x7e, 0xbc, 0x1e, 0x3e, 0x6f, 0xcd, 0x95, 0xbf,
  0xd0, 0xc2, 0xd6, 0x3e, 0xe4, 0x4d, 0xe7, 0x3d, 0xb1, 0xd3, 0x46, 0xbe,
  0x44, 0xe5, 0x97, 0xbe, 0x05, 0xd9, 0xf9, 0x3e, 0xb7, 0x6b, 0x02, 0x3e,
  0x9c, 0x31, 0xe2, 0x3e, 0xea, 0x0f, 0x8b, 0xbd, 0xd2, 0xbd, 0x4e, 0xbe,
  0x64, 0x71, 0x8b, 0xbc, 0xd1, 0xf0, 0x9a, 0xbe, 0xb9, 0x28, 0x00, 0x3e,
  0x8c, 0x37, 0x60, 0x3d, 0x25, 0x4c, 0x53, 0x3e, 0xd3, 0xba, 0xdc, 0xbe,
  0xb2, 0x1a, 0x02, 0xbf, 0xab, 0xa3, 0xa1, 0x3e, 0xce, 0x69, 0xc7, 0x3d,
  0x9f, 0x26, 0x7a, 0x3e, 0x97, 0xab, 0x83, 0xbd, 0x3c, 0x37, 0xe7, 0x3d,
  0x6f, 0xad, 0x07, 0xbd, 0xa4, 0xbc, 0x07, 0xbd, 0xb8, 0xb1, 0xe7, 0xbe,
  0x7b, 0xb1, 0x2c, 0x3e, 0x0e, 0x26, 0x70, 0x3c, 0x0a, 0x4e, 0xfa, 0x3e,
  0xf3, 0x46, 0x19, 0x3d, 0xca, 0x0f, 0xfe, 0xbd, 0x01, 0xf6, 0xc6, 0xbd,
  0xed, 0xeb, 0x92, 0x3e, 0xe2, 0xd5, 0x29, 0x3e, 0x43, 0xf1, 0x7b, 0x3e,
  0x4f, 0x74, 0x97, 0x3d, 0xd3, 0xfb, 0x60, 0xbe, 0x1b, 0xf6, 0x0d, 0xbd,
  0x8c, 0x07, 0x2b, 0xbe, 0xb4, 0x77, 0x09, 0xbe, 0x9e, 0x05, 0x5c, 0x3c,
  0xfd, 0x3d, 0xda, 0x3c, 0x76, 0xb3, 0x21, 0xbf, 0x5b, 0x70, 0x79, 0xbe,
  0x05, 0xc3, 0xee, 0x3d, 0x32, 0x37, 0x16, 0x3e, 0x41, 0x48, 0x31, 0x3e,
  0x2a, 0xbd, 0x1f, 0xbe, 0x10, 0x7e, 0x1e, 0xbf, 0xd8, 0x21, 0x16, 0x3e,
  0x13, 0x3c, 0xff, 0x3c, 0xb2, 0xd6, 0xb0, 0xbe, 0x17, 0x74, 0x66, 0x3e,
  0xdc, 0xef, 0x39, 0x38, 0x2e, 0x00, 0x93, 0xbe, 0x7a, 0x2a, 0x65, 0x3e,
  0xed, 0xb3, 0x23, 0x3f, 0xa0, 0xe5, 0x99, 0x3d, 0xa9, 0x3c, 0x48, 0xbe,
  0x8c, 0x25, 0x08, 0xbe, 0xcc, 0x3c, 0x74, 0xbe, 0x26, 0xa1, 0xe9, 0xbe,
  0xf0, 0xc4, 0x05, 0x3e, 0x24, 0x18, 0xdf, 0xbd, 0x3b, 0x88, 0x4c, 0xbd,
  0x65, 0xff, 0xa1, 0x3e, 0x32, 0xd4, 0x56, 0xbd, 0xf2, 0xfb, 0xa6, 0xbe,
  0x70, 0x42, 0x85, 0x3e, 0xbe, 0x46, 0xe4, 0x3e, 0x17, 0x21, 0xa2, 0x3d,
  0x47, 0x05, 0x4a, 0x3e, 0xe1, 0xef, 0x57, 0xbd, 0xf9, 0xf7, 0x80, 0x3e,
  0xcf, 0xa0, 0x91, 0x3e, 0x50, 0xb6, 0x2c, 0xbd, 0x08, 0x7d, 0x7c, 0xbe,
  0xcf, 0xf6, 0x02, 0xbe, 0xad, 0x24, 0x17, 0x3e, 0x09, 0xe5, 0x99, 0xbd,
  0xce, 0x90, 0x68, 0x3e, 0x3c, 0x99, 0x96, 0x3e, 0x1c, 0x33, 0x2d, 0xbf,
  0xdf, 0xec, 0xfe, 0xbd, 0x82, 0x4d, 0x80, 0xbf, 0xb7, 0x1e, 0xfb, 0xbd,
  0x39, 0x89, 0x63, 0xbe, 0xd3, 0x13, 0x93, 0x3d, 0x5f, 0xd3, 0xb9, 0x3d,
  0xed, 0x9c, 0x2a, 0xbf, 0xc3, 0xd3, 0x1d, 0xbe, 0x59, 0x8f, 0x86, 0xbd,
  0x57, 0x54, 0x9a, 0xbe, 0x6e, 0xb5, 0x13, 0x3e, 0xd1, 0x59, 0x34, 0x3e,
  0x9b, 0x22, 0x2c, 0x3e, 0xa1, 0x7c, 0x01, 0xbe, 0xc6, 0x4c, 0xff, 0x3b,
  0x2c, 0x43, 0x21, 0x3e, 0xb7, 0xb4, 0x38, 0xbe, 0x49, 0x34, 0x96, 0x3e,
  0xc4, 0x20, 0x2c, 0x3e, 0xb4, 0xf6, 0x36, 0x3e, 0x35, 0xc9, 0x5c, 0x3e,
  0xad, 0x65, 0xed, 0x3d, 0x67, 0xff, 0x4f, 0x3e, 0xe7, 0x92, 0x59, 0xbe,
  0x15, 0x47, 0x55, 0x3e, 0xf8, 0x77, 0xde, 0x3c, 0x27, 0x50, 0x4e, 0xbe,
  0x44, 0x7d, 0xcc, 0xbe, 0xc5, 0xb4, 0xf2, 0x3c, 0xac, 0xad, 0xf6, 0x3e,
  0xe5, 0x8e, 0xb9, 0x3d, 0x79, 0x85, 0x55, 0x3e, 0x20, 0x15, 0x08, 0x3e,
  0x6c, 0x8b, 0x05, 0xbe, 0xf8, 0x54, 0xc6, 0x3e, 0x5b, 0x70, 0xd3, 0xbd,
  0x6f, 0x6b, 0x3b, 0xbf, 0xc3, 0xdf, 0xd9, 0xbe, 0x61, 0x6f, 0x3c, 0xbf,
  0x40, 0x93, 0x12, 0x3d, 0x94, 0xf3, 0x46, 0xbe, 0x08, 0x60, 0x2c, 0xbe,
  0x96, 0x27, 0x59, 0xbd, 0x40, 0x96, 0xb8, 0x3b, 0xdb, 0xb5, 0x03, 0x3e,
  0x94, 0xd8, 0xe7, 0x3d, 0xd9, 0x5d, 0x9f, 0xbb, 0x54, 0xe7, 0x27, 0xbe,
  0x9a, 0x9b, 0x47, 0xbe, 0x56, 0x28, 0x15, 0xbe, 0x31, 0xc4, 0x0f, 0x3e,
  0x65, 0x2f, 0x42, 0xbe, 0x16, 0x24, 0x85, 0x3d, 0x5f, 0x18, 0xe2, 0x3d,
  0xd5, 0x28, 0x1e, 0xbe, 0xc9, 0x64, 0xdc, 0xbd, 0xe6, 0x8b, 0x0f, 0x3e,
  0x77, 0xef, 0x77, 0xbe, 0xda, 0x52, 0xab, 0xbc, 0x5b, 0xd8, 0x8e, 0xbe,
  0xe3, 0xed, 0x1e, 0xbb, 0xff, 0xf5, 0x1c, 0xbe, 0x80, 0xa0, 0x3d, 0xbe,
  0x93, 0xf0, 0xbc, 0xbd, 0xe1, 0xcc, 0x94, 0x3d, 0x1a, 0x69, 0xb7, 0xbd,
  0xc6, 0x84, 0x6f, 0xbe, 0x90, 0xe0, 0x70, 0xbd, 0x63, 0x53, 0x16, 0xbd,
  0x5f, 0x45, 0x07, 0xbe, 0xe5, 0x8f, 0x3c, 0x3d, 0xd9, 0xff, 0x81, 0xbd,
  0x3c, 0x43, 0x8c, 0xbe, 0x01, 0x78, 0xc1, 0xbd, 0xb8, 0xff, 0x10, 0xbe,
  0x2e, 0x2e, 0xcb, 0x3d, 0x77, 0x41, 0x6f, 0xbe, 0x7f, 0x99, 0x0c, 0x3d,
  0x8f, 0xcf, 0xa8, 0x3d, 0x7b, 0x1b, 0xc4, 0x3d, 0xcf, 0xda, 0x53, 0x3e,
  0x82, 0xac, 0xa6, 0xbd, 0x02, 0x50, 0x87, 0xbd, 0xec, 0xc7, 0x28, 0xbe,
  0x45, 0x0c, 0x07, 0x3e, 0xb8, 0x44, 0xf7, 0x3d, 0x68, 0x5b, 0xdf, 0xbd,
  0x71, 0x7f, 0xeb, 0xbd, 0x83, 0xeb, 0x69, 0xbd, 0xf0, 0x61, 0x64, 0x3d,
  0x0d, 0x77, 0x4e, 0xbc, 0xd3, 0xa8, 0x57, 0xbe, 0x0c, 0x0a, 0xa5, 0x3d,
  0x25, 0x83, 0x17, 0x3e, 0xfa, 0xde, 0x3d, 0xbd, 0x90, 0x80, 0x03, 0xbe,
  0x7b, 0x37, 0xbd, 0x3d, 0x8e, 0x9a, 0xea, 0xba, 0xdf, 0x0d, 0x7f, 0xbd,
  0x94, 0x49, 0x73, 0xbe, 0xff, 0xc8, 0x81, 0x3d, 0x3b, 0x9c, 0xbd, 0x3c,
  0x5e, 0xf6, 0x6d, 0xbe, 0x43, 0xbb, 0x52, 0xbe, 0xb6, 0x12, 0x26, 0x3d,
  0xa6, 0x4e, 0xa3, 0x3e, 0x12, 0x17, 0xb6, 0xbd, 0xc3, 0x15, 0x2a, 0xbe,
  0x8c, 0x57, 0xd2, 0x3d, 0xfa, 0x1f, 0x3c, 0xbe, 0x0c, 0xb0, 0x3a, 0xbe,
  0x1c, 0xa3, 0xfc, 0xbc, 0x7e, 0xce, 0xb4, 0x3e, 0xdf, 0x5c, 0xc2, 0x3e,
  0x4b, 0x80, 0x87, 0xbd, 0x6a, 0xd2, 0x5d, 0xbe, 0xc0, 0x49, 0xae, 0xbe,
  0x7e, 0x96, 0x8d, 0x3e, 0x9c, 0xd3, 0x47, 0x3e, 0x5a, 0x70, 0x36, 0xbe,
  0xb0, 0xaa, 0x4f, 0x3c, 0x3a, 0x64, 0x99, 0xbe, 0x9c, 0xc9, 0xba, 0xbd,
  0x92, 0x88, 0x98, 0xbe, 0x1e, 0x11, 0xbf, 0xbe, 0x79, 0xbf, 0xa6, 0x3e,
  0x0f, 0xb1, 0x48, 0x3e, 0x25, 0xb1, 0x66, 0x3e, 0x55, 0xc1, 0x8d, 0x3e,
  0x88, 0x1c, 0x23, 0xbe, 0x0d, 0xc6, 0xb1, 0xbe, 0x1e, 0x61, 0x92, 0x3d,
  0x59, 0xcc, 0xb0, 0x3d, 0x76, 0x9a, 0x21, 0x3e, 0xe7, 0xe7, 0x8d, 0x3e,
  0x31, 0xec, 0xa7, 0xbd, 0x1c, 0x90, 0x15, 0xbd, 0x5f, 0x69, 0x01, 0x3e,
  0xee, 0xf6, 0x00, 0x3e, 0x6e, 0xc2, 0xdd, 0x3e, 0xe2, 0x60, 0xca, 0xbe,
  0x02, 0xc2, 0x79, 0xbe, 0xa2, 0xa2, 0xd2, 0x3e, 0x0d, 0x46, 0xb9, 0xbc,
  0xd8, 0x73, 0x87, 0xbe, 0xde, 0x45, 0x54, 0x3e, 0x9a, 0x0c, 0x0d, 0xbe,
  0x6b, 0xbc, 0x09, 0x3e, 0x4f, 0x90, 0x49, 0x3d, 0xad, 0x20, 0xb0, 0xbe,
  0x23, 0x55, 0x5e, 0x3d, 0x85, 0x06, 0x2c, 0xbe, 0xae, 0x02, 0x69, 0x3d,
  0x38, 0x91, 0xd9, 0x3c, 0x55, 0xc2, 0x46, 0x3f, 0xdc, 0xa9, 0x21, 0x3e,
  0x01, 0x8b, 0xb1, 0x3e, 0x6b, 0xc6, 0xc5, 0x3e, 0xef, 0x5f, 0x08, 0x3f,
  0xfc, 0x3b, 0xcc, 0x3e, 0x39, 0x52, 0xdc, 0xbe, 0xea, 0xc0, 0x34, 0x3e,
  0x6f, 0x77, 0x8d, 0xbe, 0x68, 0x7b, 0xbd, 0xbe, 0xe6, 0x84, 0xc4, 0xbd,
  0x07, 0x00, 0x0e, 0xbe, 0x50, 0xbd, 0x5a, 0xbd, 0x90, 0xdd, 0x06, 0xbe,
  0x78, 0x93, 0x4c, 0xbf, 0xd2, 0xeb, 0x26, 0x3d, 0x11, 0x64, 0xc9, 0xbe,
  0x14, 0x2f, 0x19, 0xbc, 0xa2, 0xae, 0x02, 0xbe, 0xfa, 0xe0, 0x93, 0xbd,
  0x48, 0x7b, 0x29, 0x3e, 0x4f, 0x33, 0x33, 0xbf, 0x6f, 0x8a, 0x17, 0xbf,
  0x3f, 0x58, 0x4b, 0x3d, 0xa9, 0xe2, 0x42, 0xbf, 0x0f, 0xdf, 0x80, 0xbd,
  0xd3, 0xa8, 0xd9, 0x3d, 0x1b, 0x2d, 0x9c, 0x3e, 0xa2, 0x36, 0xbd, 0xbe,
  0x58, 0x1b, 0x05, 0xbe, 0x5e, 0x4a, 0x4a, 0x3e, 0x1e, 0x99, 0x86, 0x3e,
  0xbf, 0xe8, 0xa4, 0x3e, 0x3a, 0x34, 0x6f, 0xbe, 0x71, 0x57, 0x6b, 0x3e,
  0x69, 0x7c, 0xe5, 0x3e, 0xb4, 0xa1, 0x15, 0xbf, 0x78, 0xce, 0xfe, 0xbd,
  0xc3, 0x43, 0xbc, 0xbe, 0xf6, 0x4e, 0x5f, 0x3e, 0x37, 0xe7, 0x2f, 0x3e,
  0x24, 0x81, 0x21, 0x3c, 0x76, 0x7b, 0xdc, 0x3d, 0x3c, 0x49, 0x96, 0xbe,
  0x88, 0xe3, 0x4b, 0xbc, 0x82, 0x81, 0x41, 0xbe, 0x87, 0xae, 0x06, 0x3e,
  0xa9, 0x91, 0x31, 0xbd, 0x91, 0xad, 0xbc, 0x3d, 0xce, 0x4c, 0xad, 0xbc,
  0xc4, 0x2f, 0x13, 0xbe, 0x26, 0x71, 0xcd, 0xbd, 0x4a, 0x63, 0x39, 0xbe,
  0x13, 0xe3, 0xec, 0x3e, 0x14, 0x35, 0x21, 0x3f, 0x75, 0xbe, 0x9f, 0xbe,
  0xb0, 0xe2, 0x43, 0x3e, 0xe7, 0xc2, 0x8c, 0xbd, 0xd3, 0x70, 0xa2, 0xbd,
  0x4e, 0x52, 0xec, 0x3d, 0xaa, 0x0e, 0x5e, 0xbe, 0xad, 0x4d, 0x14, 0x3f,
  0xd6, 0xee, 0x30, 0xbe, 0x7b, 0x87, 0x8b, 0xbd, 0x0f, 0x43, 0x09, 0xbf,
  0xff, 0x57, 0x96, 0xbe, 0x9a, 0xa6, 0x0a, 0xbd, 0x1e, 0x17, 0x88, 0x3e,
  0xdf, 0xcb, 0x75, 0x3d, 0xc8, 0xca, 0x38, 0x3f, 0x30, 0x6a, 0xfc, 0xbd,
  0x52, 0xda, 0x54, 0xbe, 0xfe, 0x62, 0x8c, 0x3d, 0x64, 0xe4, 0x63, 0xbd,
  0xff, 0xb0, 0x37, 0x3e, 0xc4, 0xac, 0xa2, 0xbd, 0xe0, 0xf5, 0xcd, 0x3d,
  0xdf, 0x35, 0x8f, 0x39, 0xbd, 0x2d, 0xf2, 0xbc, 0x38, 0x45, 0x17, 0x3d,
  0x6e, 0xb6, 0x6f, 0xbd, 0x15, 0xe4, 0x84, 0x3d, 0x76, 0x80, 0x7e, 0x3e,
  0x8a, 0xd7, 0x93, 0xbe, 0xcd, 0x7e, 0xf7, 0xbd, 0x09, 0x2f, 0xe2, 0xbe,
  0x2d, 0x33, 0x50, 0xbb, 0x4c, 0x4b, 0x89, 0x3e, 0xe4, 0x8e, 0xbc, 0x3d,
  0x66, 0x0d, 0xcd, 0xbd, 0xc8, 0x05, 0x86, 0xbe, 0x92, 0x04, 0x6d, 0x3e,
  0xa0, 0x7d, 0x13, 0xbd, 0xf4, 0x28, 0x42, 0xbe, 0x5f, 0x8d, 0x4b, 0xbe,
  0x08, 0xc6, 0xf7, 0x3d, 0x5a, 0x1a, 0xd1, 0xbc, 0xd2, 0x14, 0xed, 0x3d,
  0xc4, 0x4f, 0xc8, 0xbe, 0xf3, 0xd5, 0x00, 0xbf, 0x41, 0x93, 0x18, 0x3f,
  0x90, 0xab, 0x3f, 0xbe, 0xd1, 0x88, 0xb6, 0xbd, 0x8a, 0x18, 0x9a, 0x3e,
  0x4d, 0x5c, 0xe2, 0x3e, 0x94, 0xe8, 0x92, 0x3e, 0x59, 0x7d, 0x5b, 0x3e,
  0x33, 0xd1, 0xd2, 0xbc, 0xd2, 0x53, 0x2d, 0x3e, 0x4c, 0xb9, 0x07, 0xbf,
  0x54, 0x63, 0x94, 0xbe, 0xc3, 0x9e, 0x02, 0xbf, 0x26, 0xbf, 0x8e, 0x3e,
  0x4d, 0xcb, 0xb6, 0x3c, 0xc0, 0x6b, 0x24, 0xbb, 0x73, 0x56, 0xcd, 0xbd,
  0x99, 0x62, 0x38, 0x3d, 0x99, 0x5b, 0x02, 0xbf, 0x97, 0x17, 0x61, 0x3e,
  0x5a, 0x8f, 0xcf, 0x3e, 0xaa, 0x9e, 0x63, 0xbf, 0xe1, 0xb2, 0x16, 0x3d,
  0x61, 0x07, 0x87, 0xbd, 0x1b, 0x1b, 0xcf, 0xbe, 0xcc, 0x04, 0x30, 0x3e,
  0x8d, 0xab, 0x8d, 0x3e, 0xfb, 0x59, 0xd2, 0xbd, 0xf4, 0xe6, 0x67, 0x3e,
  0xcf, 0x63, 0x47, 0xbe, 0x87, 0x79, 0x7b, 0x3e, 0xca, 0xa5, 0x6e, 0x3d,
  0x95, 0xeb, 0x24, 0xbd, 0xa9, 0x34, 0x1e, 0xbe, 0x41, 0x25, 0xa8, 0x3c,
  0xcc, 0x0a, 0x3e, 0xbd, 0x26, 0x2f, 0x42, 0xbd, 0xc3, 0xac, 0x99, 0xbf,
  0x50, 0xb9, 0xd2, 0xbe, 0xd7, 0x81, 0x9c, 0x3e, 0x91, 0xa7, 0xc2, 0xbd,
  0x0d, 0x29, 0x6f, 0x3e, 0x62, 0xbc, 0x83, 0xbc, 0x96, 0x5f, 0xb3, 0xbd,
  0xf2, 0x62, 0xb5, 0xbd, 0x65, 0x56, 0xc1, 0xbc, 0x09, 0xa0, 0xaa, 0xbe,
  0x93, 0xc9, 0xe0, 0x3d, 0x8e, 0x30, 0xfc, 0x3e, 0xe9, 0x3f, 0x85, 0x3d,
  0xe6, 0x03, 0x2e, 0xbd, 0x44, 0x4d, 0x4a, 0xbd, 0xf6, 0x67, 0x69, 0x3d,
  0x36, 0x3b, 0xb8, 0x3e, 0xe7, 0x6b, 0x58, 0x3c, 0x4f, 0xdf, 0x85, 0xbe,
  0xd9, 0x74, 0x5f, 0xbe, 0x72, 0x61, 0x8b, 0xbb, 0x7d, 0x8d, 0xb3, 0x3d,
  0x7d, 0xb7, 0xca, 0xbd, 0x41, 0xac, 0x77, 0xbe, 0x5c, 0x42, 0xa0, 0x3e,
  0x57, 0xbc, 0x0b, 0xbf, 0x46, 0x9c, 0x1e, 0xbf, 0xf1, 0x92, 0x98, 0xbe,
  0xb9, 0xdf, 0xa1, 0x3e, 0x3e, 0x1c, 0x55, 0x3c, 0x9d, 0x84, 0x0f, 0xbe,
  0x2c, 0x4e, 0xea, 0xbe, 0x42, 0x84, 0xce, 0xbe, 0x31, 0x95, 0x96, 0xbe,
  0x11, 0xe5, 0x12, 0xbe, 0x2c, 0x51, 0xd0, 0xbd, 0x22, 0xb5, 0x99, 0xbe,
  0x44, 0x6d, 0xa3, 0x3d, 0xa2, 0x83, 0x3e, 0x3f, 0xde, 0xf9, 0x75, 0xbd,
  0xb5, 0xab, 0xd1, 0xbe, 0x41, 0xf4, 0x29, 0x3d, 0x85, 0xf8, 0x9a, 0xbe,
  0x69, 0xbd, 0x70, 0x3c, 0x4d, 0xc1, 0xa9, 0x3c, 0x4b, 0xea, 0xb4, 0xbe,
  0xfd, 0xc7, 0xe8, 0xbe, 0x87, 0x22, 0xb7, 0xbd, 0xd1, 0x14, 0x8b, 0xbe,
  0x70, 0x6a, 0xbc, 0x3c, 0xa1, 0x57, 0x87, 0xbd, 0xcd, 0x0d, 0xe2, 0xbc,
  0xd5, 0x97, 0xb6, 0x3e, 0xe5, 0x69, 0x7b, 0x3e, 0x72, 0xbe, 0x75, 0xbe,
  0x61, 0xcf, 0xe5, 0x3c, 0x11, 0x11, 0x07, 0xbf, 0xe5, 0x1a, 0x60, 0x3d,
  0xc9, 0x93, 0xc4, 0x3d, 0xc7, 0x48, 0x8f, 0x3d, 0xae, 0xb3, 0x00, 0xbf,
  0xa0, 0xf4, 0x01, 0xbe, 0xd9, 0x60, 0xd2, 0xbd, 0x68, 0x1e, 0x6d, 0xbe,
  0x6d, 0xb9, 0x20, 0x3e, 0x3b, 0x03, 0x94, 0x3e, 0x1f, 0x59, 0xd4, 0x3d,
  0x2b, 0x5b, 0x46, 0x3e, 0xc2, 0xec, 0x48, 0xbe, 0x3d, 0xcb, 0xff, 0x3e,
  0xb3, 0x37, 0x07, 0xbe, 0xb6, 0x6e, 0x68, 0x3e, 0xd5, 0xa6, 0x5d, 0x3e,
  0x76, 0x11, 0x84, 0x3e, 0x02, 0x1a, 0xc4, 0x3e, 0xc5, 0x5d, 0x2e, 0x3d,
  0x3d, 0x67, 0x54, 0x3e, 0x08, 0x9e, 0x90, 0xbe, 0xce, 0x28, 0xda, 0xbd,
  0xab, 0x8f, 0x8f, 0x3e, 0x2c, 0x21, 0xdc, 0xbe, 0x5b, 0xc4, 0x8a, 0xbe,
  0x03, 0xf9, 0xaf, 0xbe, 0xf5, 0x90, 0x70, 0x3e, 0xe4, 0xfb, 0xd9, 0xbb,
  0x22, 0x2a, 0x27, 0xbf, 0x26, 0x17, 0x87, 0xba, 0x84, 0x4f, 0x82, 0xbe,
  0x19, 0x16, 0xd4, 0x3e, 0xdd, 0xec, 0x83, 0x3e, 0xe5, 0xea, 0xea, 0xbc,
  0x2d, 0x0b, 0x0b, 0xbe, 0x06, 0x00, 0xac, 0x3d, 0xb5, 0xff, 0xd9, 0xbe,
  0xd7, 0xc7, 0xa6, 0xbc, 0x10, 0x5d, 0x81, 0xbd, 0xf7, 0x11, 0x89, 0xbe,
  0x75, 0x10, 0x72, 0xbf, 0xc2, 0xf6, 0xf7, 0xbd, 0xae, 0x25, 0x56, 0x3e,
  0x3c, 0xca, 0x06, 0x3d, 0xc0, 0x7c, 0xad, 0xbd, 0x5f, 0xd8, 0x72, 0x3d,
  0x1a, 0x5f, 0xc2, 0x3e, 0x3f, 0xb0, 0x8a, 0x3e, 0x9d, 0x68, 0x0e, 0xbe,
  0xc1, 0x59, 0x5a, 0xbe, 0x0f, 0x19, 0x1f, 0x3b, 0x5c, 0x5d, 0x3b, 0xbe,
  0x00, 0x80, 0x88, 0x3e, 0x0c, 0x86, 0xf9, 0x3e, 0xf6, 0x7f, 0x0e, 0xbf,
  0xbc, 0x56, 0xe1, 0xbe, 0xb2, 0x2f, 0x8f, 0xbd, 0x9a, 0xe5, 0x17, 0xbf,
  0x2b, 0xc4, 0x38, 0xbd, 0x39, 0x85, 0x3f, 0xba, 0x8c, 0x19, 0x8c, 0xbe,
  0x36, 0x7a, 0x79, 0xbe, 0x53, 0xd0, 0x48, 0xbb, 0x41, 0xd8, 0x21, 0xbf,
  0xd8, 0x06, 0x80, 0xbe, 0xed, 0xae, 0x2f, 0xbe, 0x63, 0x0c, 0x74, 0x3c,
  0x7a, 0x31, 0xc4, 0xbe, 0x3b, 0x7c, 0x21, 0xbf, 0xcb, 0xe2, 0x82, 0xbe,
  0xae, 0x72, 0x97, 0x3d, 0x26, 0x0d, 0x71, 0x3e, 0x8a, 0x74, 0x6b, 0xbe,
  0x5d, 0x6a, 0x95, 0x3e, 0xee, 0x1e, 0xfc, 0xbe, 0x16, 0xe0, 0xb7, 0x3e,
  0x85, 0x64, 0x6f, 0x3e, 0x68, 0x23, 0x2b, 0x3e, 0xc2, 0xcc, 0x2e, 0x3e,
  0x0b, 0x42, 0x21, 0x3e, 0x99, 0x0a, 0x1b, 0x3c, 0x53, 0x7a, 0x43, 0xbe,
  0x71, 0xfd, 0x63, 0xbe, 0x55, 0x77, 0x2b, 0xbe, 0xa1, 0x96, 0x80, 0xbe,
  0xd8, 0xd3, 0x0d, 0xbe, 0x17, 0xf1, 0xda, 0x3c, 0x00, 0x64, 0xae, 0x3e,
  0xd1, 0x05, 0xaa, 0xbe, 0x4b, 0x98, 0xc6, 0xbb, 0xd9, 0x5c, 0x2d, 0x3f,
  0xf9, 0x1e, 0x91, 0xbe, 0xdb, 0xb9, 0x77, 0x3e, 0x2e, 0x3b, 0x33, 0xbd,
  0x34, 0xfc, 0xd3, 0x3d, 0x30, 0x9c, 0x66, 0xbd, 0x15, 0x15, 0x59, 0xbe,
  0x7e, 0x1f, 0xf9, 0x3c, 0x15, 0xaf, 0xb4, 0xbd, 0xb7, 0xa1, 0x58, 0x3f,
  0x9a, 0x68, 0xb6, 0xbe, 0xfc, 0xd4, 0x97, 0x3e, 0x27, 0xab, 0x0a, 0xbf,
  0x7e, 0x91, 0x32, 0x3e, 0x2d, 0xa9, 0x12, 0x3e, 0x40, 0x85, 0x0e, 0xbd,
  0xe9, 0xe0, 0x0b, 0x3d, 0x25, 0x44, 0x97, 0xbe, 0x77, 0xf9, 0xc0, 0xbd,
  0x44, 0xeb, 0xa7, 0x3d, 0xba, 0x40, 0xf6, 0xbe, 0xc8, 0x9e, 0x83, 0xbe,
  0xc7, 0x00, 0xf4, 0xbc, 0xca, 0x3d, 0x20, 0x3e, 0xd2, 0xac, 0x50, 0x3d,
  0xa7, 0xfd, 0xa0, 0xbe, 0xb9, 0x66, 0xa5, 0xbe, 0xe7, 0xc4, 0x32, 0xbe,
  0x53, 0x0c, 0xd1, 0x3d, 0x20, 0xbc, 0x05, 0x3f, 0x16, 0x68, 0x28, 0x3e,
  0xfa, 0x3d, 0x82, 0x3d, 0xf6, 0x6f, 0xc8, 0xbe, 0xf9, 0x01, 0x6b, 0xbe,
  0x8f, 0xe2, 0x2d, 0x3c, 0x01, 0x6a, 0x32, 0xbe, 0x20, 0x97, 0xba, 0x3c,
  0xd5, 0xe2, 0xa6, 0x3d, 0x35, 0x9e, 0xc2, 0x3d, 0x3f, 0x55, 0x13, 0x3e,
  0x08, 0x9e, 0x60, 0xbf, 0x57, 0x0f, 0x7b, 0xbe, 0xf7, 0xf0, 0x30, 0xbc,
  0xc7, 0xda, 0x02, 0x3f, 0x89, 0x27, 0x1b, 0xbe, 0x15, 0xb2, 0x10, 0x3e,
  0x9f, 0x9c, 0x3d, 0xbe, 0x1c, 0x92, 0x3d, 0xbd, 0xa4, 0x97, 0xe4, 0x3e,
  0x7e, 0xae, 0xe3, 0xbd, 0x52, 0xbd, 0xd1, 0xbc, 0x34, 0xca, 0xcb, 0x3d,
  0x3c, 0xce, 0x23, 0xbf, 0x5a, 0x84, 0xcd, 0x3e, 0xdc, 0x97, 0x16, 0x3d,
  0xda, 0x33, 0x21, 0xbe, 0xda, 0xa7, 0xb9, 0x3e, 0x06, 0xc5, 0xcf, 0xbe,
  0x63, 0x7f, 0x65, 0x3e, 0x36, 0x48, 0xad, 0xbe, 0x97, 0x9c, 0x20, 0xbf,
  0xd9, 0x27, 0x65, 0x3e, 0x92, 0xf9, 0x1d, 0xbf, 0x59, 0x3f, 0xf5, 0x3e,
  0xf3, 0xde, 0xd3, 0xbd, 0x61, 0xe0, 0x22, 0xbf, 0x5a, 0x2a, 0xff, 0xbe,
  0xb7, 0x3a, 0x52, 0x3e, 0x4e, 0x23, 0xa8, 0x3d, 0xf0, 0xf9, 0xee, 0x3e,
  0x8f, 0x93, 0x2d, 0xbc, 0xb6, 0x99, 0x05, 0x3e, 0x4a, 0x1d, 0x92, 0x3e,
  0x85, 0xa7, 0xaa, 0xbc, 0x29, 0xcd, 0x40, 0xbe, 0x09, 0x32, 0x7f, 0x3b,
  0xda, 0xa3, 0x04, 0x3d, 0x4d, 0xaf, 0xd0, 0xbd, 0x2d, 0x07, 0xc2, 0x3d,
  0x2e, 0xe6, 0x16, 0x3f, 0x14, 0x2c, 0x18, 0x3c, 0xdc, 0x83, 0x0b, 0xbf,
  0x84, 0xd0, 0x75, 0xbc, 0x58, 0x03, 0xc2, 0x3e, 0xf7, 0x32, 0x30, 0x3d,
  0x1d, 0x1d, 0xf3, 0xbd, 0x99, 0x02, 0xe8, 0x3c, 0x95, 0x17, 0x5e, 0x3e,
  0xc6, 0x1d, 0x82, 0x3e, 0xae, 0x81, 0x81, 0xbe, 0xdb, 0x3d, 0x9f, 0x3c,
  0xe6, 0xb6, 0xff, 0x3d, 0x68, 0x3c, 0x88, 0xbe, 0xc1, 0xd3, 0x30, 0x3e,
  0x8f, 0xb7, 0x8d, 0xbe, 0x54, 0x09, 0x1f, 0xbe, 0xd6, 0xa0, 0xa8, 0xbe,
  0xca, 0x8f, 0x0c, 0xbf, 0x8e, 0xaf, 0x1d, 0xbd, 0x98, 0xa9, 0x34, 0xbe,
  0x0d, 0x3f, 0x05, 0x3e, 0xe9, 0xd1, 0xf1, 0xbd, 0x82, 0x1c, 0x8f, 0x3d,
  0xc7, 0xd8, 0xb3, 0xbe, 0xc8, 0x46, 0x29, 0xbf, 0x81, 0xc4, 0x36, 0xbe,
  0xc4, 0xd2, 0x69, 0x3e, 0x34, 0xe7, 0xf8, 0x3d, 0x3d, 0x39, 0x7b, 0x3d,
  0xa0, 0x93, 0x98, 0xbd, 0xa0, 0xb2, 0x56, 0xbe, 0xe9, 0xf8, 0x83, 0xbe,
  0x57, 0x5e, 0x1b, 0x3e, 0x53, 0xa9, 0x2a, 0xbe, 0xd8, 0x2f, 0x71, 0x3e,
  0x04, 0x1b, 0x88, 0xbb, 0x68, 0x43, 0x57, 0x3d, 0xcb, 0x20, 0x92, 0xbe,
  0xe2, 0xbe, 0xf7, 0xbe, 0xfb, 0xda, 0x62, 0x3e, 0xda, 0xb9, 0x1d, 0xbf,
  0xf5, 0x41, 0xf6, 0x3c, 0x04, 0xec, 0x85, 0x3d, 0x36, 0x4f, 0x53, 0xbd,
  0xb2, 0x27, 0xb2, 0x3d, 0xf0, 0x14, 0x33, 0xbf, 0xf2, 0xa2, 0x93, 0xbe,
  0xe6, 0x32, 0x11, 0xbf, 0x89, 0x31, 0xce, 0xbe, 0xd0, 0x87, 0x9d, 0x3d,
  0x40, 0x4f, 0x9c, 0xbe, 0xf8, 0x6e, 0xba, 0xbe, 0xd9, 0xa2, 0x5e, 0x3e,
  0xe2, 0xf5, 0xce, 0x3c, 0x41, 0x52, 0xc5, 0x3e, 0x06, 0xff, 0xbf, 0xbe,
  0x93, 0x7f, 0x66, 0xbc, 0x48, 0xc0, 0x87, 0x3d, 0x3d, 0xd8, 0x48, 0x3d,
  0xc5, 0x8b, 0x48, 0xbe, 0xd1, 0x57, 0x34, 0x3e, 0x02, 0x9d, 0x31, 0xbf,
  0xd1, 0x67, 0x26, 0x3e, 0x04, 0xa7, 0xd8, 0x3e, 0x5e, 0xaf, 0x4b, 0xbe,
  0xa5, 0x21, 0x90, 0x3e, 0x2b, 0xef, 0x14, 0xbe, 0x32, 0xe5, 0x92, 0xbe,
  0x31, 0xc2, 0x9b, 0xbe, 0xa7, 0x28, 0x84, 0xbe, 0xbe, 0x78, 0xdc, 0x3d,
  0x39, 0xec, 0x7f, 0x3d, 0x97, 0x56, 0xfc, 0xbe, 0x42, 0xf2, 0xf1, 0xbd,
  0x4d, 0x6f, 0x14, 0xbf, 0xd6, 0xc7, 0x02, 0x3d, 0x0e, 0x7a, 0x93, 0xbd,
  0xf5, 0x6a, 0xaf, 0x3e, 0x64, 0xb2, 0x6c, 0xbf, 0x14, 0x3b, 0x30, 0x3e,
  0x0c, 0x38, 0x3f, 0x3e, 0x69, 0x61, 0xf8, 0x3d, 0x10, 0x53, 0xb5, 0x3e,
  0x45, 0x92, 0x4e, 0x3e, 0xfe, 0xa3, 0x0b, 0xbe, 0xa6, 0x83, 0x2f, 0xbe,
  0x69, 0x3a, 0xd7, 0xbd, 0x57, 0x16, 0x13, 0x3f, 0x1a, 0xcf, 0x0a, 0x3e,
  0xe8, 0x40, 0x62, 0xbe, 0xf8, 0x04, 0x71, 0x3e, 0x5e, 0x97, 0x9a, 0x3e,
  0x07, 0x98, 0x8b, 0x3e, 0x0b, 0x02, 0x1e, 0xbe, 0x67, 0xe0, 0x9e, 0x3e,
  0x23, 0x7f, 0xbf, 0xbd, 0x8c, 0x6b, 0x65, 0xbe, 0x62, 0x20, 0x57, 0x3e,
  0xe3, 0x29, 0xa2, 0xbe, 0x7b, 0x41, 0x1e, 0x3e, 0x12, 0xe6, 0xe6, 0xba,
  0x87, 0xc9, 0x06, 0xbf, 0x91, 0x0b, 0x4f, 0xbc, 0xcc, 0x14, 0x28, 0xbf,
  0x40, 0xba, 0xa7, 0x3c, 0xde, 0x5b, 0xed, 0x3e, 0xb0, 0xd8, 0xcc, 0xbc,
  0x64, 0x2b, 0xb1, 0xbe, 0x92, 0x17, 0x93, 0xbe, 0xb0, 0x6a, 0x5e, 0xba,
  0x2b, 0x65, 0xac, 0xbd, 0xb2, 0x0a, 0x41, 0xbf, 0x94, 0x9d, 0xc8, 0xbe,
  0x87, 0xf4, 0x5c, 0xbe, 0x3a, 0x5d, 0xc7, 0xbe, 0x8b, 0xdd, 0x56, 0xbe,
  0x1c, 0x40, 0x79, 0xbe, 0xe9, 0x4d, 0xba, 0x3d, 0x54, 0xf3, 0x72, 0xbd,
  0x6c, 0xfa, 0x01, 0x3c, 0xa1, 0x8f, 0x2f, 0x3e, 0x40, 0x70, 0x1f, 0xbe,
  0xb4, 0x2d, 0x08, 0x3e, 0x9f, 0x90, 0x22, 0x3d, 0x00, 0x73, 0xa8, 0xbe,
  0xaa, 0xe5, 0x0c, 0x3e, 0x3b, 0xf5, 0xe8, 0xbd, 0x67, 0x84, 0xa2, 0xbe,
  0x65, 0x1c, 0x1f, 0xbf, 0xb9, 0x0c, 0x23, 0x3c, 0x43, 0x50, 0x95, 0x3d,
  0xb6, 0x5b, 0x81, 0x3e, 0x11, 0x54, 0x18, 0x3e, 0x71, 0xfe, 0xda, 0xbe,
  0x36, 0x31, 0xda, 0x3d, 0x0d, 0xac, 0x74, 0xbe, 0xcd, 0x17, 0xc4, 0x3e,
  0x27, 0xcf, 0x88, 0xbe, 0x9d, 0x9c, 0x1f, 0x3d, 0xd7, 0xe7, 0xcb, 0x3e,
  0xf7, 0xbd, 0xed, 0xbd, 0x8a, 0xd5, 0x30, 0xbe, 0x82, 0x90, 0xb2, 0xbe,
  0x8c, 0x00, 0x32, 0xbd, 0xc5, 0x5a, 0x69, 0xbe, 0xd7, 0x62, 0x42, 0xbe,
  0x8f, 0x17, 0x49, 0xbd, 0x9a, 0x7c, 0x3b, 0xbf, 0xdc, 0x1b, 0x1c, 0xbe,
  0x05, 0xd0, 0xd1, 0xbe, 0x6c, 0xcd, 0xe9, 0xbb, 0xbd, 0x32, 0x95, 0xbe,
  0x5a, 0x05, 0x29, 0x3f, 0x98, 0x2e, 0xc5, 0xbe, 0x57, 0x9a, 0x1b, 0x3e,
  0x33, 0x82, 0xb7, 0xbe, 0x3b, 0xb3, 0xdc, 0xbe, 0x77, 0x0f, 0x74, 0xbe,
  0x60, 0x43, 0x7d, 0x3e, 0xa5, 0x40, 0x59, 0xbe, 0x3d, 0x97, 0xa6, 0xbe,
  0x48, 0x19, 0x42, 0xbd, 0xfb, 0xd8, 0x22, 0xbc, 0x9e, 0x23, 0x4f, 0xbe,
  0x47, 0x90, 0x19, 0xbe, 0x43, 0x21, 0x86, 0x3d, 0xcc, 0xb8, 0xb9, 0x3d,
  0x14, 0x47, 0xde, 0x3d, 0xb6, 0xe0, 0x4f, 0xbe, 0xa8, 0x23, 0x2e, 0x3e,
  0x60, 0x23, 0x3d, 0xbe, 0x4b, 0xa7, 0x18, 0x3e, 0x6e, 0xcb, 0xec, 0xbd,
  0xae, 0x1d, 0xa6, 0x3e, 0xc7, 0xff, 0x49, 0x3e, 0x97, 0x0c, 0x8b, 0x3e,
  0xe9, 0x06, 0xe8, 0x3e, 0x4f, 0x6b, 0x59, 0x3e, 0x76, 0x29, 0x8c, 0xbf,
  0x57, 0xf4, 0x21, 0x3e, 0x9c, 0x0e, 0x86, 0xbe, 0xfb, 0xfe, 0x5f, 0x3e,
  0x43, 0x81, 0xf7, 0xbd, 0x5b, 0x58, 0xcd, 0xbd, 0x60, 0x06, 0xa3, 0xbd,
  0xa4, 0x02, 0xc7, 0x3e, 0x0a, 0xe8, 0x88, 0xbe, 0x69, 0xeb, 0x07, 0x3f,
  0xb2, 0x95, 0x31, 0xbe, 0x69, 0x35, 0x29, 0xbe, 0x6d, 0x1e, 0xc2, 0x3e,
  0x1b, 0xba, 0x1c, 0x3e, 0xbf, 0x05, 0x1d, 0xbe, 0xa8, 0xff, 0xca, 0x3e,
  0x47, 0x3a, 0xa2, 0xbd, 0x07, 0x51, 0x1a, 0xbe, 0xdd, 0x7d, 0x55, 0x3d,
  0x4d, 0x4d, 0x9e, 0x3d, 0xe6, 0xda, 0xb5, 0x3d, 0x15, 0x16, 0x55, 0x3e,
  0x5d, 0xa3, 0xd6, 0xbd, 0x52, 0xb7, 0x03, 0x3e, 0xc3, 0x2b, 0x7a, 0x3d,
  0x44, 0xb0, 0xc5, 0xbe, 0x1f, 0x92, 0x7b, 0x3e, 0x12, 0x84, 0xb5, 0x3e,
  0xdd, 0x63, 0xce, 0x3d, 0x60, 0xf1, 0xe2, 0xbe, 0xad, 0xcd, 0x7f, 0xbe,
  0x6a, 0x96, 0x7b, 0x3e, 0x8e, 0xfe, 0x3f, 0xbf, 0xd8, 0xca, 0x02, 0xbe,
  0xb0, 0x99, 0x81, 0x3d, 0xda, 0x17, 0x98, 0x3e, 0xd4, 0x19, 0x0a, 0xbe,
  0xc8, 0x37, 0xde, 0x3e, 0xb3, 0xce, 0x56, 0xbe, 0x51, 0xe3, 0x2a, 0x3f,
  0xaa, 0x77, 0x06, 0x3e, 0x5c, 0xa5, 0x18, 0x3e, 0x70, 0xd5, 0x98, 0xbb,
  0xd9, 0x28, 0xf5, 0x3d, 0xed, 0x56, 0x2f, 0xbf, 0xb1, 0x50, 0x11, 0xbd,
  0xe5, 0x15, 0x8d, 0x3e, 0x9b, 0xc6, 0x73, 0x3d, 0x92, 0xaf, 0x13, 0x3e,
  0xd9, 0x53, 0xcd, 0xbe, 0xf6, 0x6b, 0x01, 0x3e, 0x30, 0x3c, 0x69, 0x3e,
  0x21, 0xe3, 0xcf, 0xbe, 0xcc, 0xc5, 0x8a, 0xbf, 0xd2, 0xfd, 0x43, 0x3e,
  0x24, 0x11, 0xfd, 0xbd, 0x26, 0x0c, 0xbc, 0xbe, 0xeb, 0x7f, 0xad, 0x3d,
  0x71, 0xf5, 0x9b, 0x3e, 0x54, 0x69, 0x5f, 0x3e, 0x5f, 0x79, 0x98, 0xbc,
  0x51, 0xa5, 0xca, 0xbd, 0x04, 0x26, 0x87, 0x3e, 0xd4, 0x5d, 0x4b, 0xbe,
  0x90, 0x18, 0x1f, 0x3e, 0xc6, 0x2e, 0x03, 0x3e, 0xb3, 0xf0, 0x88, 0xbc,
  0xf7, 0x56, 0xad, 0x3c, 0xd1, 0xb8, 0x35, 0xbe, 0x54, 0x34, 0xe0, 0x3d,
  0x3e, 0xc4, 0xac, 0xbe, 0x6b, 0x4a, 0x9b, 0x3e, 0x8d, 0xae, 0xa5, 0x3d,
  0x0f, 0x60, 0xaf, 0x3d, 0xd8, 0x04, 0x6d, 0xbe, 0x11, 0xda, 0xcb, 0xbc,
  0xb7, 0xa2, 0x98, 0x3c, 0x26, 0xac, 0x5e, 0xbe, 0x99, 0xe8, 0xfa, 0x3e,
  0xc4, 0x01, 0x49, 0xbf, 0xb7, 0x39, 0xa8, 0x3d, 0xf1, 0xfd, 0x70, 0x3e,
  0x10, 0x92, 0xf3, 0xbd, 0x7f, 0x5e, 0x5c, 0xbb, 0x31, 0xfb, 0x5b, 0x3d,
  0x85, 0xb7, 0xfa, 0xbd, 0xa8, 0x2e, 0x56, 0x3e, 0x70, 0xca, 0xd7, 0x3e,
  0x1c, 0x4a, 0xa9, 0x3e, 0xfe, 0x7a, 0xa0, 0x3e, 0xf4, 0x4d, 0x89, 0x3d,
  0xee, 0x01, 0xc4, 0xbd, 0x8b, 0x1d, 0x48, 0xbe, 0xa0, 0x30, 0xe4, 0x3d,
  0x55, 0x5d, 0x0c, 0xbf, 0xb5, 0x08, 0x09, 0xbf, 0xc1, 0xd8, 0xf3, 0xbd,
  0x06, 0x3e, 0xbc, 0xbe, 0xc0, 0x1b, 0x94, 0x3e, 0xd9, 0x37, 0x04, 0x3d,
  0x40, 0x4d, 0xaf, 0x3e, 0x44, 0x99, 0x16, 0xbf, 0x9f, 0x23, 0xe1, 0x3e,
  0xd5, 0x90, 0x5b, 0xbe, 0x37, 0x23, 0x69, 0x3d, 0x63, 0xdb, 0xb2, 0xbe,
  0x25, 0x23, 0xb7, 0xbe, 0xd1, 0xb0, 0xa3, 0x3e, 0x42, 0x52, 0x0b, 0xbe,
  0xb7, 0x79, 0xed, 0x3d, 0x22, 0x5b, 0x08, 0xbe, 0x2d, 0xa7, 0x20, 0xbd,
  0x0b, 0xc8, 0x31, 0x3d, 0xe5, 0xef, 0x27, 0x3e, 0xbb, 0x7f, 0x74, 0x3d,
  0xa5, 0x32, 0x87, 0x3d, 0x07, 0xae, 0x0c, 0x3e, 0x44, 0x6d, 0x09, 0x3e,
  0xa5, 0x5b, 0x78, 0x3e, 0x8f, 0x6f, 0x4d, 0xbe, 0x19, 0x28, 0x5c, 0x3e,
  0x14, 0x26, 0xf5, 0x3b, 0xd1, 0xad, 0xf4, 0x3d, 0xde, 0x22, 0xec, 0x3d,
  0x85, 0xaf, 0x9a, 0x3e, 0x80, 0x8c, 0xeb, 0x3d, 0x0c, 0xff, 0xe2, 0x3e,
  0xe7, 0x55, 0xa6, 0xbe, 0xdf, 0xa1, 0x90, 0x3e, 0x03, 0xf2, 0xc7, 0xbc,
  0x50, 0x70, 0xe1, 0x3e, 0x63, 0x2d, 0x70, 0xbe, 0xb1, 0x29, 0x40, 0x3e,
  0x92, 0x74, 0xd6, 0xbe, 0xd9, 0x2b, 0x80, 0x3d, 0x34, 0x1f, 0xfa, 0xbd,
  0xb5, 0xde, 0x93, 0xbd, 0xa3, 0xdc, 0x2c, 0x3d, 0x08, 0x2d, 0xbb, 0x3d,
  0x31, 0x62, 0xff, 0x3c, 0xa8, 0x9f, 0xb5, 0xbd, 0x18, 0x6e, 0x76, 0xbe,
  0x11, 0x7f, 0x0b, 0xbc, 0xec, 0xcc, 0x4f, 0x3e, 0x2d, 0x17, 0x61, 0x3e,
  0x67, 0x8d, 0x95, 0xbe, 0x54, 0xb0, 0x39, 0xbe, 0x34, 0x07, 0x46, 0xbc,
  0x07, 0xe4, 0xd6, 0xbe, 0x1e, 0x75, 0xca, 0x3d, 0xe7, 0x36, 0x52, 0xbe,
  0xe3, 0xb1, 0x66, 0x3e, 0x66, 0x0e, 0xc5, 0xbe, 0xf4, 0xa1, 0x6f, 0x3e,
  0x49, 0xb8, 0x78, 0xbe, 0x67, 0x98, 0xb4, 0x3d, 0xe9, 0x2c, 0x11, 0x3d,
  0x7f, 0x80, 0x13, 0x3e, 0x14, 0xe5, 0x0c, 0xbe, 0x5c, 0x0a, 0x83, 0xbe,
  0x29, 0xb6, 0x8c, 0x3e, 0x6f, 0xa9, 0xbb, 0xbe, 0xaf, 0xde, 0x03, 0xbf,
  0x0b, 0x3d, 0x3c, 0x3e, 0x0e, 0x55, 0x65, 0xbe, 0xe9, 0xc7, 0x01, 0xbe,
  0x5f, 0xc6, 0x8a, 0x3c, 0x8a, 0xb0, 0x0b, 0x3d, 0x72, 0x39, 0x21, 0xbf,
  0xbd, 0xd2, 0x96, 0xbe, 0x82, 0xa3, 0x61, 0x3d, 0xca, 0x77, 0x93, 0xbe,
  0xa1, 0xeb, 0xbe, 0x3e, 0x1e, 0xf9, 0xf7, 0x3c, 0x03, 0x3f, 0xff, 0xbe,
  0xcd, 0x90, 0x89, 0xbe, 0x6c, 0x05, 0x84, 0xbe, 0xc8, 0xc7, 0x03, 0xbf,
  0xcd, 0xe5, 0xa6, 0xbe, 0xa0, 0x8a, 0x48, 0x3e, 0x01, 0x58, 0xc3, 0x3d,
  0x8f, 0xac, 0x25, 0xbf, 0xcc, 0x8c, 0x8d, 0xbe, 0x39, 0x40, 0x6a, 0xbd,
  0xe8, 0xc9, 0xe0, 0x3e, 0xc3, 0x15, 0x8e, 0x3e, 0xca, 0x42, 0x08, 0xbe,
  0xf1, 0x69, 0x78, 0xbd, 0xd0, 0xda, 0xbf, 0x3e, 0xd7, 0xc2, 0xbd, 0xbc,
  0x54, 0x3b, 0x4b, 0xbf, 0xf3, 0x07, 0x6a, 0x3e, 0x73, 0x8e, 0xdc, 0xbe,
  0xcd, 0xaf, 0xcc, 0x3d, 0x14, 0x85, 0xd5, 0x3d, 0x9b, 0x12, 0xf3, 0x3d,
  0x34, 0xd1, 0xc7, 0xbd, 0xe6, 0x2a, 0x28, 0xbe, 0x5c, 0x84, 0xd4, 0xbe,
  0xe4, 0x90, 0x91, 0xbd, 0x5a, 0x7e, 0x10, 0xbe, 0x48, 0x4d, 0x04, 0x3e,
  0x7c, 0xec, 0x0b, 0x3f, 0x4d, 0x9d, 0x84, 0xbe, 0x5f, 0xf3, 0xa6, 0x3b,
  0x9b, 0x4c, 0x1b, 0x3d, 0x5e, 0xaf, 0x2a, 0xbe, 0x08, 0xe6, 0x81, 0xbf,
  0x49, 0x11, 0x16, 0xbe, 0xec, 0x77, 0x9d, 0xbe, 0x8c, 0x2e, 0xb4, 0xbc,
  0x24, 0x7c, 0x80, 0xbe, 0x5f, 0x93, 0xda, 0xbb, 0x16, 0x97, 0x65, 0xbd,
  0xdb, 0x4b, 0x10, 0xbd, 0x97, 0x50, 0x83, 0xbe, 0x73, 0x1e, 0xdc, 0xbe,
  0x5e, 0xd7, 0xed, 0x3d, 0x76, 0xb3, 0x6a, 0xbd, 0xc6, 0xc6, 0x1c, 0x3f,
  0xbb, 0x32, 0x10, 0xbf, 0x58, 0xa2, 0x80, 0x3e, 0x0f, 0xfa, 0x9d, 0xbe,
  0x95, 0x5e, 0xc1, 0x3d, 0x06, 0x2a, 0x63, 0xbf, 0x1a, 0x6c, 0x20, 0x3d,
  0xce, 0x81, 0x09, 0x3d, 0xb2, 0x0e, 0x24, 0x3e, 0xdc, 0xa0, 0x3d, 0x3e,
  0xd6, 0xa9, 0xaa, 0x3e, 0x24, 0x98, 0x76, 0x3e, 0xbb, 0xda, 0xeb, 0x3d,
  0x9d, 0x0c, 0x13, 0x3e, 0x57, 0x47, 0x4d, 0x3e, 0x4e, 0x06, 0xbc, 0x3d,
  0x3d, 0xce, 0x35, 0x3e, 0x39, 0x5a, 0x17, 0xbf, 0x44, 0xfd, 0xbf, 0xbd,
  0x5d, 0x20, 0x18, 0x3f, 0x58, 0x08, 0x49, 0xbd, 0x23, 0xd5, 0xc5, 0xbe,
  0xfa, 0x39, 0x1e, 0xbd, 0xd2, 0xc6, 0x99, 0xbf, 0xa6, 0x10, 0x38, 0xbf,
  0x24, 0xcd, 0xea, 0xbe, 0xef, 0x4c, 0x07, 0x3e, 0xc8, 0x7a, 0x2a, 0xbd,
  0x8e, 0x70, 0x5e, 0xbd, 0x42, 0x0c, 0x23, 0x3e, 0x1c, 0xc7, 0x25, 0x3b,
  0x36, 0xec, 0x80, 0x3e, 0xfd, 0xfe, 0x90, 0xbe, 0xec, 0x65, 0xc7, 0x3d,
  0xe4, 0xfc, 0x99, 0xbc, 0x08, 0xf9, 0x9f, 0xbd, 0x00, 0x61, 0xc2, 0xbd,
  0x84, 0x95, 0x27, 0x3e, 0x64, 0x0b, 0x7d, 0x3c, 0x89, 0xcd, 0xb3, 0x3e,
  0x10, 0x5a, 0xa4, 0x3d, 0xe5, 0x81, 0x01, 0x3e, 0xe2, 0x10, 0x7a, 0xbd,
  0x98, 0x53, 0xde, 0xba, 0x39, 0x6c, 0x3a, 0xbe, 0x08, 0x5f, 0xb0, 0xbd,
  0xe7, 0x9d, 0x8b, 0xbe, 0x78, 0xc7, 0x03, 0xbf, 0x18, 0xcf, 0x98, 0xbe,
  0xa7, 0x09, 0x8e, 0xbe, 0xcd, 0xc3, 0x41, 0x3e, 0x90, 0xa4, 0x64, 0xbe,
  0xc7, 0x76, 0x6b, 0xbe, 0x5a, 0xeb, 0xaf, 0xbd, 0x23, 0xd2, 0xd1, 0xbd,
  0x1b, 0xd2, 0x8e, 0x3d, 0x39, 0xd5, 0x23, 0x3d, 0x38, 0x29, 0x1a, 0xbb,
  0xfd, 0x2e, 0xeb, 0xbe, 0x45, 0x20, 0x0b, 0xbf, 0x94, 0x01, 0x77, 0x3e,
  0xa7, 0x80, 0xac, 0x3c, 0x55, 0x4a, 0x32, 0xbf, 0x29, 0x87, 0xed, 0xbd,
  0x5d, 0xf5, 0xeb, 0x3e, 0x90, 0x1d, 0x98, 0x3e, 0xae, 0x6c, 0xd2, 0x3d,
  0x98, 0xa4, 0xda, 0x3d, 0x9e, 0xdb, 0x17, 0x3e, 0xf8, 0xd8, 0x30, 0xbf,
  0x9c, 0xa6, 0x38, 0x3d, 0x26, 0x37, 0xad, 0x3e, 0x9e, 0x12, 0x0e, 0xbf,
  0xff, 0xc3, 0xb9, 0xbd, 0x1f, 0x5b, 0x1b, 0x3f, 0xaf, 0xd7, 0xe5, 0xbd,
  0x94, 0xf5, 0x50, 0x3f, 0x60, 0xdf, 0x18, 0x3e, 0x1c, 0x6a, 0xa7, 0xbe,
  0xf7, 0x01, 0x6e, 0xbe, 0x79, 0xfb, 0xb4, 0x3e, 0xf7, 0x26, 0xe4, 0xbe,
  0xe5, 0xa7, 0x0e, 0xbe, 0x34, 0xa0, 0x46, 0x3e, 0xb2, 0xe0, 0x9b, 0xbd,
  0xc8, 0x15, 0x97, 0x3d, 0xed, 0x73, 0x89, 0xbe, 0xc4, 0x9a, 0x58, 0xbf,
  0x90, 0x7a, 0x2c, 0x3e, 0xe1, 0x4c, 0x0d, 0x3f, 0x81, 0xc8, 0x2e, 0x3e,
  0x15, 0x12, 0x58, 0xbe, 0xaf, 0x04, 0x95, 0xbd, 0xef, 0xd9, 0xbd, 0xbe,
  0xa4, 0xf5, 0x3d, 0xbe, 0x9f, 0xb7, 0x46, 0x3d, 0x66, 0xbd, 0x15, 0xbc,
  0x03, 0x06, 0x46, 0x3e, 0x7b, 0xad, 0x3c, 0xbc, 0xd6, 0xb5, 0x24, 0xbd,
  0xbf, 0xb7, 0xbb, 0xbe, 0x43, 0x23, 0x89, 0xbd, 0x6d, 0x60, 0x1f, 0xbf,
  0xaf, 0x84, 0x8f, 0xbe, 0x9b, 0x10, 0x84, 0xbe, 0x6d, 0x5a, 0x02, 0x3f,
  0x31, 0xd0, 0x86, 0xbe, 0x3c, 0xff, 0x87, 0x3e, 0x27, 0x78, 0x14, 0xbd,
  0x2e, 0x85, 0x35, 0x3e, 0x01, 0x61, 0x7c, 0xbd, 0xb4, 0xfd, 0x4a, 0xbe,
  0xe6, 0x3a, 0x77, 0x3b, 0x64, 0x43, 0x15, 0x3e, 0xa4, 0x00, 0x3f, 0xbf,
  0xbf, 0x4c, 0x2e, 0xbe, 0xde, 0x9b, 0x6f, 0xbf, 0x46, 0x6b, 0xc0, 0xbd,
  0x06, 0xaf, 0xff, 0xbe, 0xc5, 0xc8, 0x2b, 0x3e, 0x88, 0xdf, 0x17, 0xbf,
  0xae, 0x92, 0x6f, 0x3e, 0x72, 0x7f, 0xae, 0x3e, 0x2d, 0x18, 0x81, 0xbe,
  0x70, 0xea, 0xa2, 0x3e, 0x33, 0x13, 0xe3, 0x3c, 0xfe, 0x65, 0x12, 0xbb,
  0x80, 0x36, 0x06, 0xbe, 0x77, 0x4e, 0xb9, 0xbe, 0x0f, 0x4a, 0xc7, 0x3d,
  0xc1, 0xcb, 0x1c, 0x3d, 0x8a, 0xf8, 0x3a, 0xbe, 0x4d, 0xc7, 0xdc, 0x3d,
  0xcc, 0xef, 0x89, 0xbf, 0x75, 0x68, 0xd4, 0xbd, 0x6c, 0x6f, 0x0d, 0x3e,
  0xa0, 0x3e, 0x00, 0xbe, 0xc7, 0x6d, 0xcc, 0xbd, 0x15, 0xba, 0x55, 0xbe,
  0xc0, 0x1e, 0xe1, 0xbc, 0x33, 0xa3, 0x82, 0xbd, 0x21, 0xeb, 0x08, 0xbd,
  0x42, 0xd2, 0x8c, 0xbd, 0xbf, 0xa4, 0x95, 0x3a, 0x9d, 0x37, 0x33, 0xbe,
  0x6e, 0x6e, 0xfc, 0x3e, 0xcc, 0xb9, 0x0c, 0xbe, 0x49, 0x09, 0x15, 0x3e,
  0x86, 0xc0, 0xf2, 0x3e, 0xe5, 0x8e, 0x0e, 0xbc, 0x82, 0x50, 0x4b, 0xbe,
  0x34, 0xb2, 0x91, 0x3c, 0x18, 0xff, 0x5a, 0xbe, 0xe8, 0x0e, 0xde, 0x3d,
  0xef, 0xbd, 0xa8, 0xbe, 0x1f, 0xea, 0x27, 0xbf, 0x3d, 0xd8, 0xdc, 0x3d,
  0x94, 0xe7, 0x8a, 0x3e, 0x98, 0xdd, 0x3d, 0x3e, 0x9a, 0x9b, 0xcb, 0xbe,
  0x15, 0x4e, 0xd0, 0xbe, 0x88, 0xaa, 0x21, 0xbd, 0x6e, 0x32, 0x25, 0x3e,
  0x27, 0xec, 0xcf, 0xbe, 0x07, 0xdc, 0x19, 0x3d, 0x5a, 0x6a, 0xc3, 0xbe,
  0xea, 0x09, 0x55, 0x3d, 0x49, 0x63, 0x31, 0x3e, 0x90, 0x49, 0x4b, 0xbe,
  0x8a, 0x77, 0xe8, 0x3d, 0x61, 0x3a, 0x9a, 0xbd, 0x29, 0xdf, 0xdd, 0xbd,
  0xdb, 0x84, 0xd4, 0xbe, 0x7c, 0x85, 0xfc, 0xbd, 0x00, 0xb9, 0xc5, 0xbb,
  0x34, 0x4b, 0x74, 0x3e, 0xe9, 0xb7, 0x01, 0xbf, 0x20, 0x07, 0x88, 0x3e,
  0x84, 0x74, 0x9b, 0x3e, 0x05, 0x4f, 0x08, 0xbf, 0x8f, 0x9e, 0xbb, 0x3e,
  0xb1, 0x80, 0x5c, 0xbb, 0xfb, 0x99, 0xec, 0xbe, 0x92, 0x7e, 0xbc, 0x3c,
  0x18, 0x0d, 0xb5, 0xbe, 0x97, 0xe6, 0x25, 0x3d, 0xa1, 0xb5, 0x6f, 0x3c,
  0xab, 0xba, 0x8e, 0xbe, 0x72, 0x49, 0x8b, 0xbe, 0x76, 0x88, 0xdd, 0xbe,
  0xfd, 0x99, 0x2b, 0xbf, 0x90, 0xab, 0x2b, 0xbe, 0xae, 0xdb, 0x9e, 0x3d,
  0x65, 0xc7, 0x80, 0x3e, 0xa0, 0x5e, 0x70, 0xbd, 0x79, 0x78, 0xc7, 0x3c,
  0x49, 0x9b, 0xe8, 0xbd, 0xc9, 0x0e, 0x88, 0xbe, 0xf4, 0x14, 0x19, 0x3e,
  0x2e, 0x6e, 0x55, 0xbe, 0xf4, 0x32, 0x06, 0xbf, 0xc6, 0x92, 0xd1, 0xbe,
  0x3e, 0xba, 0x5d, 0x3e, 0x4a, 0x53, 0x83, 0x3c, 0x51, 0xc1, 0x99, 0x3c,
  0x64, 0x18, 0xae, 0x3d, 0x00, 0x49, 0x3e, 0xbe, 0xc8, 0xbe, 0x3c, 0xbe,
  0x64, 0x79, 0x84, 0x3d, 0xdc, 0xf3, 0x79, 0xbd, 0x4d, 0xd2, 0x12, 0xbf,
  0xa7, 0x25, 0x9f, 0x3e, 0xb8, 0x1a, 0xa9, 0xbd, 0x67, 0x5d, 0xc6, 0xbd,
  0x83, 0x06, 0xa1, 0xbd, 0x99, 0x5b, 0xa6, 0xbe, 0x98, 0xc2, 0x38, 0xbe,
  0x39, 0x48, 0x0a, 0x3b, 0xa9, 0x6e, 0x2b, 0xbf, 0x43, 0xac, 0x0a, 0xbe,
  0x39, 0x2a, 0xa4, 0x3c, 0xee, 0xdf, 0xd8, 0x3e, 0x25, 0x1b, 0x08, 0x3e,
  0xf4, 0x16, 0x0e, 0x3f, 0xe2, 0x6e, 0x53, 0xbe, 0xb2, 0x26, 0xa2, 0x3e,
  0x26, 0x58, 0x46, 0xbf, 0x86, 0xf6, 0x0f, 0xbf, 0x92, 0xa9, 0xd8, 0x3e,
  0xe4, 0xd8, 0x7d, 0xbe, 0xd3, 0xed, 0x62, 0xbe, 0x48, 0x47, 0x52, 0x3c,
  0xb8, 0xdc, 0x92, 0xbd, 0x31, 0x20, 0x55, 0x3e, 0xcf, 0x98, 0x06, 0xbf,
  0xde, 0xf6, 0x31, 0xbf, 0x32, 0xb7, 0xaa, 0xbd, 0xe7, 0x76, 0xc6, 0xbd,
  0x85, 0x4e, 0x81, 0x3c, 0xa8, 0x65, 0x1e, 0x3e, 0xc8, 0x55, 0xdd, 0xbd,
  0xd1, 0xb6, 0xd1, 0xbc, 0xa9, 0xf7, 0xed, 0xbe, 0x36, 0x37, 0xff, 0x3d,
  0xcb, 0x46, 0x3f, 0xbf, 0x46, 0x10, 0x88, 0x3e, 0x26, 0xd2, 0x79, 0xbe,
  0x69, 0x33, 0x30, 0xbd, 0xe0, 0x32, 0x6c, 0xbe, 0x5d, 0x62, 0x35, 0xbe,
  0x9d, 0x82, 0x4d, 0xbe, 0xb9, 0x75, 0x98, 0x3d, 0x0c, 0x60, 0xe3, 0xbc,
  0x49, 0x4b, 0x22, 0xbe, 0x6b, 0x07, 0x50, 0x3d, 0x1c, 0x3e, 0x60, 0x3e,
  0xe1, 0x78, 0x4a, 0x3e, 0xe5, 0x8a, 0x97, 0xbe, 0xa7, 0x5c, 0xa8, 0x3d,
  0x27, 0x82, 0x18, 0x3e, 0xb2, 0xfc, 0xa6, 0x3d, 0x2e, 0x95, 0x4f, 0xbf,
  0xc0, 0x6c, 0x13, 0x3e, 0xe9, 0xac, 0xbc, 0xbb, 0x2c, 0x6e, 0x6d, 0x3e,
  0x31, 0x22, 0x32, 0x3e, 0xa2, 0x3d, 0x16, 0xbe, 0x3f, 0x38, 0xf8, 0xbd,
  0x33, 0x59, 0x95, 0xbd, 0x1e, 0x31, 0xc8, 0x3d, 0x4e, 0x0d, 0xd1, 0xbd,
  0x96, 0x65, 0x5a, 0xbd, 0x34, 0xc3, 0x6d, 0x3e, 0xcf, 0x07, 0x29, 0xbd,
  0x40, 0xab, 0x0a, 0x3e, 0x4d, 0x5d, 0xf1, 0xbd, 0x0c, 0xfc, 0x3d, 0xbd,
  0x0a, 0x9f, 0xca, 0xbd, 0x27, 0x5a, 0x93, 0x3d, 0xc8, 0xc9, 0x87, 0xbe,
  0x6e, 0x84, 0x9f, 0x3e, 0x4a, 0x1e, 0x34, 0xbe, 0x73, 0x72, 0xa9, 0x3e,
  0xb6, 0x4b, 0xf4, 0x3d, 0x2e, 0x4e, 0x7e, 0x3d, 0x64, 0x13, 0x1a, 0x3e,
  0x95, 0x20, 0x16, 0xbf, 0x3b, 0xe8, 0xe0, 0xbd, 0x45, 0xdc, 0xf5, 0x3e,
  0xe5, 0xff, 0x76, 0x3e, 0x2d, 0xca, 0x24, 0x3e, 0x69, 0x18, 0xc6, 0x3e,
  0xc7, 0x2f, 0xa6, 0xbe, 0x20, 0xf1, 0x9e, 0xbd, 0x20, 0x1a, 0x76, 0x3e,
  0x2a, 0xe6, 0xde, 0xbe, 0xdb, 0x72, 0x00, 0x3e, 0xf6, 0xa5, 0x1a, 0xbe,
  0xb4, 0x0b, 0xb3, 0xbd, 0x29, 0x31, 0x15, 0xbf, 0x95, 0xe2, 0xf9, 0x3e,
  0xe4, 0xee, 0x9e, 0x3b, 0x45, 0x46, 0xf5, 0x3e, 0x8d, 0xd4, 0x48, 0xbf,
  0xa6, 0x06, 0x62, 0x3e, 0x33, 0x06, 0xd2, 0x3c, 0x2a, 0x85, 0x98, 0xbe,
  0xa7, 0x71, 0xf6, 0x3d, 0x63, 0xd2, 0x84, 0xbe, 0x07, 0x53, 0x89, 0xbc,
  0x78, 0xf7, 0x89, 0x3e, 0x4a, 0x1a, 0xa3, 0x3e, 0xc8, 0xa7, 0x93, 0xbe,
  0xae, 0x35, 0xd9, 0xbc, 0x55, 0x29, 0xf5, 0x3b, 0x33, 0x9b, 0xe7, 0x3d,
  0x0a, 0x95, 0xdb, 0xbe, 0x28, 0x50, 0xae, 0xbe, 0x49, 0xb4, 0xdd, 0x3d,
  0x72, 0x4b, 0x0c, 0xbe, 0xd9, 0x2f, 0x84, 0x3e, 0x80, 0xf4, 0x40, 0xbe,
  0x68, 0x80, 0x21, 0xbe, 0x9b, 0x2c, 0x45, 0xbe, 0xa1, 0xd3, 0x56, 0x3f,
  0x5a, 0x6a, 0x20, 0x3e, 0x50, 0xd9, 0x8a, 0xbf, 0xb2, 0xf8, 0xd8, 0x3e,
  0xbf, 0x48, 0xca, 0x3d, 0x5d, 0x30, 0x54, 0x3d, 0xd0, 0x95, 0x48, 0x3e,
  0x4d, 0x37, 0x07, 0xbe, 0xa3, 0x2e, 0x45, 0xbe, 0x98, 0x6f, 0xd9, 0xbd,
  0xfd, 0xe2, 0xc2, 0x3e, 0x57, 0x06, 0x2c, 0x3e, 0x2b, 0x5d, 0x97, 0xbd,
  0x3b, 0xd9, 0x6e, 0xbd, 0x46, 0x69, 0xf9, 0x3d, 0xd3, 0xa4, 0x7a, 0xbe,
  0x14, 0xea, 0x21, 0x3d, 0x9d, 0x45, 0xda, 0x3e, 0xff, 0x69, 0x82, 0xbe,
  0x70, 0x06, 0x24, 0xbe, 0x11, 0x93, 0x19, 0xbe, 0x67, 0x44, 0x77, 0x3d,
  0x2a, 0x35, 0x85, 0xbe, 0x89, 0x7d, 0x71, 0xbd, 0x27, 0x78, 0x4e, 0x3d,
  0xe9, 0xb4, 0x91, 0xbd, 0xa0, 0xbb, 0xcb, 0xbd, 0xb4, 0x0a, 0xdf, 0x3d,
  0xd2, 0x8a, 0x90, 0xbb, 0x53, 0x0e, 0xaf, 0x3d, 0xc7, 0xa2, 0x4c, 0xbe,
  0x3c, 0xd6, 0xa4, 0x3d, 0x55, 0xb3, 0x05, 0xbe, 0xc9, 0x5c, 0x78, 0x3c,
  0x4a, 0x74, 0x11, 0x3e, 0xcd, 0x3a, 0x2f, 0xbe, 0xa4, 0xaf, 0x32, 0x3e,
  0xb5, 0xd9, 0x22, 0xbe, 0x2c, 0xba, 0x7e, 0xbe, 0xbc, 0x9d, 0x5b, 0xbe,
  0x82, 0x76, 0x3e, 0xbe, 0x5f, 0xbd, 0x87, 0xbe, 0xe0, 0xfa, 0x29, 0xbe,
  0x0e, 0x63, 0xf6, 0x3c, 0x23, 0xfc, 0xfb, 0x3d, 0xbd, 0xc4, 0x23, 0xbe,
  0x82, 0x43, 0xd2, 0x3d, 0xd0, 0x6d, 0x23, 0xbe, 0xf9, 0x39, 0x63, 0xbe,
  0x8d, 0xf4, 0x20, 0xbe, 0xd8, 0x28, 0x54, 0x3e, 0x73, 0xbd, 0x2a, 0x3e,
  0x6d, 0x6f, 0x6d, 0x3e, 0xb2, 0x1a, 0xc1, 0x3d, 0x1f, 0xc7, 0xea, 0x3c,
  0x67, 0xe1, 0x98, 0x3d, 0xe5, 0x44, 0xd2, 0x3d, 0x78, 0x47, 0x15, 0x3e,
  0x24, 0x8e, 0x24, 0x3e, 0xb9, 0x98, 0xc7, 0xbd, 0x18, 0x22, 0x7a, 0xbe,
  0x78, 0x5a, 0x44, 0xbd, 0x40, 0x0f, 0x35, 0xbd, 0x8a, 0xe8, 0xe0, 0x3d,
  0xbe, 0xe7, 0xe5, 0xbd, 0x7c, 0x5c, 0x72, 0xbe, 0x00, 0xe8, 0xf3, 0x3a,
  0xc5, 0x05, 0xce, 0xbd, 0x81, 0x5e, 0x8d, 0xbe, 0xb7, 0xf9, 0x2b, 0xbd,
  0xe4, 0xb9, 0x50, 0xbe, 0x04, 0x44, 0xfa, 0xbd, 0xa5, 0x21, 0x13, 0x3e,
  0x57, 0xfb, 0x4a, 0xbe, 0xca, 0x92, 0xe7, 0xbd, 0xbb, 0xcd, 0x8d, 0xbd,
  0xfa, 0xd4, 0x93, 0xbd, 0xe5, 0x0d, 0x19, 0x3b, 0x3f, 0x87, 0xa0, 0x3d,
  0x38, 0xbf, 0x49, 0xbe, 0xd6, 0x80, 0x15, 0xbe, 0x68, 0x15, 0x44, 0xbe,
  0xce, 0xbd, 0xf2, 0x3d, 0xce, 0x67, 0xe0, 0x3d, 0xe8, 0xb7, 0x6b, 0xbe,
  0x5f, 0xda, 0x1a, 0xbf, 0xbb, 0x59, 0xa8, 0xbd, 0x25, 0x6c, 0xf5, 0x3d,
  0xcc, 0x99, 0x80, 0x3e, 0xab, 0xd0, 0xcf, 0xbe, 0x5a, 0x70, 0xb8, 0x3e,
  0xe3, 0xd7, 0x92, 0xbd, 0xcb, 0xdd, 0x0b, 0x3e, 0x17, 0xea, 0x97, 0xbe,
  0xe3, 0x2f, 0x08, 0xbf, 0x37, 0x69, 0x5b, 0x3d, 0xbc, 0xa3, 0xf1, 0xbb,
  0x15, 0x48, 0x49, 0xbe, 0x62, 0xd2, 0xad, 0x3e, 0x32, 0xb8, 0x82, 0xbd,
  0x45, 0xc5, 0xd6, 0xbd, 0xf1, 0x97, 0xcb, 0xbe, 0xcb, 0x85, 0x80, 0x3c,
  0x1a, 0x27, 0x9c, 0x3e, 0xf2, 0x36, 0x9f, 0x3e, 0x12, 0xf3, 0xaf, 0x3e,
  0x4a, 0xd8, 0x96, 0x3e, 0xc1, 0xba, 0xe7, 0x3d, 0x9a, 0x38, 0xb2, 0xbe,
  0x8d, 0x36, 0xb0, 0xbe, 0xaa, 0x9c, 0x2e, 0x3e, 0x3a, 0x21, 0x3a, 0xbd,
  0xbc, 0x2f, 0x4a, 0x3e, 0xb1, 0xd5, 0xbc, 0xbc, 0xc2, 0x0b, 0x63, 0x3d,
  0xa1, 0x65, 0x3b, 0xbe, 0x4f, 0x55, 0xb3, 0x3b, 0x98, 0x03, 0xeb, 0x3e,
  0x93, 0xab, 0x84, 0xbe, 0xb1, 0x76, 0x1f, 0x3e, 0xb9, 0x69, 0xa1, 0x3e,
  0xda, 0xf4, 0x6e, 0xbe, 0x5b, 0x23, 0xc7, 0x3d, 0x5f, 0x55, 0xa6, 0x3d,
  0xcd, 0x10, 0xb3, 0x3e, 0xfe, 0x8f, 0x90, 0x3d, 0x9c, 0x15, 0x43, 0x3e,
  0xf7, 0x46, 0xe1, 0xbd, 0x97, 0x34, 0x33, 0x3e, 0x6a, 0x2f, 0xff, 0xbe,
  0x0c, 0x19, 0x53, 0xbd, 0xe6, 0x23, 0x36, 0x3e, 0xcd, 0x15, 0x74, 0x3e,
  0x96, 0x71, 0x9c, 0xbb, 0x19, 0x84, 0x3c, 0x3e, 0xb1, 0x73, 0x59, 0x3f,
  0x2b, 0xd3, 0x3a, 0x3f, 0x4a, 0x73, 0x5f, 0x3e, 0xb8, 0xa2, 0x38, 0xbe,
  0xf3, 0x0b, 0xbd, 0xbc, 0x1a, 0x6d, 0xa1, 0xbe, 0x17, 0xe4, 0xc5, 0xbe,
  0x20, 0xdc, 0x1f, 0xbe, 0x01, 0xd1, 0xd1, 0xbe, 0x7b, 0x16, 0xe3, 0xbd,
  0xdc, 0xe3, 0x34, 0xbe, 0xcc, 0xa1, 0x23, 0xbe, 0x84, 0xe3, 0x11, 0xbe,
  0xa5, 0xcc, 0xe9, 0xbc, 0xe2, 0x4d, 0x72, 0xbe, 0x6a, 0x9c, 0x86, 0xbe,
  0x74, 0x50, 0x81, 0xbe, 0xa6, 0x09, 0x38, 0x3e, 0xe8, 0x87, 0x23, 0xbd,
  0xd4, 0xa0, 0x0d, 0x3e, 0x25, 0x62, 0x0f, 0xbe, 0x9d, 0xa7, 0x8a, 0x3d,
  0xcf, 0x04, 0x61, 0xbe, 0x93, 0x94, 0xfe, 0x3d, 0x5d, 0x45, 0xbe, 0xbc,
  0x24, 0xe5, 0xfc, 0xbc, 0xe7, 0x55, 0xc0, 0x3d, 0x9a, 0xf7, 0x8e, 0xbd,
  0x6a, 0xff, 0x86, 0xbe, 0xb2, 0x47, 0x5c, 0xbe, 0x34, 0xca, 0x84, 0x3c,
  0x58, 0x03, 0x25, 0x3d, 0x4a, 0xb3, 0x50, 0x3d, 0x13, 0xfa, 0x48, 0xbe,
  0x48, 0x82, 0xb6, 0x3d, 0xdd, 0xbf, 0x6a, 0xbe, 0x61, 0x8b, 0x3c, 0x3e,
  0xd4, 0x1d, 0x30, 0x3d, 0x61, 0xdf, 0xfa, 0xbd, 0x99, 0xd8, 0xe9, 0xbd,
  0x3a, 0x6b, 0x5f, 0xbe, 0x8c, 0x4d, 0x3d, 0xbe, 0x60, 0x44, 0x67, 0xbe,
  0x7a, 0x65, 0x08, 0xbe, 0x7e, 0x17, 0xb0, 0x3c, 0x7c, 0x66, 0xdd, 0x3b,
  0x41, 0xa9, 0x1b, 0xbe, 0x03, 0xcb, 0x4b, 0x3e, 0x89, 0xc4, 0x97, 0xbd,
  0x43, 0xf3, 0x5f, 0xbe, 0xe7, 0x71, 0xad, 0xbd, 0xef, 0xee, 0x8d, 0xbe,
  0xe2, 0x10, 0x8f, 0xbe, 0x35, 0x12, 0x2a, 0xbe, 0x3b, 0x2e, 0x0e, 0x3e,
  0x70, 0xde, 0x95, 0xbe, 0xd9, 0xb3, 0xec, 0xbd, 0xb9, 0xc9, 0xa1, 0x3d,
  0x05, 0xed, 0xf5, 0x3d, 0x82, 0xbe, 0x53, 0x3e, 0x12, 0xd1, 0x33, 0x3d,
  0x41, 0x06, 0x03, 0x3e, 0xcf, 0x9c, 0x14, 0x3d, 0x67, 0x2c, 0x19, 0x3e,
  0x96, 0x2d, 0x8a, 0xbc, 0xed, 0x4e, 0x5e, 0x3d, 0x80, 0x2f, 0x79, 0xbd,
  0x53, 0x0e, 0x09, 0x3e, 0x72, 0x6e, 0xc8, 0x3d, 0x73, 0xb5, 0xb7, 0x3d,
  0x58, 0xfd, 0x5b, 0xbe, 0x16, 0xa1, 0x5e, 0xbe, 0xe3, 0xfb, 0x82, 0xbe,
  0x7f, 0xc7, 0x7d, 0xbe, 0x09, 0x63, 0xb1, 0xbc, 0x1a, 0x6b, 0x42, 0xbe,
  0xa5, 0x6d, 0x3a, 0x3a, 0xb0, 0xeb, 0x6f, 0x3d, 0xda, 0xef, 0xe1, 0xbd,
  0x99, 0xca, 0x0d, 0xbe, 0x3f, 0x30, 0xd8, 0x3d, 0xee, 0x85, 0x19, 0x3e,
  0x43, 0xe3, 0xa0, 0x3d, 0x4f, 0x6c, 0x35, 0xbe, 0x76, 0x27, 0xb0, 0xbe,
  0x57, 0x4f, 0xa8, 0xbe, 0xdb, 0xdd, 0x1e, 0xbd, 0x2c, 0x39, 0xb5, 0x3e,
  0x0d, 0x68, 0x1f, 0xbd, 0xe2, 0xd7, 0x29, 0xbf, 0xb1, 0xc1, 0xe0, 0xbe,
  0x1d, 0xc5, 0xbf, 0x3e, 0xe5, 0xca, 0x25, 0xbd, 0x7d, 0xe3, 0x23, 0xbe,
  0x33, 0x16, 0xfb, 0x3d, 0xe8, 0xac, 0x3f, 0x3d, 0x62, 0x18, 0x0a, 0xbf,
  0x7a, 0x6c, 0x0a, 0xbf, 0xe5, 0xbe, 0xf8, 0xbd, 0xf9, 0x99, 0x04, 0x3e,
  0x30, 0x88, 0x64, 0x3c, 0xbf, 0x2c, 0x01, 0x3e, 0x1a, 0x2c, 0x19, 0xbf,
  0x36, 0x61, 0x3e, 0x3e, 0x6e, 0xa5, 0xc3, 0x3c, 0x89, 0xb1, 0x1f, 0xbf,
  0xf8, 0x42, 0x90, 0xbe, 0x6f, 0x1c, 0xa3, 0xbd, 0x76, 0x11, 0x80, 0x3e,
  0xf3, 0x88, 0x9d, 0x3e, 0x2e, 0x56, 0xab, 0xbe, 0x6c, 0x35, 0x6b, 0xbd,
  0x54, 0x19, 0x12, 0x3e, 0xad, 0xde, 0x97, 0x3e, 0x7b, 0xae, 0x9b, 0x3e,
  0x06, 0x72, 0xb2, 0x3e, 0x0d, 0x97, 0xa0, 0xbd, 0xaf, 0xc3, 0xd6, 0xbd,
  0x83, 0x33, 0x83, 0x3d, 0x52, 0x25, 0xe8, 0xbd, 0x92, 0x8c, 0x8b, 0x3e,
  0x88, 0x39, 0x23, 0xbf, 0x7c, 0xc8, 0x3d, 0x3e, 0x5d, 0x7d, 0x93, 0xbe,
  0x65, 0xb5, 0xa3, 0x3e, 0x85, 0xb4, 0x40, 0x3e, 0x28, 0xac, 0xab, 0x3e,
  0xcc, 0xce, 0x37, 0xbe, 0xbf, 0x08, 0xcb, 0x3e, 0xc4, 0x86, 0xd7, 0xbd,
  0x30, 0x35, 0x05, 0x3c, 0xd8, 0x81, 0x60, 0xbe, 0x5f, 0x45, 0xe0, 0x3e,
  0x6c, 0x32, 0xcf, 0x3c, 0x41, 0x7a, 0xdb, 0xbe, 0xd1, 0xd3, 0xff, 0x3d,
  0x2b, 0xad, 0x54, 0x3e, 0x9e, 0x89, 0x7e, 0x3e, 0xb0, 0x2c, 0x71, 0xbe,
  0xfe, 0x4c, 0xa7, 0xbd, 0x56, 0xbc, 0x5e, 0x3b, 0xcb, 0x3c, 0xa0, 0x3e,
  0xdb, 0x00, 0x13, 0x3e, 0xe8, 0xf8, 0x94, 0x3c, 0xf8, 0xd2, 0x49, 0x3d,
  0xf1, 0xa1, 0x22, 0xbf, 0x6f, 0x36, 0xdf, 0xbd, 0x67, 0xdf, 0x87, 0x3e,
  0xb5, 0x2c, 0x5a, 0x3e, 0x62, 0xc8, 0x0f, 0xbf, 0xe2, 0x39, 0x8b, 0x3d,
  0x70, 0xb6, 0xb7, 0xbe, 0xae, 0x51, 0x3f, 0x3e, 0x15, 0xd2, 0x80, 0x3d,
  0x33, 0xc6, 0x94, 0xbe, 0x5f, 0x61, 0x41, 0x3c, 0xb3, 0x87, 0x03, 0xbf,
  0x28, 0x28, 0x88, 0xbd, 0x2a, 0x56, 0xa8, 0x3e, 0x6e, 0x6a, 0xb6, 0xbc,
  0xbf, 0x66, 0xd7, 0xbe, 0x0b, 0x85, 0xa5, 0x3e, 0x39, 0x67, 0xbf, 0x3c,
  0xf9, 0xba, 0xa1, 0x3e, 0xf0, 0x9b, 0xb0, 0xbd, 0x7d, 0x48, 0x36, 0x3d,
  0x04, 0x7c, 0x82, 0x3d, 0xd9, 0xd2, 0x89, 0xbc, 0xa3, 0xd4, 0x69, 0x3d,
  0x6d, 0x61, 0x77, 0xbe, 0x6a, 0xac, 0x16, 0x3c, 0x60, 0xf7, 0x2e, 0x3d,
  0xb1, 0xa3, 0xc0, 0x3e, 0x98, 0x9d, 0x09, 0x3e, 0x78, 0xe1, 0x1f, 0x3e,
  0x7a, 0xd1, 0x22, 0xbf, 0xb2, 0x43, 0x25, 0x3b, 0x2c, 0xe4, 0x8a, 0xbe,
  0x67, 0xdd, 0x36, 0x3d, 0xa3, 0x9c, 0x82, 0xbc, 0x21, 0x8a, 0x30, 0xbf,
  0x17, 0x98, 0x0d, 0xbf, 0x32, 0x53, 0xe6, 0xbe, 0x1f, 0xee, 0x9e, 0xbf,
  0x97, 0x62, 0x03, 0x3e, 0x33, 0xdd, 0x5a, 0x3e, 0x2d, 0xce, 0x5c, 0xbf,
  0x6f, 0x9c, 0xb9, 0xbe, 0x8d, 0xac, 0x51, 0xbe, 0x64, 0xe2, 0x15, 0xbf,
  0xfe, 0x38, 0xe0, 0x3e, 0x57, 0x2a, 0xce, 0xbe, 0x54, 0x32, 0x81, 0x3e,
  0xb2, 0xa1, 0xcc, 0xbd, 0xa6, 0x83, 0x27, 0xbf, 0xbf, 0x40, 0xdf, 0x3d,
  0xe4, 0x67, 0x44, 0xbe, 0xbd, 0x66, 0xaa, 0xbc, 0x55, 0xb2, 0x4a, 0xbd,
  0xdd, 0x92, 0x3e, 0x3d, 0xde, 0xff, 0x8c, 0x3e, 0x83, 0x98, 0xb0, 0x3c,
  0x7c, 0x66, 0x39, 0xbb, 0x40, 0x14, 0xc4, 0x3e, 0xbb, 0xda, 0x7f, 0xbe,
  0xdd, 0xc2, 0xc4, 0x3d, 0x04, 0x5e, 0xab, 0xbd, 0x73, 0x8c, 0x40, 0x3e,
  0x38, 0x44, 0x5d, 0xbe, 0x01, 0x38, 0xd6, 0x3d, 0x6d, 0x2c, 0xea, 0x3c,
  0x1b, 0x32, 0x16, 0x3e, 0xb7, 0x97, 0xec, 0xbd, 0x6e, 0x42, 0x5c, 0x3e,
  0x9e, 0x2f, 0x80, 0xbf, 0x3d, 0x88, 0x91, 0xbd, 0x0f, 0x04, 0xfd, 0x3e,
  0x15, 0xd5, 0x20, 0xbf, 0xb3, 0x6f, 0x81, 0x3d, 0xc4, 0x7f, 0xf2, 0xbd,
  0x62, 0x11, 0x23, 0x3f, 0x7d, 0x61, 0x24, 0x3f, 0x4f, 0x1a, 0x32, 0xbe,
  0x66, 0x58, 0x36, 0x3e, 0x38, 0x94, 0x78, 0x3c, 0xfe, 0x8d, 0x3c, 0x3e,
  0x1e, 0xa6, 0x2b, 0xbf, 0x45, 0x77, 0x78, 0x3d, 0x72, 0x3e, 0xc4, 0x3d,
  0xff, 0x94, 0x19, 0x3e, 0x5c, 0x4c, 0xbd, 0x3d, 0xba, 0x6e, 0x12, 0x3e,
  0x5d, 0xdc, 0x3f, 0x3a, 0xdd, 0x73, 0xda, 0xbe, 0x78, 0xcb, 0x30, 0xbe,
  0x07, 0x4a, 0x9b, 0x3d, 0x9a, 0xe2, 0xe0, 0xbe, 0xa8, 0xf5, 0x1d, 0xbe,
  0x99, 0xf4, 0x57, 0xbd, 0x25, 0x13, 0x46, 0xbd, 0x31, 0xeb, 0x0d, 0xbe,
  0x00, 0x7e, 0x9d, 0xbe, 0xea, 0x86, 0x29, 0xbe, 0xcc, 0x82, 0x5d, 0x3d,
  0x04, 0x34, 0xbb, 0x3d, 0x8b, 0xc7, 0xdf, 0x3e, 0xee, 0x45, 0x0b, 0x3b,
  0xfa, 0x84, 0x90, 0x3d, 0xd1, 0x4e, 0x0b, 0xbd, 0xa5, 0x81, 0x5f, 0x3d,
  0x68, 0x68, 0x4e, 0x3d, 0x8d, 0x34, 0x54, 0x3c, 0xb0, 0x65, 0x5a, 0x3e,
  0x90, 0x2a, 0x14, 0x3e, 0xcd, 0x80, 0x25, 0xbd, 0x10, 0x8d, 0x10, 0xbf,
  0x3a, 0x09, 0x0c, 0xbf, 0x78, 0x6e, 0x09, 0xbe, 0x57, 0xe9, 0xdd, 0x3d,
  0x8a, 0xa0, 0x02, 0xbd, 0x38, 0x50, 0x44, 0x3e, 0x58, 0xac, 0x59, 0x3e,
  0x6d, 0xbb, 0xd3, 0xbe, 0x7f, 0x37, 0x79, 0xbe, 0x18, 0x23, 0xc1, 0x3e,
  0xc0, 0xaf, 0x53, 0xbf, 0xb0, 0xf7, 0xe5, 0x3d, 0xd8, 0x08, 0x26, 0x3e,
  0xb1, 0x3b, 0xe9, 0xbe, 0x31, 0xc6, 0x37, 0xbf, 0x5c, 0x22, 0x6c, 0xbe,
  0x50, 0xbc, 0xec, 0x3a, 0x64, 0xec, 0x67, 0x3c, 0xc4, 0xc7, 0x11, 0xbd,
  0x1e, 0x75, 0x27, 0xbe, 0x80, 0xc2, 0x54, 0x3e, 0xb4, 0x5d, 0x33, 0xbf,
  0xb5, 0x26, 0xac, 0xbd, 0x56, 0x79, 0x10, 0x3e, 0x31, 0x3e, 0x9f, 0xbd,
  0xac, 0x0d, 0x73, 0xbe, 0xdc, 0x81, 0xeb, 0xbd, 0x3d, 0xf6, 0x38, 0x3e,
  0x4a, 0xe7, 0x37, 0x3e, 0x2f, 0xa1, 0xb6, 0x3d, 0x9d, 0x60, 0x29, 0xbe,
  0x97, 0x6f, 0x36, 0x3e, 0x78, 0x82, 0x41, 0x3d, 0x5b, 0x0b, 0x4e, 0x3e,
  0x5c, 0xad, 0x9a, 0xbd, 0x03, 0xb8, 0xb2, 0xbe, 0x0c, 0xe0, 0xa0, 0xbd,
  0x81, 0x2d, 0x53, 0xbf, 0xe3, 0xb9, 0x16, 0xbf, 0xc9, 0x06, 0x04, 0xbf,
  0x63, 0x7f, 0x09, 0x3c, 0xdf, 0xf1, 0xa8, 0xbd, 0xb9, 0x84, 0xfd, 0xbe,
  0xa6, 0xc4, 0xcb, 0x3d, 0x2a, 0x33, 0x58, 0xbe, 0x6a, 0xde, 0x2c, 0xbe,
  0xb3, 0x6b, 0x86, 0x3d, 0xba, 0xd2, 0x32, 0xbc, 0x16, 0x91, 0xa4, 0xbe,
  0x98, 0x74, 0x5e, 0xbe, 0x43, 0x05, 0x9a, 0x3c, 0x47, 0x36, 0xf8, 0x3d,
  0x2a, 0x93, 0x5a, 0xbe, 0x5d, 0x7c, 0xc0, 0xbe, 0x02, 0x03, 0x43, 0x3e,
  0xf8, 0x48, 0x42, 0xbc, 0x0d, 0xd0, 0x01, 0xbe, 0x1d, 0x63, 0xde, 0xbc,
  0xe7, 0xe7, 0xeb, 0xb7, 0xe1, 0xda, 0xce, 0x3d, 0x09, 0x81, 0x9f, 0x3d,
  0x21, 0x09, 0xfd, 0xbd, 0xbe, 0x29, 0x27, 0xbf, 0x80, 0x21, 0x9d, 0xbe,
  0x0c, 0x04, 0xfa, 0xbe, 0x79, 0x05, 0x89, 0x3d, 0x2b, 0xf9, 0x05, 0x3f,
  0x59, 0x8e, 0x1b, 0x3e, 0x19, 0x59, 0x6c, 0xbe, 0x42, 0x2e, 0x49, 0xbd,
  0xd4, 0xf6, 0xbe, 0xbe, 0xb5, 0x85, 0x81, 0xbe, 0xbb, 0x5a, 0x02, 0xbd,
  0xa6, 0x75, 0xb5, 0xbd, 0xc7, 0xda, 0xde, 0xbe, 0x16, 0x85, 0xda, 0xbc,
  0xe0, 0x59, 0xb1, 0x39, 0x5e, 0xe3, 0xff, 0xff, 0x04, 0x00, 0x00, 0x00,
  0x80, 0x00, 0x00, 0x00, 0x22, 0xe9, 0xc1, 0x3e, 0x04, 0x73, 0x38, 0x40,
  0x52, 0x91, 0x42, 0x3f, 0x8b, 0xa1, 0x2a, 0x40, 0x25, 0xcd, 0x01, 0x40,
  0x27, 0x56, 0xb1, 0x3f, 0xe4, 0xa2, 0x8e, 0x3f, 0xfa, 0x8f, 0x94, 0x3f,
  0x9c, 0x44, 0xcb, 0x3f, 0xab, 0xcc, 0x52, 0x40, 0x8f, 0x87, 0x1e, 0x3e,
  0x69, 0xb6, 0x00, 0x40, 0x8b, 0x8f, 0xe4, 0x3f, 0x07, 0xc3, 0x90, 0x3d,
  0x0e, 0x17, 0x17, 0x40, 0x7a, 0xa7, 0xda, 0x3f, 0xfd, 0x2e, 0x00, 0x40,
  0x3c, 0xd2, 0xbc, 0x3f, 0x12, 0xf8, 0xd6, 0x3f, 0xf8, 0x63, 0x07, 0x40,
  0x63, 0x7f, 0x23, 0x40, 0x8d, 0x64, 0xc2, 0x3f, 0x98, 0xbc, 0x87, 0x3f,
  0x43, 0x3d, 0xa4, 0x3f, 0x1f, 0x79, 0xc4, 0x3e, 0x82, 0xe5, 0x10, 0x40,
  0x5b, 0xde, 0x08, 0x40, 0x8f, 0x48, 0xd9, 0x3f, 0x0d, 0xeb, 0xed, 0x3f,
  0x8e, 0x7a, 0xe3, 0x3f, 0x02, 0xfa, 0x98, 0x3f, 0x68, 0x2a, 0x1c, 0x40,
  0xea, 0xe3, 0xff, 0xff, 0x04, 0x00, 0x00, 0x00, 0x00, 0x10, 0x00, 0x00,
  0xed, 0x74, 0xdf, 0x3e, 0xea, 0xe4, 0xea, 0x3c, 0x70, 0xc4, 0xb9, 0x3e,
  0xea, 0xeb, 0x52, 0xbf, 0x35, 0xf4, 0xb4, 0x3f, 0xac, 0xa4, 0xe3, 0xbe,
  0xc1, 0xe5, 0xa4, 0xc0, 0xa9, 0xc8, 0xe6, 0x3e, 0xd7, 0x5d, 0x01, 0x3f,
  0xd0, 0x73, 0x6f, 0xbf, 0x81, 0x91, 0x18, 0xbf, 0xe3, 0x95, 0xb0, 0xbe,
  0x78, 0x61, 0x0c, 0xbf, 0x75, 0xca, 0xe5, 0x3e, 0x2d, 0x47, 0x91, 0x3e,
  0x3c, 0x4f, 0xdb, 0xbf, 0x27, 0x1d, 0x5a, 0x3f, 0x8c, 0x9a, 0xc6, 0xbd,
  0xc8, 0x75, 0xeb, 0xbe, 0xcc, 0x14, 0x89, 0x3f, 0x1f, 0x0d, 0xfc, 0x3f,
  0x98, 0xd0, 0x97, 0xbf, 0x82, 0x89, 0x10, 0xc0, 0xe0, 0x37, 0xa1, 0xbd,
  0x05, 0xe9, 0x49, 0xbe, 0x6a, 0x9c, 0x0f, 0xc1, 0xa7, 0x36, 0x13, 0x3f,
  0xec, 0x47, 0x38, 0xc1, 0x5d, 0x79, 0x8d, 0x3f, 0x58, 0x7f, 0x1a, 0xbf,
  0xb3, 0xf4, 0x39, 0x3e, 0x05, 0x50, 0xaa, 0x3f, 0x6b, 0x5d, 0x9f, 0xbf,
  0xfe, 0x19, 0xae, 0xbe, 0xde, 0x40, 0x34, 0x3f, 0x31, 0x69, 0x7b, 0x3f,
  0xa6, 0xde, 0x9e, 0xbf, 0x0d, 0xba, 0xd4, 0xbe, 0x87, 0x1b, 0x05, 0xc1,
  0xb6, 0x6e, 0x42, 0x3f, 0xe7, 0x55, 0x03, 0xbf, 0xed, 0xe7, 0xae, 0x3f,
  0xe8, 0xf5, 0xc9, 0xbf, 0xa4, 0x0a, 0x19, 0xbf, 0xd9, 0xc6, 0x5a, 0xbd,
  0x53, 0x44, 0x4d, 0xbe, 0x49, 0x8d, 0xa2, 0xbe, 0x42, 0xfe, 0x9a, 0xc0,
  0xb2, 0x30, 0x3a, 0x3d, 0xba, 0x35, 0xbe, 0xbe, 0x46, 0x10, 0xa8, 0xbc,
  0xa8, 0x1f, 0x34, 0xc0, 0xa8, 0xe5, 0x9d, 0x3e, 0xfe, 0xf6, 0xad, 0xbc,
  0x2c, 0xa0, 0x55, 0xbd, 0x2c, 0x95, 0xde, 0xbe, 0x6f, 0x11, 0xa0, 0xbe,
  0x46, 0x31, 0x0d, 0xc1, 0xa8, 0x5f, 0xa3, 0x3e, 0x25, 0x6d, 0x13, 0xc1,
  0x8f, 0xae, 0xb3, 0x3e, 0x73, 0x08, 0x86, 0xbf, 0xb6, 0xa8, 0x92, 0xbc,
  0x27, 0x47, 0x04, 0xbf, 0x36, 0xf8, 0xaa, 0x3e, 0x83, 0x39, 0xcc, 0x3f,
  0xa4, 0x87, 0x96, 0x3f, 0x3c, 0x9c, 0x62, 0x3f, 0x77, 0x80, 0x0a, 0xbd,
  0x12, 0x40, 0x59, 0x3e, 0x7e, 0xe8, 0x84, 0xc1, 0xaa, 0x96, 0xc2, 0xbc,
  0x88, 0x43, 0xe2, 0x3e, 0x77, 0xfb, 0x1d, 0xc0, 0x5f, 0x22, 0x07, 0x40,
  0xbc, 0xd9, 0x6c, 0xbe, 0xda, 0x69, 0xac, 0x3e, 0xea, 0xbd, 0x80, 0xbd,
  0xaf, 0x1e, 0x98, 0xbd, 0xfe, 0xfe, 0x31, 0x3f, 0xd7, 0xa7, 0x45, 0x3e,
  0x83, 0xcb, 0xa0, 0x3c, 0x40, 0xcb, 0x0a, 0xbe, 0x6e, 0xd1, 0x21, 0xbe,
  0x2b, 0x65, 0x3f, 0xbe, 0xff, 0x55, 0x13, 0xc0, 0x56, 0xd4, 0x56, 0xbf,
  0xbb, 0xfd, 0x5c, 0xbe, 0xa8, 0xda, 0x2a, 0x3e, 0xbb, 0xd6, 0xf1, 0xc0,
  0xa5, 0x14, 0x6b, 0x3f, 0x9b, 0x1d, 0x14, 0xc1, 0x1d, 0x36, 0xfe, 0xbe,
  0x08, 0x5e, 0x2e, 0x3f, 0x2d, 0x98, 0x8b, 0x3f, 0xd0, 0x86, 0x85, 0xbe,
  0xec, 0x1b, 0x2d, 0x3f, 0xe5, 0x27, 0xca, 0xbe, 0xbd, 0x71, 0x7e, 0x3e,
  0x17, 0x69, 0xa6, 0x3f, 0x50, 0x1e, 0x12, 0x3f, 0x1e, 0xf6, 0x65, 0xbf,
  0x4b, 0xb1, 0x48, 0xc0, 0xdb, 0x46, 0x6a, 0xbe, 0x12, 0x1b, 0x52, 0xbe,
  0xd1, 0x33, 0x6f, 0xbc, 0xee, 0xee, 0x6b, 0x3f, 0x85, 0xb6, 0x27, 0xbf,
  0xd7, 0x59, 0x9e, 0xbe, 0x92, 0x83, 0x96, 0x3d, 0x9d, 0x70, 0x1f, 0xbe,
  0x6e, 0x34, 0x60, 0xbf, 0x97, 0xf2, 0x06, 0xbf, 0xb3, 0x53, 0xe8, 0xbe,
  0x7f, 0x62, 0x87, 0xbe, 0x2e, 0xc1, 0x92, 0xc0, 0x1d, 0x61, 0x94, 0x3e,
  0x1a, 0xd6, 0xc2, 0x3e, 0xe1, 0x9c, 0x6b, 0x3f, 0x7c, 0x3b, 0x90, 0xbf,
  0x15, 0x5c, 0xfc, 0x3d, 0xdd, 0x68, 0xee, 0xbf, 0x72, 0x07, 0xc7, 0x3e,
  0xa6, 0xec, 0x90, 0xc0, 0xf4, 0xb1, 0x62, 0xbf, 0x30, 0xac, 0x04, 0xbf,
  0x93, 0x8b, 0x14, 0xc0, 0xbd, 0xaa, 0xb3, 0x3f, 0x91, 0x92, 0x5c, 0x3f,
  0xf6, 0x5e, 0x1d, 0xbf, 0x08, 0x96, 0x38, 0xc0, 0x3e, 0xd6, 0x4b, 0x3f,
  0xc5, 0x49, 0xcf, 0x3e, 0x48, 0x20, 0x0e, 0x3f, 0xe0, 0xff, 0x3a, 0xc0,
  0x2d, 0xb6, 0x6b, 0xbe, 0xe8, 0x02, 0x6d, 0x3e, 0x03, 0x2d, 0x96, 0x3e,
  0xfd, 0x29, 0x3d, 0xc0, 0x07, 0x20, 0x9a, 0xbd, 0x62, 0xf6, 0x03, 0x3f,
  0x7c, 0x30, 0x86, 0x3d, 0x9a, 0xf8, 0x1d, 0x3e, 0xda, 0x78, 0xea, 0x3e,
  0x9f, 0xd1, 0x24, 0xc0, 0x9f, 0x62, 0x0d, 0x3f, 0x85, 0x4e, 0xe4, 0x3d,
  0x1d, 0xfc, 0xfc, 0xbf, 0x9f, 0x00, 0xad, 0xbf, 0x5d, 0x26, 0xde, 0xbe,
  0xdd, 0x85, 0xbc, 0xbf, 0xbe, 0xec, 0x54, 0xbf, 0xb2, 0x03, 0xaa, 0xbe,
  0x24, 0x48, 0xe8, 0xc0, 0x45, 0x33, 0x08, 0xbd, 0x9c, 0xce, 0xdf, 0xc0,
  0xa0, 0xa9, 0xa7, 0xbe, 0x17, 0x35, 0xba, 0xbe, 0x22, 0xfe, 0xdf, 0xbe,
  0x5c, 0x99, 0x4d, 0x3f, 0x72, 0xa1, 0x72, 0x3f, 0xc5, 0xdd, 0xa0, 0xbe,
  0xbb, 0xdf, 0x0b, 0x3f, 0x3d, 0xf9, 0x5a, 0x3f, 0x1b, 0x01, 0xa1, 0x3f,
  0x87, 0x26, 0x5e, 0xbf, 0x2f, 0x61, 0xa2, 0xc0, 0xa3, 0x69, 0x87, 0x3d,
  0x51, 0x13, 0xab, 0x3e, 0x38, 0xc1, 0xe4, 0xbe, 0x13, 0x2b, 0x9b, 0xc0,
  0xa1, 0x38, 0x05, 0xbf, 0x4d, 0x41, 0x22, 0x3c, 0xf0, 0xfa, 0xbe, 0x3d,
  0x8b, 0x90, 0x28, 0xc0, 0x03, 0xaf, 0x92, 0xbe, 0xb6, 0x6a, 0xc7, 0x3e,
  0xa0, 0xa1, 0x0c, 0x3e, 0x76, 0x7d, 0x3a, 0xbe, 0xcd, 0x4f, 0xc2, 0xbe,
  0x7f, 0xfd, 0x2d, 0xbf, 0xd2, 0x3c, 0xa3, 0xbe, 0x11, 0x5a, 0xd3, 0xbe,
  0x79, 0xb6, 0x68, 0xbe, 0x8a, 0x41, 0x09, 0xbe, 0x83, 0xcd, 0x09, 0x40,
  0xe9, 0xeb, 0xa9, 0xbe, 0x4f, 0xa7, 0x33, 0xc1, 0x70, 0x3e, 0x48, 0xbd,
  0xf5, 0xd3, 0xe2, 0x3d, 0x37, 0x77, 0xaf, 0xbe, 0x9f, 0x0d, 0x00, 0xbe,
  0xd8, 0xda, 0x09, 0x3f, 0x6a, 0xbe, 0x74, 0x3e, 0xe7, 0x82, 0x42, 0xbe,
  0x80, 0xe8, 0xff, 0xbf, 0x85, 0xb7, 0xe8, 0x3e, 0x17, 0xc0, 0xae, 0xbe,
  0x25, 0xb3, 0xfd, 0xc0, 0x0a, 0x39, 0x73, 0x3e, 0x30, 0xa3, 0x30, 0x3f,
  0x64, 0x7d, 0xbe, 0x3f, 0x79, 0xcc, 0x10, 0xbe, 0xf3, 0xd8, 0x55, 0x3f,
  0x28, 0x1a, 0xaf, 0xbe, 0xbe, 0x5d, 0x1c, 0xc0, 0xe0, 0xf5, 0xff, 0xbe,
  0x2e, 0x10, 0xca, 0xc0, 0xbb, 0xed, 0x49, 0xbe, 0xe1, 0x04, 0xd9, 0xbe,
  0x4b, 0xbe, 0x1d, 0x3d, 0x63, 0x08, 0xc5, 0x3f, 0xcb, 0x34, 0x66, 0x3f,
  0x4a, 0xb6, 0x5a, 0x3e, 0xe0, 0x36, 0xf8, 0xbf, 0xdf, 0x41, 0x72, 0xbf,
  0x3e, 0x34, 0x38, 0xbf, 0xc8, 0xa1, 0x04, 0xc1, 0xf1, 0x86, 0xc7, 0x3e,
  0x6e, 0x3d, 0xe9, 0xc0, 0xac, 0xb6, 0x59, 0xbe, 0x6d, 0x7e, 0x09, 0x3f,
  0x74, 0x99, 0x97, 0xbf, 0x63, 0xa9, 0xd3, 0xbd, 0x2b, 0x02, 0xd9, 0x3e,
  0xee, 0x87, 0xa1, 0xbd, 0x39, 0xd9, 0x43, 0xbe, 0x7e, 0xf4, 0xa0, 0xbe,
  0x72, 0x46, 0xab, 0x3e, 0xec, 0x4e, 0x59, 0xbf, 0x48, 0x6b, 0xbb, 0xc0,
  0xb7, 0x9e, 0xe0, 0xbe, 0x4b, 0x56, 0x53, 0xbf, 0xee, 0x5b, 0x03, 0x3e,
  0x6f, 0xa7, 0x11, 0x40, 0x86, 0x12, 0xbc, 0x3f, 0xdf, 0x6a, 0xb1, 0x3f,
  0xfb, 0xb5, 0x97, 0xbe, 0xd0, 0x74, 0xb0, 0xbf, 0xe7, 0xa0, 0x55, 0x3f,
  0xfc, 0x96, 0x21, 0x3f, 0xe7, 0x39, 0xc6, 0x3e, 0x18, 0xe0, 0x1b, 0xbb,
  0x61, 0xf1, 0x38, 0xbe, 0xe4, 0xf0, 0xd6, 0xbc, 0x31, 0xaf, 0x74, 0x3e,
  0x6f, 0x1b, 0x71, 0xbf, 0xe0, 0x3b, 0x54, 0xbe, 0x44, 0x4c, 0x90, 0x3f,
  0x0e, 0xb2, 0xc1, 0xc0, 0x4c, 0x6f, 0x02, 0xbe, 0x7a, 0x1a, 0xbe, 0xbf,
  0x65, 0x5c, 0xfc, 0xbd, 0x76, 0x9d, 0x9e, 0x3f, 0xc8, 0xe6, 0x53, 0xbd,
  0x8a, 0x45, 0xc3, 0xbf, 0x2e, 0x41, 0x74, 0x3f, 0x66, 0x28, 0x0c, 0x3e,
  0x1c, 0xdf, 0x12, 0xbf, 0xd1, 0xab, 0x3b, 0x3f, 0x43, 0x82, 0x3a, 0xbf,
  0xf2, 0xe5, 0x1b, 0x3f, 0x14, 0xa2, 0x07, 0xc1, 0x22, 0x7c, 0x78, 0x3d,
  0x45, 0x8d, 0x0d, 0x3f, 0x05, 0xb6, 0x84, 0x3f, 0xa6, 0xba, 0x06, 0x40,
  0x75, 0xa8, 0xb1, 0x3d, 0xfc, 0x76, 0x7f, 0x3f, 0x1d, 0x25, 0x6a, 0xbc,
  0x3a, 0xe6, 0x49, 0xbe, 0x20, 0x29, 0x99, 0xbe, 0x7a, 0x15, 0x1d, 0xbf,
  0xf0, 0xc6, 0x13, 0xbe, 0x3f, 0xb4, 0x70, 0x3d, 0x24, 0x07, 0x9f, 0xbf,
  0x8e, 0xb0, 0xe3, 0x3e, 0x9a, 0xe9, 0xb1, 0xbb, 0x69, 0x6d, 0x16, 0xc0,
  0xd2, 0x5f, 0x42, 0xbf, 0x83, 0x90, 0xa8, 0x3f, 0xe7, 0x28, 0xc8, 0xbf,
  0x41, 0x92, 0x6f, 0x3e, 0x4e, 0x47, 0xc5, 0xc0, 0x52, 0x8c, 0x4c, 0xbf,
  0xd0, 0x93, 0xea, 0xbf, 0x24, 0x4d, 0x58, 0x3e, 0x4a, 0x83, 0x76, 0xbc,
  0x3a, 0xa3, 0xee, 0xbe, 0xe2, 0x5f, 0x6c, 0xbf, 0x6f, 0x20, 0x5c, 0xbf,
  0x39, 0x1a, 0x0e, 0x3f, 0x9a, 0xe7, 0xef, 0xbc, 0x6e, 0x58, 0x64, 0xbf,
  0xe8, 0x7d, 0x24, 0xc1, 0x10, 0xcf, 0x35, 0xbf, 0xaf, 0x28, 0xa5, 0xbe,
  0xfa, 0x51, 0x43, 0xbf, 0xd4, 0x75, 0x4b, 0x40, 0xa9, 0x64, 0x67, 0xbe,
  0xb9, 0x80, 0x2d, 0xc0, 0x10, 0x09, 0x1e, 0xbe, 0x58, 0xdf, 0x04, 0x3f,
  0x7a, 0xb0, 0x93, 0xbe, 0x9e, 0x4f, 0x55, 0xc0, 0xca, 0x29, 0xbe, 0xbd,
  0x86, 0x03, 0x63, 0xbe, 0x65, 0xa9, 0x8c, 0x3d, 0x94, 0x08, 0x70, 0xbf,
  0x93, 0x43, 0x1d, 0xbf, 0xf6, 0xbd, 0x97, 0x3e, 0xd1, 0x87, 0xfd, 0xbc,
  0xfb, 0x37, 0x93, 0xbe, 0x4f, 0xfe, 0x62, 0xc1, 0x6c, 0x5f, 0xd3, 0xbd,
  0xe6, 0xfc, 0x86, 0xc0, 0xd7, 0x3f, 0xb8, 0x3e, 0x87, 0xd9, 0x50, 0x3e,
  0x0e, 0x3d, 0x1f, 0xbf, 0xb2, 0x75, 0xf8, 0xbf, 0xba, 0x67, 0x1f, 0xbf,
  0xaf, 0x1f, 0x3f, 0x3f, 0x85, 0x00, 0x52, 0x3e, 0x9e, 0x0b, 0xe3, 0xbf,
  0xd3, 0x2c, 0x36, 0x3f, 0xa3, 0xa7, 0x35, 0x3d, 0x7f, 0xa8, 0xfb, 0xc0,
  0x99, 0x3a, 0x2d, 0x3f, 0x12, 0x63, 0xdd, 0x3e, 0x42, 0x5d, 0xc6, 0xbd,
  0xb9, 0x10, 0x96, 0x3f, 0x3f, 0x6e, 0xac, 0x3e, 0xf5, 0x85, 0x00, 0x3f,
  0x06, 0xe0, 0x8a, 0x3f, 0xf0, 0xea, 0xb2, 0xbf, 0x4b, 0xd8, 0xa9, 0x3f,
  0x9f, 0x3d, 0x59, 0x3f, 0x4e, 0xae, 0xd5, 0xbd, 0x27, 0x23, 0xbe, 0x3e,
  0xf3, 0xfc, 0x2e, 0xc0, 0xca, 0xa6, 0xda, 0xbe, 0x3c, 0x47, 0x9e, 0x3f,
  0xf7, 0x8f, 0x9d, 0xbf, 0x0a, 0xd7, 0x23, 0xc0, 0x59, 0x62, 0x12, 0xbf,
  0x90, 0x32, 0x1d, 0xc1, 0x5b, 0xd0, 0x0d, 0x3f, 0xbe, 0x26, 0xf6, 0xbe,
  0xab, 0x3d, 0x91, 0xbe, 0x9c, 0xf8, 0x95, 0xbe, 0x3d, 0x8b, 0xd5, 0xbe,
  0x7a, 0x3c, 0x96, 0xbf, 0x9a, 0x46, 0x67, 0x3f, 0x4e, 0x32, 0x19, 0xbe,
  0xe7, 0x56, 0x30, 0x40, 0x49, 0xed, 0x39, 0xbd, 0x19, 0xd8, 0x49, 0xbe,
  0x0a, 0xe0, 0x35, 0xbe, 0xde, 0x80, 0x58, 0xc0, 0x26, 0xcd, 0xba, 0x3d,
  0x6e, 0xe5, 0x4b, 0x3d, 0x30, 0x34, 0x88, 0x3f, 0xe6, 0xf1, 0xd2, 0x3e,
  0xf5, 0x10, 0x10, 0xbf, 0xd9, 0x7f, 0xba, 0xbe, 0x92, 0xe6, 0x08, 0x3d,
  0x58, 0x71, 0x9f, 0x3e, 0x70, 0x04, 0x3e, 0xbf, 0x99, 0xf1, 0x8f, 0x3e,
  0xca, 0x84, 0x1c, 0x3e, 0x88, 0x92, 0xdf, 0xbd, 0xda, 0x00, 0x18, 0x3f,
  0x06, 0x33, 0x59, 0xbf, 0x5e, 0x5b, 0xec, 0xbe, 0xfd, 0x01, 0x0b, 0xbf,
  0x04, 0x6a, 0x0c, 0xbe, 0xb8, 0xdc, 0x9f, 0x3f, 0x39, 0x60, 0x21, 0xc1,
  0x73, 0x08, 0xb8, 0x3f, 0xd7, 0x4f, 0x40, 0x3e, 0xfa, 0x88, 0x0e, 0x3e,
  0x36, 0x5a, 0x82, 0xbd, 0x16, 0x25, 0x64, 0xbf, 0xeb, 0xd6, 0x25, 0xbf,
  0x2a, 0x99, 0x6b, 0xbf, 0x51, 0xf3, 0x93, 0xbe, 0xc3, 0x5b, 0x73, 0xbf,
  0xd5, 0x3f, 0xed, 0xbc, 0x5f, 0xba, 0x4a, 0x3f, 0x77, 0x63, 0xd3, 0xbf,
  0x34, 0x00, 0x98, 0xc0, 0x46, 0x8d, 0x1b, 0x3f, 0xc3, 0x35, 0x02, 0xbe,
  0x24, 0xd2, 0xc9, 0xbe, 0x44, 0xc1, 0xbd, 0xbe, 0xbd, 0x3a, 0xe5, 0x3f,
  0x4e, 0x0a, 0x2f, 0xc0, 0x5a, 0x1e, 0x98, 0x3e, 0x99, 0x05, 0x13, 0x3e,
  0x96, 0x57, 0xa7, 0xbb, 0xed, 0x88, 0x2f, 0x3e, 0x00, 0xb0, 0xc8, 0xbe,
  0x62, 0xf8, 0xba, 0xbd, 0x28, 0x71, 0x87, 0xbf, 0xf1, 0x20, 0x36, 0x3b,
  0xbf, 0xd8, 0x10, 0x3e, 0x64, 0x8e, 0x21, 0xc0, 0xbb, 0x71, 0xe9, 0xbd,
  0xcf, 0xe9, 0x94, 0xbf, 0x28, 0xed, 0x13, 0xc1, 0xd9, 0xe3, 0xae, 0xbe,
  0x65, 0x43, 0x8a, 0xc0, 0x55, 0xe5, 0xa0, 0x3e, 0x55, 0x62, 0xb5, 0xbe,
  0x84, 0x80, 0x00, 0x3e, 0x1e, 0x1f, 0x4b, 0xc0, 0x01, 0xb4, 0x94, 0xbe,
  0x4c, 0x64, 0x5f, 0x3f, 0xdc, 0xdd, 0x4d, 0x3f, 0x64, 0x15, 0x37, 0x40,
  0xc5, 0x80, 0x09, 0x3e, 0xc6, 0x55, 0x03, 0xbf, 0x44, 0x69, 0x0c, 0xc1,
  0x76, 0x8f, 0x37, 0x3f, 0xd5, 0x34, 0x04, 0x3f, 0xc7, 0xae, 0x11, 0x3f,
  0x29, 0x05, 0x39, 0x3f, 0x7c, 0x47, 0x9a, 0x3e, 0x5b, 0xc7, 0xee, 0xbe,
  0x89, 0x54, 0x10, 0xc0, 0x20, 0x5d, 0x05, 0xbe, 0xd9, 0x22, 0x67, 0x3f,
  0xc4, 0xe2, 0x68, 0x3e, 0xc2, 0xd2, 0x2e, 0x3f, 0x7f, 0x0d, 0x5f, 0xbd,
  0x22, 0x83, 0x10, 0xbf, 0xb7, 0xc0, 0x1e, 0xbf, 0x5d, 0x8f, 0x2e, 0x3f,
  0x5b, 0x10, 0xa1, 0xbf, 0xf2, 0xc4, 0x75, 0x3f, 0x85, 0x3e, 0x09, 0xbf,
  0xea, 0xdc, 0x9a, 0xc0, 0x4d, 0x4b, 0xd2, 0x3e, 0xe7, 0x1a, 0x7e, 0xc0,
  0x8b, 0x06, 0xdc, 0xbc, 0xb4, 0x0f, 0xed, 0x3e, 0xd1, 0x12, 0xc6, 0xbf,
  0x77, 0xae, 0x97, 0x3e, 0x92, 0x3a, 0xdb, 0xbe, 0x86, 0xac, 0x8e, 0x3e,
  0x78, 0xeb, 0x5a, 0x3e, 0xd5, 0xd4, 0xe7, 0x3e, 0x0a, 0x83, 0x83, 0x3e,
  0x66, 0x05, 0x19, 0x3f, 0xda, 0x4d, 0x46, 0xc1, 0xd2, 0x01, 0x9b, 0xbe,
  0xe7, 0x41, 0x48, 0xbf, 0x16, 0xb2, 0x57, 0xc0, 0xdd, 0xa7, 0x06, 0x3f,
  0xbb, 0x89, 0xbf, 0xbd, 0xfe, 0xf0, 0x3d, 0xbf, 0x8d, 0xe6, 0xc9, 0xbf,
  0x9d, 0xcd, 0x33, 0xbe, 0x0c, 0x51, 0xb3, 0xbf, 0x4f, 0x82, 0x8a, 0x3e,
  0x57, 0xb1, 0x36, 0xbf, 0x91, 0x12, 0xfb, 0x3c, 0x64, 0x4f, 0xdd, 0xbe,
  0x31, 0xb2, 0xd5, 0x3f, 0x58, 0x99, 0x4c, 0x3e, 0x7f, 0x37, 0xdf, 0x3f,
  0xd7, 0x5f, 0x3c, 0x3d, 0x5a, 0x97, 0xfa, 0xbd, 0x11, 0x28, 0x8d, 0xc0,
  0x98, 0xf1, 0x85, 0xbd, 0x0c, 0x13, 0xb7, 0xc0, 0xfe, 0x0d, 0x47, 0xbf,
  0x62, 0xbf, 0x4d, 0x3e, 0x6f, 0x03, 0x3a, 0xbf, 0x87, 0xae, 0x37, 0x3e,
  0xab, 0x46, 0x81, 0x3d, 0x07, 0x5a, 0x96, 0xbe, 0x8d, 0x8b, 0x03, 0xc0,
  0x13, 0xe4, 0xc3, 0x3e, 0x33, 0x4a, 0x29, 0xbd, 0xdb, 0xe8, 0x39, 0x3f,
  0xf4, 0x70, 0x1d, 0xc1, 0xd9, 0xea, 0xd7, 0x3e, 0xfe, 0x69, 0x09, 0x3e,
  0xf4, 0x7a, 0xe0, 0xbe, 0xcf, 0xcc, 0x37, 0x40, 0x3a, 0x6c, 0x7b, 0x3d,
  0xff, 0x71, 0xec, 0xbf, 0xdd, 0xb6, 0xb3, 0x3e, 0x4e, 0xb0, 0xd8, 0x3c,
  0x09, 0x1d, 0xa9, 0x3f, 0x0a, 0x4d, 0xa0, 0xbf, 0x84, 0xde, 0x27, 0x3e,
  0x28, 0xcb, 0x20, 0xbe, 0x99, 0xe2, 0xd6, 0x3e, 0x37, 0x4c, 0x19, 0x3f,
  0x46, 0xa0, 0x43, 0x3e, 0x60, 0xa2, 0x9a, 0x3c, 0x07, 0x66, 0xd8, 0x3e,
  0x3d, 0x2c, 0x44, 0xbe, 0x77, 0xc7, 0x60, 0xc1, 0x9d, 0x30, 0x56, 0x3f,
  0x54, 0x8b, 0x17, 0xc1, 0x7d, 0xd9, 0x44, 0xbf, 0x01, 0xac, 0x29, 0xc0,
  0x15, 0x28, 0x06, 0xbf, 0x3f, 0x10, 0x4d, 0x3f, 0xb2, 0x41, 0x37, 0x3f,
  0x02, 0xc7, 0x09, 0x3e, 0x23, 0x63, 0xd2, 0x3e, 0x32, 0xdc, 0x46, 0xc0,
  0xbc, 0x20, 0xa3, 0x3e, 0x2d, 0xcd, 0xda, 0xbd, 0x33, 0xa1, 0xf2, 0xc0,
  0xc8, 0x30, 0xe0, 0xbd, 0x3f, 0x5e, 0x7f, 0x3d, 0xbf, 0x1e, 0x20, 0x3f,
  0x49, 0x21, 0xc2, 0xc0, 0x70, 0x3c, 0x74, 0xbe, 0xf6, 0x07, 0x69, 0xbf,
  0x7a, 0x8f, 0xa8, 0x3e, 0xd3, 0xf5, 0x49, 0x3f, 0x02, 0xd5, 0x8d, 0x3d,
  0x5f, 0xfa, 0x24, 0x3e, 0x73, 0x63, 0x90, 0xbf, 0xd7, 0x18, 0x60, 0xbe,
  0x28, 0x35, 0x99, 0x3d, 0x43, 0x15, 0xa2, 0x3c, 0xdf, 0x3f, 0x83, 0x3f,
  0x27, 0xf5, 0xc8, 0xbb, 0x10, 0xee, 0x7a, 0x3e, 0x97, 0x7d, 0x12, 0xc0,
  0x48, 0xb9, 0x19, 0xc1, 0xbf, 0xaf, 0xbd, 0xbd, 0xe4, 0xcd, 0x79, 0xc0,
  0x02, 0xdc, 0xb7, 0xbf, 0xc4, 0x5e, 0x88, 0x3e, 0x9e, 0x0a, 0x8e, 0xbc,
  0x62, 0x5a, 0x18, 0xbc, 0xc5, 0x7f, 0x0e, 0xbe, 0x64, 0x52, 0x47, 0xbe,
  0xd9, 0xae, 0x10, 0xbc, 0x02, 0x9b, 0x87, 0x3e, 0xc3, 0x45, 0xca, 0xbf,
  0x52, 0xa3, 0xd9, 0xbe, 0xa7, 0x3c, 0x60, 0xc0, 0xd8, 0x93, 0x8b, 0xbd,
  0x40, 0xd9, 0xd9, 0x3e, 0x0d, 0x2a, 0xea, 0x3f, 0xe4, 0x7a, 0xa3, 0xbf,
  0x27, 0xf0, 0xb9, 0x3d, 0xfc, 0x2d, 0xcb, 0x3e, 0xe5, 0xb2, 0x77, 0xbf,
  0x80, 0xdc, 0xe1, 0x3f, 0xb6, 0x9d, 0x56, 0x3f, 0x78, 0x86, 0x58, 0x3e,
  0xd6, 0x0d, 0x02, 0x3e, 0x05, 0x89, 0x87, 0x3c, 0x75, 0x70, 0x7c, 0xbc,
  0xf6, 0xc1, 0x51, 0xbe, 0x79, 0xfb, 0x6a, 0x3e, 0x74, 0x2c, 0x05, 0x40,
  0xce, 0xad, 0xd5, 0x3e, 0x41, 0x0e, 0x88, 0x3b, 0x93, 0x46, 0x50, 0xc1,
  0x76, 0xac, 0xa5, 0x3e, 0x6c, 0x4b, 0x2f, 0xc1, 0x9e, 0x55, 0xa5, 0x3c,
  0x56, 0x14, 0x83, 0x3e, 0x63, 0xf7, 0xac, 0xbf, 0x73, 0xba, 0x4f, 0xbf,
  0x0d, 0x40, 0xfb, 0x3e, 0xb6, 0x03, 0x96, 0x3e, 0x85, 0x9a, 0x5d, 0x3d,
  0x90, 0x21, 0x22, 0x3f, 0xf7, 0x3e, 0x1d, 0x3f, 0xb7, 0x99, 0x38, 0x3e,
  0xbc, 0xc7, 0x12, 0xc1, 0xdc, 0xa4, 0x13, 0xbe, 0x8d, 0x9f, 0x1a, 0xc0,
  0xac, 0xd4, 0x90, 0x3e, 0x00, 0xd7, 0x33, 0xc0, 0x4a, 0x47, 0xbc, 0xbd,
  0x98, 0x5c, 0x98, 0xbe, 0xb6, 0xc1, 0x0f, 0xbf, 0x9a, 0xdc, 0x95, 0x3e,
  0xfd, 0xa5, 0xdf, 0xbf, 0xc5, 0x46, 0x17, 0x3e, 0xba, 0x20, 0x3e, 0xbe,
  0x3a, 0xbe, 0x04, 0x3e, 0x0b, 0x72, 0xec, 0x3d, 0xb3, 0x91, 0x12, 0xc0,
  0xad, 0x3a, 0x36, 0x3e, 0xc5, 0x97, 0x6d, 0xbf, 0x03, 0x9e, 0xfb, 0x3f,
  0x18, 0x57, 0x82, 0x3e, 0xb4, 0xdf, 0x3a, 0xc1, 0xd1, 0xcd, 0x91, 0xbf,
  0x4f, 0x52, 0x9c, 0xc0, 0x0b, 0x5f, 0x8c, 0x3e, 0xf0, 0x22, 0x0e, 0x3f,
  0x9b, 0x12, 0x27, 0xbe, 0x17, 0xd8, 0xa2, 0xbf, 0xd2, 0x9d, 0xad, 0xbe,
  0x27, 0x66, 0x96, 0xbe, 0x32, 0x49, 0x13, 0x3f, 0xa1, 0xa3, 0x31, 0xbe,
  0xee, 0x47, 0x98, 0xbd, 0xdf, 0x69, 0x13, 0xbe, 0x4a, 0x09, 0xf5, 0x3d,
  0x56, 0x02, 0x17, 0xbf, 0xcb, 0x86, 0xf0, 0xbd, 0x4e, 0x52, 0x05, 0xbf,
  0x77, 0x01, 0xf0, 0x3f, 0x21, 0x7f, 0xfa, 0xbe, 0x71, 0x96, 0xa3, 0x3e,
  0xbd, 0x78, 0x2b, 0x3f, 0x69, 0x63, 0x5a, 0x3e, 0xc7, 0x0b, 0xa4, 0x3f,
  0x50, 0xad, 0x1b, 0x3f, 0x68, 0x35, 0x9f, 0xbe, 0x34, 0xf1, 0x1b, 0xbd,
  0x61, 0x42, 0x89, 0x3e, 0x1a, 0x03, 0x55, 0x3e, 0x32, 0xb0, 0xaf, 0x3f,
  0xbf, 0x03, 0xea, 0xbd, 0x40, 0xf3, 0x89, 0x3d, 0x69, 0xca, 0xc3, 0x3f,
  0xce, 0x52, 0xaf, 0xc0, 0xa6, 0xe7, 0xac, 0xbf, 0xe4, 0x04, 0x10, 0xc1,
  0x7d, 0xfc, 0x26, 0xbe, 0x5e, 0xd7, 0xd4, 0xbf, 0x5b, 0x44, 0xc5, 0x3d,
  0x04, 0x84, 0x43, 0xc0, 0x97, 0xcd, 0x20, 0x3b, 0xa7, 0x2d, 0x13, 0xbf,
  0x31, 0xd0, 0x72, 0xbf, 0x3d, 0x68, 0xa1, 0x3f, 0xf3, 0xb6, 0x9e, 0x3d,
  0x95, 0xdf, 0x83, 0x3c, 0xe7, 0x61, 0x1a, 0xc1, 0x5e, 0xa3, 0xf8, 0xbe,
  0x3e, 0xd6, 0x6a, 0x3f, 0x2b, 0x5f, 0x0a, 0x3f, 0xbf, 0x09, 0x63, 0xc0,
  0xbb, 0xc2, 0xf7, 0x3d, 0x29, 0x44, 0xf9, 0x3e, 0x7d, 0xb1, 0xa4, 0xbf,
  0x02, 0xa9, 0x40, 0xbf, 0x50, 0xc4, 0x99, 0x3f, 0x9c, 0x2f, 0x24, 0x3d,
  0x42, 0x89, 0xf6, 0x3d, 0xbb, 0x28, 0xe5, 0x3d, 0x25, 0x00, 0xb1, 0xbf,
  0x6d, 0x1d, 0xaa, 0xbd, 0xea, 0x23, 0x4d, 0x3f, 0x63, 0xe8, 0x1b, 0x3e,
  0xb8, 0x56, 0xa2, 0x3d, 0xf0, 0xc8, 0x64, 0xbe, 0xb7, 0x6a, 0x2e, 0xc1,
  0x7d, 0xf3, 0x2c, 0xc0, 0x97, 0x64, 0x31, 0xc1, 0xdd, 0x87, 0x91, 0xbe,
  0xc1, 0x32, 0xd2, 0xbd, 0x6f, 0x65, 0xc3, 0xbf, 0x38, 0xe6, 0xec, 0xbe,
  0xd7, 0x71, 0x1b, 0xc0, 0xcd, 0x4d, 0xf9, 0x3e, 0xf3, 0x19, 0xad, 0xbe,
  0x5d, 0xcf, 0xf6, 0x3e, 0x8c, 0x29, 0x20, 0x3f, 0xe4, 0x1b, 0x82, 0xbe,
  0xb3, 0x05, 0xe9, 0xbe, 0xc2, 0x78, 0x12, 0xbd, 0x14, 0xe3, 0x9c, 0xbf,
  0x8c, 0x4b, 0xc3, 0xbe, 0xcc, 0xef, 0xa4, 0x3f, 0x89, 0x0a, 0xc5, 0xbf,
  0x31, 0x37, 0x08, 0xbe, 0xa2, 0xbe, 0x8b, 0xbe, 0xf7, 0x24, 0xe9, 0x3e,
  0x0e, 0xab, 0x89, 0xc0, 0x43, 0x54, 0x1e, 0xc0, 0xe2, 0x09, 0x08, 0x3f,
  0x26, 0xad, 0xd7, 0x3d, 0x58, 0x04, 0x9c, 0x3e, 0x2d, 0xae, 0x45, 0xbf,
  0x59, 0x3f, 0xe5, 0x3e, 0x5e, 0x48, 0xb8, 0x3f, 0x29, 0xa1, 0xbf, 0x3e,
  0xcf, 0x2e, 0xf9, 0xbe, 0xfc, 0x28, 0x70, 0xc0, 0x3e, 0xa6, 0x37, 0x3f,
  0x2d, 0x0d, 0xee, 0xbe, 0xf1, 0x9f, 0xb0, 0xbd, 0x2e, 0xdd, 0x21, 0xbd,
  0x03, 0x0b, 0x97, 0xbe, 0xcc, 0xe5, 0xf8, 0xbf, 0xe5, 0xe1, 0x65, 0xbf,
  0x06, 0xc7, 0xdb, 0xbe, 0x77, 0xc5, 0x43, 0x3e, 0x51, 0x4b, 0xc9, 0xbf,
  0xd2, 0xbc, 0x6f, 0x3e, 0xf2, 0xac, 0x5e, 0xbb, 0xe2, 0x7d, 0xee, 0xc0,
  0xb2, 0x20, 0xf2, 0x3e, 0xe8, 0x39, 0x37, 0xbe, 0xf3, 0x0a, 0xa9, 0x3e,
  0x68, 0x7d, 0xe5, 0xc0, 0x61, 0xea, 0xb3, 0xbf, 0x90, 0xe2, 0x8d, 0x3f,
  0x4a, 0xde, 0x04, 0x3f, 0xf8, 0xb1, 0x09, 0xbf, 0x92, 0x9e, 0x40, 0xbe,
  0x74, 0x3e, 0x8a, 0x3e, 0x6c, 0xbc, 0x60, 0x3f, 0x79, 0x29, 0x36, 0x3c,
  0xb6, 0x3a, 0x22, 0xbe, 0xa0, 0xfe, 0x0d, 0xbe, 0xd4, 0xfb, 0x00, 0x40,
  0x1f, 0x20, 0xa4, 0x3f, 0xe4, 0xdb, 0xc3, 0x3e, 0x89, 0x8b, 0xee, 0xbe,
  0xf2, 0x1a, 0xe6, 0xc0, 0x94, 0x59, 0x43, 0xbe, 0x0e, 0x25, 0x17, 0xc1,
  0xa9, 0x87, 0x43, 0xbf, 0xf4, 0x77, 0x0b, 0xbf, 0x30, 0xae, 0x24, 0xbd,
  0xfc, 0x38, 0xa5, 0xbf, 0xfd, 0xbd, 0xe3, 0x3e, 0xaa, 0x27, 0x4d, 0x3e,
  0x92, 0x39, 0x29, 0xbe, 0x59, 0xbb, 0xc7, 0x3c, 0xf7, 0x14, 0x9e, 0x3c,
  0x3e, 0x81, 0x01, 0xbe, 0xc5, 0x2d, 0x2a, 0xc0, 0xf1, 0xf5, 0xee, 0x3e,
  0xbc, 0xe7, 0xa1, 0xbf, 0xcd, 0x82, 0x2d, 0x3f, 0x85, 0xe6, 0x24, 0x3e,
  0xdd, 0xc0, 0x99, 0x3f, 0x9a, 0x55, 0x56, 0x3f, 0xd7, 0xb1, 0x21, 0xbf,
  0x9f, 0xe9, 0xa0, 0xbe, 0xbe, 0x8b, 0x38, 0xc0, 0x00, 0x6c, 0x3f, 0xbf,
  0xad, 0xbc, 0x06, 0x3e, 0x1a, 0x98, 0xc2, 0x3b, 0x69, 0x01, 0x4a, 0x3d,
  0xa0, 0x33, 0x15, 0xbf, 0x60, 0x8c, 0x87, 0x3f, 0xf7, 0xa3, 0xc2, 0xbf,
  0xbf, 0x83, 0x8d, 0x3e, 0x42, 0x8d, 0xba, 0x3e, 0xdb, 0xe0, 0xd1, 0xc0,
  0x80, 0x85, 0x00, 0x3e, 0x52, 0x34, 0xa9, 0xc0, 0xa8, 0x47, 0x16, 0xc0,
  0x0b, 0x22, 0x99, 0x3e, 0xad, 0x05, 0x58, 0x3f, 0x37, 0xfc, 0x14, 0xbf,
  0xc1, 0x17, 0x11, 0x3d, 0xf5, 0x30, 0x76, 0x3e, 0xf1, 0xf9, 0x8e, 0x3e,
  0x38, 0xe0, 0x54, 0x3f, 0x1b, 0x79, 0x22, 0xbf, 0x98, 0xbb, 0x0e, 0x3f,
  0xd1, 0x11, 0xad, 0xc0, 0x0e, 0x4e, 0x94, 0x3f, 0x82, 0xf1, 0x22, 0xbf,
  0x1a, 0x57, 0x09, 0x3f, 0x50, 0xff, 0x30, 0xc0, 0x64, 0xfc, 0x58, 0x3e,
  0x24, 0x45, 0x4a, 0xbe, 0x2b, 0xb0, 0xea, 0x3e, 0x6d, 0xe4, 0x86, 0x3e,
  0x24, 0x4c, 0x5f, 0x3f, 0x61, 0x73, 0x69, 0x3f, 0x13, 0xc3, 0x0a, 0xbe,
  0x5e, 0xee, 0x96, 0x3d, 0xcb, 0xd8, 0x9b, 0xbf, 0x38, 0x73, 0xb0, 0xbf,
  0x98, 0xa9, 0xc4, 0xbf, 0xc4, 0x0a, 0xd0, 0x3f, 0x7a, 0x8a, 0x72, 0xbf,
  0xdc, 0x7b, 0x52, 0xbe, 0x4e, 0xd0, 0x5e, 0xc1, 0x29, 0x2d, 0xfe, 0x3f,
  0x9b, 0x0d, 0x65, 0xc0, 0x57, 0xb3, 0x1e, 0x3f, 0x5c, 0x67, 0x2f, 0xbf,
  0x2d, 0x8e, 0x35, 0xbf, 0xae, 0x1c, 0x62, 0xbf, 0x2a, 0xc3, 0x67, 0xbe,
  0x05, 0x02, 0xdf, 0x3d, 0x12, 0x91, 0x70, 0x3e, 0x04, 0x1d, 0xe0, 0xbf,
  0x07, 0xff, 0x95, 0x3e, 0x65, 0xd3, 0x56, 0x3f, 0x6e, 0x2d, 0xc8, 0xc0,
  0x26, 0x9b, 0x26, 0xbf, 0x67, 0x38, 0xff, 0xbe, 0x57, 0x34, 0x2e, 0xc0,
  0xb9, 0xb7, 0xfa, 0xbf, 0x68, 0x6c, 0x84, 0xbe, 0xc6, 0x1d, 0xfb, 0x3d,
  0x77, 0x43, 0xd8, 0xbe, 0xe5, 0x18, 0x3b, 0xbf, 0xe3, 0x49, 0xeb, 0xbd,
  0xaa, 0x04, 0xd9, 0xbe, 0x67, 0x2c, 0x88, 0x3e, 0x3a, 0x13, 0xcc, 0xbc,
  0x37, 0x7a, 0xa9, 0xbf, 0xe4, 0xcc, 0x04, 0xbe, 0x6a, 0xc2, 0x84, 0xbf,
  0x5d, 0x38, 0x5c, 0x3e, 0x44, 0x10, 0x4a, 0xc0, 0x05, 0x68, 0xbc, 0x3d,
  0x4a, 0x68, 0xc6, 0xc0, 0x25, 0x6a, 0x47, 0x3f, 0xde, 0x67, 0xc0, 0xbf,
  0x87, 0xfb, 0xa8, 0x3e, 0x22, 0xd3, 0x88, 0x3f, 0x83, 0x3b, 0x25, 0xbf,
  0xb7, 0x92, 0x44, 0x3e, 0x8b, 0x60, 0x95, 0xbd, 0xfd, 0x37, 0x0f, 0x3f,
  0xf3, 0x78, 0x69, 0xbf, 0x1e, 0xb5, 0x16, 0xc0, 0xdd, 0xae, 0xa7, 0x3d,
  0x02, 0x21, 0x0e, 0x3f, 0x9b, 0xd5, 0x80, 0xc1, 0x25, 0xcc, 0x6e, 0xbc,
  0xc9, 0xc3, 0x21, 0xbf, 0x5c, 0x28, 0x19, 0x3f, 0xfb, 0x32, 0xb1, 0xbf,
  0x4a, 0xc4, 0xcf, 0xbd, 0xb0, 0x49, 0x87, 0x3e, 0xff, 0xad, 0x2f, 0x3f,
  0x94, 0x4f, 0x24, 0xbf, 0xa6, 0x4c, 0x2d, 0xc0, 0xd8, 0xab, 0x6e, 0x3e,
  0x09, 0x38, 0x53, 0xbd, 0x4c, 0x0c, 0xac, 0x3e, 0x10, 0x57, 0xfc, 0xbc,
  0x8d, 0xf5, 0xfb, 0x3e, 0x11, 0xff, 0xa8, 0xbf, 0x82, 0x7b, 0xfd, 0x3e,
  0x53, 0xfe, 0x0a, 0x3f, 0x20, 0xfd, 0x88, 0x3e, 0xae, 0x1f, 0x51, 0xc1,
  0x23, 0x90, 0x0f, 0xbf, 0xaf, 0x97, 0xf0, 0xc0, 0x1c, 0x3c, 0x19, 0x3f,
  0x53, 0xb5, 0xf5, 0xbf, 0x1d, 0x3b, 0x8f, 0x3f, 0x29, 0xcc, 0xca, 0x3f,
  0xfc, 0x57, 0xf4, 0xbf, 0x47, 0x6e, 0x65, 0xbe, 0x3d, 0x5f, 0x81, 0x3e,
  0x8b, 0x7e, 0x0c, 0xc0, 0x9a, 0x0a, 0xc5, 0xbd, 0x31, 0x6c, 0x8a, 0xbe,
  0xb8, 0x54, 0xad, 0xc0, 0x13, 0x47, 0xfd, 0xbd, 0x2a, 0xad, 0xa8, 0x3d,
  0xab, 0x8e, 0x22, 0x3f, 0x0c, 0xd7, 0x11, 0x40, 0x09, 0xb8, 0x69, 0x3e,
  0xb4, 0x6d, 0x2a, 0xbf, 0xf3, 0xa8, 0x07, 0x3c, 0x44, 0xcd, 0xc5, 0xbe,
  0xcd, 0x8a, 0x6a, 0x3e, 0x94, 0x99, 0x02, 0xbe, 0xde, 0x18, 0x1b, 0x3f,
  0x61, 0x78, 0x22, 0x3e, 0x87, 0xec, 0xb8, 0x3e, 0xcd, 0x4a, 0x05, 0x3f,
  0xf5, 0x46, 0xb0, 0x3f, 0xe6, 0x7a, 0x1f, 0xc0, 0x94, 0xc3, 0xb2, 0xbf,
  0xda, 0x87, 0x42, 0x3f, 0xfd, 0x2d, 0x74, 0xc0, 0x2e, 0x1f, 0x84, 0x3b,
  0x70, 0x8d, 0xef, 0xc0, 0x32, 0xb0, 0x8c, 0x3f, 0xc8, 0x9c, 0x5c, 0x3e,
  0x14, 0x4c, 0x0a, 0xc0, 0x78, 0xb5, 0x9b, 0xbf, 0x46, 0x54, 0x28, 0xbf,
  0xa8, 0xd5, 0x65, 0x3f, 0xfb, 0x39, 0x9c, 0x3e, 0x54, 0x2e, 0x4f, 0x3d,
  0x12, 0x3c, 0x1a, 0x3f, 0xc6, 0x17, 0x7d, 0xbe, 0xba, 0x90, 0x9e, 0xc0,
  0xa0, 0x12, 0x71, 0xbf, 0x71, 0xa0, 0x8f, 0x3f, 0xca, 0xcb, 0xf2, 0xbb,
  0x13, 0xaa, 0x93, 0xbf, 0xcf, 0xce, 0x89, 0xbf, 0xc1, 0xc7, 0x52, 0xbe,
  0xc5, 0xae, 0x04, 0x3d, 0xba, 0xc8, 0x82, 0x3e, 0x22, 0x35, 0xbe, 0xbf,
  0x3d, 0x6e, 0x67, 0xbe, 0xda, 0x4f, 0x1e, 0xbf, 0x8e, 0x9c, 0xaf, 0x3e,
  0xda, 0x7b, 0x1b, 0xbe, 0xb3, 0x36, 0x13, 0xbf, 0x71, 0xa1, 0xa2, 0x3d,
  0xc1, 0x9b, 0xcc, 0x3d, 0xa3, 0xc0, 0x4f, 0xbf, 0x16, 0x1c, 0x77, 0x3d,
  0x53, 0x2c, 0x0b, 0xbf, 0xcc, 0x82, 0x24, 0xbf, 0xee, 0x37, 0xa9, 0xbf,
  0xe7, 0x9c, 0x15, 0x3e, 0x2b, 0x5f, 0x3b, 0xbf, 0xa3, 0xdd, 0x1f, 0x3c,
  0x73, 0x39, 0x4a, 0x3e, 0x5d, 0x5f, 0x8b, 0xbf, 0x03, 0x6e, 0x55, 0x3f,
  0xbc, 0xa4, 0xc0, 0xbe, 0xc0, 0x36, 0xef, 0xbf, 0x86, 0x09, 0x08, 0xbf,
  0x45, 0x28, 0xd6, 0x3e, 0xca, 0x4d, 0x20, 0xc1, 0xc8, 0x2b, 0x7c, 0xbf,
  0xa8, 0x71, 0xe2, 0x3e, 0x2a, 0x91, 0xa7, 0xbd, 0x76, 0x1e, 0xb1, 0xc0,
  0x82, 0x77, 0x22, 0xbf, 0xd9, 0x54, 0xe5, 0x3e, 0x1f, 0xc3, 0x81, 0x3e,
  0x13, 0x49, 0xae, 0x3e, 0x56, 0x35, 0x60, 0x3f, 0x61, 0x3f, 0xb2, 0xbf,
  0x85, 0x05, 0xaa, 0x3e, 0x72, 0x03, 0x11, 0xbe, 0xad, 0x1a, 0xb8, 0x3e,
  0x8e, 0x36, 0x04, 0xbd, 0x00, 0x08, 0x5e, 0x3f, 0x82, 0x06, 0xe4, 0x3e,
  0x6b, 0xc1, 0x28, 0x3f, 0xc8, 0xf3, 0x84, 0xbf, 0x4c, 0xd9, 0x75, 0xc1,
  0xbe, 0x66, 0x12, 0xbe, 0x44, 0x0c, 0x26, 0xc1, 0xb6, 0x70, 0xb6, 0xbe,
  0x83, 0x26, 0x8f, 0x3f, 0x50, 0x89, 0xa3, 0x3e, 0x10, 0x49, 0x37, 0x3f,
  0xca, 0xa3, 0x0a, 0xbe, 0x44, 0xdf, 0x31, 0xbc, 0x29, 0xa2, 0x9d, 0x3e,
  0x63, 0xce, 0x28, 0x40, 0x99, 0xae, 0x63, 0xbd, 0xa7, 0x93, 0x86, 0x3f,
  0xae, 0x81, 0x22, 0x3f, 0xdb, 0x7d, 0x1d, 0x3e, 0x49, 0xad, 0xd7, 0xbb,
  0xe2, 0x21, 0xb0, 0xbe, 0x94, 0xdb, 0xd0, 0xbe, 0xb4, 0x20, 0x28, 0xbf,
  0xd8, 0xa7, 0x85, 0xbe, 0xa7, 0xc0, 0x57, 0xc0, 0xb9, 0xcf, 0x46, 0xb9,
  0xa8, 0x53, 0x4f, 0xbf, 0x81, 0xdf, 0x15, 0x3e, 0x50, 0x73, 0xa7, 0x3d,
  0x20, 0x4a, 0x81, 0x3d, 0x5b, 0x2c, 0x3e, 0xbf, 0x4b, 0x4b, 0xd4, 0x3f,
  0x39, 0x67, 0x4b, 0x3f, 0x22, 0x97, 0x0a, 0xbe, 0xe0, 0x35, 0x04, 0x3f,
  0x9b, 0x8a, 0x64, 0x3e, 0x7c, 0x4c, 0x9f, 0xc0, 0x52, 0x9e, 0x4e, 0xbf,
  0xa8, 0xf2, 0xf9, 0xc0, 0x78, 0x5c, 0x8d, 0xbb, 0x9d, 0xef, 0x56, 0xbf,
  0x3e, 0x9f, 0xd9, 0xbf, 0xa2, 0xac, 0x20, 0x3f, 0xb3, 0x2f, 0xbd, 0x3c,
  0xf2, 0xcc, 0x63, 0x3d, 0xe6, 0x79, 0x49, 0xbe, 0xb7, 0x87, 0x09, 0xc0,
  0x2e, 0xb1, 0x51, 0xbf, 0xfc, 0xa4, 0x79, 0xbd, 0xb8, 0xcb, 0x9c, 0xc0,
  0xab, 0xf2, 0x95, 0xbe, 0xe7, 0xdd, 0xd0, 0xbe, 0xe7, 0xb0, 0x3b, 0x3d,
  0x2e, 0x8b, 0x4a, 0xbf, 0x78, 0xab, 0x18, 0x40, 0xad, 0x94, 0x53, 0xbe,
  0xa4, 0x01, 0x98, 0xbf, 0x2f, 0xba, 0xda, 0x3e, 0x65, 0x81, 0x84, 0x3e,
  0x7d, 0x5f, 0x8d, 0x3d, 0x52, 0x9c, 0x57, 0xbf, 0xc1, 0xa5, 0xb5, 0x3d,
  0x4d, 0x1d, 0x33, 0xc0, 0x4d, 0xa4, 0x6a, 0xbf, 0xf6, 0x9b, 0x7b, 0xbf,
  0x61, 0x69, 0x6c, 0x3f, 0x38, 0x99, 0x08, 0xc0, 0xb6, 0xc8, 0x00, 0x3f,
  0xf5, 0x93, 0x06, 0xc1, 0xe6, 0xe6, 0xf6, 0x3c, 0x64, 0xa8, 0x21, 0x40,
  0x4b, 0x7b, 0xfa, 0x3c, 0x5d, 0xc2, 0x8d, 0x3e, 0x43, 0xf4, 0x87, 0xbe,
  0x36, 0x7c, 0x81, 0xbe, 0xf6, 0xf3, 0xff, 0xff, 0x04, 0x00, 0x00, 0x00,
  0x58, 0x00, 0x00, 0x00, 0x46, 0x70, 0x44, 0xbf, 0xa0, 0x7f, 0x95, 0x40,
  0xbd, 0xf9, 0xe2, 0xc0, 0xb3, 0x7e, 0xc3, 0x40, 0x97, 0xf3, 0x3a, 0x40,
  0x66, 0xb6, 0x11, 0x41, 0xd9, 0x81, 0xb2, 0x40, 0x47, 0x31, 0x8b, 0x40,
  0x1b, 0x2e, 0xbe, 0x3f, 0x84, 0x2e, 0x27, 0x41, 0x45, 0x35, 0x66, 0xbf,
  0xdc, 0x4c, 0x37, 0x41, 0x5c, 0xa8, 0x75, 0xc0, 0xbb, 0x26, 0x42, 0x41,
  0x96, 0x35, 0x13, 0x41, 0x2c, 0x52, 0x73, 0x40, 0x23, 0x1a, 0x6d, 0x40,
  0x1a, 0xfe, 0x4f, 0x40, 0x1b, 0xc4, 0x9d, 0x3e, 0x8f, 0x17, 0x91, 0xbf,
  0x04, 0x72, 0x68, 0x40, 0xd5, 0xc0, 0x5a, 0xbf, 0x5a, 0xf4, 0xff, 0xff,
  0x04, 0x00, 0x00, 0x00, 0x00, 0x0b, 0x00, 0x00, 0x8e, 0x02, 0xa2, 0x3e,
  0x20, 0xb6, 0xc4, 0xbe, 0xcb, 0x0c, 0xc6, 0x3e, 0x1a, 0x6f, 0xd8, 0x3e,
  0x97, 0x93, 0x84, 0xbe, 0xc6, 0x9f, 0x46, 0x3f, 0x2d, 0xa3, 0x43, 0x3f,
  0x06, 0x4b, 0x1f, 0x3f, 0xad, 0x74, 0x31, 0xbf, 0x87, 0x15, 0xbe, 0xbe,
  0x44, 0x9f, 0x24, 0x3f, 0xff, 0x38, 0x3c, 0x3e, 0xf0, 0xc8, 0xfb, 0x3e,
  0x06, 0x6a, 0x05, 0x3f, 0xce, 0x58, 0x44, 0x3f, 0x65, 0x1a, 0x2d, 0xbf,
  0xe2, 0x78, 0x3f, 0x3f, 0xd1, 0x35, 0x1e, 0xbf, 0x26, 0x0b, 0x0a, 0x3f,
  0x36, 0x5a, 0x74, 0xbf, 0x61, 0xe6, 0x90, 0xbe, 0x63, 0x2b, 0x3f, 0xbf,
  0x32, 0x6a, 0x65, 0xbf, 0xae, 0xc6, 0x29, 0x3f, 0xbb, 0x5b, 0x12, 0x3f,
  0x49, 0x4d, 0x1e, 0x3f, 0xdc, 0x07, 0x1c, 0xbf, 0x7b, 0x96, 0x34, 0xbf,
  0x71, 0x15, 0x0a, 0xbf, 0xac, 0x1a, 0x07, 0xbf, 0x17, 0xd0, 0x39, 0xbf,
  0xa4, 0xea, 0x52, 0x3f, 0x32, 0x94, 0xef, 0xbe, 0x7e, 0x23, 0x44, 0xbf,
  0xab, 0x26, 0xc2, 0xbe, 0x89, 0x2c, 0x23, 0x3f, 0x4b, 0xc6, 0x20, 0x3f,
  0x0f, 0x01, 0x5b, 0x3f, 0x51, 0x69, 0x70, 0xbf, 0x3e, 0x6d, 0x77, 0xbe,
  0x62, 0xa7, 0xb4, 0xbd, 0x38, 0x44, 0xb0, 0x3e, 0x9b, 0x52, 0x73, 0x3f,
  0x5e, 0x8e, 0x0b, 0xbf, 0xb0, 0x44, 0x9f, 0x3e, 0x28, 0xa6, 0xfe, 0xbe,
  0x15, 0x93, 0x64, 0xbf, 0xea, 0xdd, 0xc4, 0x3e, 0x0c, 0x22, 0x19, 0x3f,
  0x2d, 0x71, 0x27, 0xbf, 0x6e, 0x33, 0x87, 0xbf, 0xa2, 0x14, 0x84, 0x3f,
  0x8e, 0x33, 0x06, 0x3f, 0x6f, 0xac, 0x38, 0xbf, 0xf3, 0x78, 0x5d, 0x3f,
  0x62, 0x5e, 0x41, 0xbf, 0xbf, 0x0c, 0x08, 0xbf, 0xcc, 0x52, 0xe4, 0xbe,
  0xef, 0x37, 0x32, 0xbf, 0xbd, 0xa5, 0x0e, 0x3f, 0x22, 0x6f, 0x2c, 0x3f,
  0x16, 0x97, 0x00, 0x3f, 0x8e, 0x70, 0x50, 0xbf, 0x5d, 0x1c, 0x12, 0xbf,
  0x52, 0x2a, 0x2b, 0xbf, 0x96, 0x49, 0x97, 0xbf, 0xd4, 0x01, 0x9e, 0xbe,
  0x8f, 0x8f, 0xf5, 0xbe, 0x70, 0x17, 0x6d, 0x3f, 0xd6, 0x9c, 0x13, 0xbf,
  0xf5, 0xde, 0x1f, 0xbf, 0xa9, 0xc8, 0x2c, 0x3f, 0x0d, 0x80, 0x43, 0x3f,
  0xd0, 0x9c, 0x78, 0xbf, 0xfb, 0x89, 0x7d, 0x3f, 0x88, 0x5b, 0xe6, 0xbe,
  0x48, 0x01, 0x56, 0xbf, 0x88, 0xf9, 0xc0, 0xbe, 0x50, 0xac, 0x61, 0x3e,
  0xa9, 0xac, 0xc5, 0xbe, 0x39, 0x61, 0x86, 0xbf, 0x4a, 0xf8, 0xd2, 0xbe,
  0x70, 0xfd, 0x53, 0x3f, 0x35, 0x7f, 0x39, 0x3f, 0xc4, 0xe2, 0x25, 0x3f,
  0xeb, 0xe5, 0x76, 0x3f, 0x6c, 0x9d, 0x5e, 0x3f, 0x80, 0x7f, 0x84, 0x3f,
  0xe5, 0xf4, 0x41, 0xbf, 0xc5, 0x30, 0x59, 0x3f, 0x1b, 0x48, 0x79, 0x3f,
  0x9f, 0x0e, 0x84, 0x3f, 0x15, 0xbd, 0x8c, 0x3f, 0xe9, 0x3b, 0xb8, 0x3e,
  0x82, 0xeb, 0x62, 0x3f, 0x3c, 0x47, 0xa1, 0xbe, 0x6e, 0x84, 0x15, 0xbf,
  0xb9, 0xe9, 0x55, 0x3f, 0xf0, 0xd9, 0x44, 0x3f, 0x65, 0x4e, 0x91, 0xbf,
  0x15, 0xf2, 0x48, 0x3f, 0x53, 0x16, 0x4c, 0xbf, 0x89, 0xa6, 0x40, 0xbf,
  0x1b, 0x5c, 0x92, 0xbe, 0x40, 0x63, 0x4d, 0x3f, 0x2c, 0x1e, 0x65, 0xbf,
  0x46, 0x3c, 0x42, 0x3f, 0x13, 0x98, 0x04, 0xbf, 0xb1, 0x3d, 0x2e, 0xbf,
  0x60, 0xd0, 0x16, 0xbf, 0xe6, 0xda, 0x60, 0xbf, 0xfe, 0x0e, 0x46, 0x3c,
  0x84, 0x25, 0x54, 0xbf, 0xa7, 0x2d, 0x09, 0xbf, 0x7b, 0x1b, 0x50, 0xbf,
  0x86, 0x08, 0x54, 0xbf, 0x10, 0x56, 0x49, 0xbf, 0x0e, 0xbb, 0x50, 0x3f,
  0x4c, 0x3a, 0x51, 0x3f, 0x54, 0xa6, 0x60, 0x3f, 0x3c, 0xee, 0x6a, 0x3f,
  0x6a, 0xbe, 0x34, 0x3f, 0xfa, 0x88, 0x90, 0x3f, 0x4a, 0x79, 0x04, 0xbf,
  0x31, 0x66, 0x35, 0xbf, 0xe4, 0x72, 0xd2, 0x3e, 0x29, 0x2d, 0x44, 0xbf,
  0x71, 0x63, 0xfa, 0xbe, 0xbf, 0x02, 0x1e, 0x3f, 0x9b, 0x24, 0x34, 0x3f,
  0xdf, 0x46, 0xdd, 0xbe, 0x88, 0x05, 0xe9, 0x3e, 0x7d, 0xd7, 0x20, 0x3f,
  0xf2, 0x05, 0x3f, 0x3f, 0xf8, 0x78, 0x47, 0xbf, 0x20, 0x01, 0x94, 0xbe,
  0xd7, 0x91, 0x1c, 0xbf, 0x65, 0x4f, 0x19, 0x3f, 0x78, 0xdb, 0xe8, 0x3e,
  0x87, 0x4b, 0x31, 0xbd, 0xaf, 0x14, 0xf5, 0x3e, 0x1a, 0x3c, 0x1b, 0xbf,
  0x06, 0x93, 0x75, 0xbf, 0x80, 0xa2, 0x28, 0x3e, 0xb6, 0xc9, 0x70, 0xbf,
  0xb6, 0xb9, 0xd3, 0xbe, 0x60, 0x6a, 0xdc, 0xbe, 0xe2, 0xf1, 0x4a, 0xbf,
  0x7d, 0x3a, 0x5f, 0xbf, 0x46, 0x79, 0x40, 0x3f, 0xf3, 0x71, 0x45, 0x3f,
  0x3d, 0x8b, 0x28, 0xbf, 0xfb, 0x08, 0x54, 0x3f, 0xde, 0x58, 0x1e, 0x3f,
  0x67, 0xcf, 0x72, 0x3f, 0x54, 0xe5, 0x5e, 0x3f, 0xd8, 0x7c, 0x51, 0xbf,
  0x49, 0x28, 0x2b, 0xbf, 0xee, 0x61, 0x55, 0xbf, 0x1f, 0x19, 0x40, 0xbf,
  0xeb, 0x97, 0x2b, 0x3f, 0x8d, 0xda, 0x0f, 0xbf, 0x8c, 0x09, 0xac, 0x3e,
  0xde, 0x40, 0x70, 0xbf, 0x1a, 0xc7, 0x48, 0xbe, 0x8b, 0x76, 0x58, 0x3f,
  0xb6, 0xc5, 0x56, 0xbf, 0xe1, 0x32, 0x12, 0x3f, 0x6e, 0xed, 0x0e, 0xba,
  0xd4, 0xe1, 0x0a, 0xbf, 0x92, 0x82, 0xf7, 0xbe, 0xb2, 0x8c, 0xe9, 0x3e,
  0x48, 0x9e, 0x06, 0xbf, 0x7e, 0x5a, 0x1f, 0xbf, 0x8d, 0x9f, 0x82, 0xbf,
